{
  "version": "1.0",
  "truncation": null,
  "padding": null,
  "added_tokens": [
    {
      "id": 0,
      "content": "<pad>",
      "single_word": false,
      "lstrip": false,
      "rstrip": false,
      "normalized": false,
      "special": true
    },
    {
      "id": 1,
      "content": "<unk>",
      "single_word": false,
      "lstrip": false,
      "rstrip": false,
      "normalized": false,
      "special": true
    },
    {
      "id": 2,
      "content": "<bos>",
      "single_word": false,
      "lstrip": false,
      "rstrip": false,
      "normalized": false,
      "special": true
    },
    {
      "id": 3,
      "content": "<eos>",
      "single_word": false,
      "lstrip": false,
      "rstrip": false,
      "normalized": false,
      "special": true
    }
  ],
  "normalizer": {
    "type": "NFKC"
  },
  "pre_tokenizer": {
    "type": "ByteLevel",
    "add_prefix_space": false,
    "trim_offsets": true,
    "use_regex": true
  },
  "post_processor": null,
  "decoder": {
    "type": "ByteLevel",
    "add_prefix_space": true,
    "trim_offsets": true,
    "use_regex": true
  },
  "model": {
    "type": "BPE",
    "dropout": null,
    "unk_token": "<unk>",
    "continuing_subword_prefix": null,
    "end_of_word_suffix": null,
    "fuse_unk": false,
    "byte_fallback": false,
    "ignore_merges": false,
    "vocab": {
      "<pad>": 0,
      "<unk>": 1,
      "<bos>": 2,
      "<eos>": 3,
      "(": 4,
      ")": 5,
      ",": 6,
      "-": 7,
      ".": 8,
      "0": 9,
      "1": 10,
      "2": 11,
      "3": 12,
      "4": 13,
      "5": 14,
      "6": 15,
      "7": 16,
      "8": 17,
      "9": 18,
      ":": 19,
      "¡": 20,
      "¢": 21,
      "£": 22,
      "¤": 23,
      "¥": 24,
      "¦": 25,
      "§": 26,
      "¨": 27,
      "«": 28,
      "®": 29,
      "¯": 30,
      "°": 31,
      "±": 32,
      "²": 33,
      "³": 34,
      "´": 35,
      "µ": 36,
      "¶": 37,
      "·": 38,
      "¸": 39,
      "¹": 40,
      "º": 41,
      "»": 42,
      "¼": 43,
      "½": 44,
      "¾": 45,
      "¿": 46,
      "Â": 47,
      "Ð": 48,
      "Ñ": 49,
      "â": 50,
      "Ċ": 51,
      "Ġ": 52,
      "Ģ": 53,
      "ģ": 54,
      "Ĥ": 55,
      "ĥ": 56,
      "Ħ": 57,
      "ħ": 58,
      "Ĩ": 59,
      "ĩ": 60,
      "Ī": 61,
      "ī": 62,
      "Ĭ": 63,
      "ĭ": 64,
      "Į": 65,
      "į": 66,
      "İ": 67,
      "ı": 68,
      "Ĳ": 69,
      "ĳ": 70,
      "Ĵ": 71,
      "ĵ": 72,
      "Ķ": 73,
      "ķ": 74,
      "ĸ": 75,
      "Ĺ": 76,
      "ĺ": 77,
      "Ļ": 78,
      "ļ": 79,
      "Ľ": 80,
      "ľ": 81,
      "Ŀ": 82,
      "ŀ": 83,
      "Ł": 84,
      "ł": 85,
      "Ń": 86,
      "ĠÐ": 87,
      "Ð¾": 88,
      "Ðµ": 89,
      "Ð°": 90,
      "Ð¸": 91,
      "ÑĤ": 92,
      "Ð½": 93,
      "Ñģ": 94,
      "Ð¾Ð": 95,
      "ÑĢ": 96,
      "Ð»": 97,
      "Ñı": 98,
      "Ñĥ": 99,
      "Ðº": 100,
      "ĠÐ¿": 101,
      "Ð´": 102,
      "Ð²": 103,
      "Ñĭ": 104,
      "Ñĩ": 105,
      "Ð½Ð¸": 106,
      "ĠÑģ": 107,
      "Ð¼": 108,
      "ÑĮ": 109,
      "ĠÐ²": 110,
      "Ð·": 111,
      "ĠÐ¾": 112,
      "Ñħ": 113,
      "ÑģÑĤ": 114,
      "ĠÐ½": 115,
      "ÑĢÐµ": 116,
      "ÑĢÐ°": 117,
      "ÑĤÐ¾": 118,
      "Ð¾Ð²": 119,
      "Ñİ": 120,
      "ÐµÑĤ": 121,
      "ĠÑĩ": 122,
      "Ð¾Ð»": 123,
      "ĠÐ¸": 124,
      "ĠÐº": 125,
      "Ð±": 126,
      "Ð¹": 127,
      "ÐµÐ½Ð¸": 128,
      "ĠÐ´": 129,
      "Ð»Ð¸": 130,
      "ÑĢÐ¸": 131,
      "Ð¶": 132,
      "Ð¾Ð¼": 133,
      "ÑģÑı": 134,
      "Ð½Ð°": 135,
      "Ð½Ñĭ": 136,
      "Ð¾Ð´": 137,
      "Ð¿": 138,
      "Ð³": 139,
      "ÑĤÐ°": 140,
      "ĠÐ½Ð°": 141,
      "ÑĤÑĮ": 142,
      "Ñī": 143,
      "ÑĤÐµ": 144,
      "Ð´Ð°": 145,
      "ÑĪ": 146,
      "Ð¾Ð³": 147,
      "Ð½Ð¾": 148,
      "ĠÐ¿Ð¾": 149,
      "ÐºÐ°": 150,
      "Ð»Ð°": 151,
      "ÑĨ": 152,
      "ÑĢÐ¾": 153,
      "Ð¾Ð±": 154,
      "ĠÑĥ": 155,
      "Ð²Ð°": 156,
      "ÑİÑĤ": 157,
      "Ð¾Ð¹": 158,
      "ĠÐ·": 159,
      "ÐºÐ¸": 160,
      "ÐµÐ½": 161,
      "ĠÐ¼": 162,
      "ĠÐ½Ðµ": 163,
      "ĠÑĩÑĤÐ¾": 164,
      "Ñĳ": 165,
      "Ñį": 166,
      "ÑĤÐ¸": 167,
      "ĠÐ±": 168,
      "ĠÐ¾Ð±": 169,
      "ĠÑį": 170,
      "ĠÐ¿ÑĢÐ¸": 171,
      "ÐµÐ½Ð¸Ñı": 172,
      "Ð»Ðµ": 173,
      "Ð½Ðµ": 174,
      "Ð²Ð¸": 175,
      "ÐµÑģÑĤ": 176,
      "ĠÐ³": 177,
      "ĠÐ»": 178,
      "ĠÐ¸Ð·": 179,
      "ĠÐºÐ°": 180,
      "ÑĢÐµÐ´": 181,
      "ÑĢÑĥ": 182,
      "Ð»ÑĮ": 183,
      "ÑĦ": 184,
      "ÐµÐ¼": 185,
      "Ð¾Ð¶": 186,
      "ÐµÑĢ": 187,
      "Ð¼Ð¸": 188,
      "ĠÑĢÐ°": 189,
      "ĠÐ°": 190,
      "Ð¾Ð²Ð°": 191,
      "ÐµÑĢÐµ": 192,
      "ĠÑĤ": 193,
      "Ð¾Ð³Ð¾": 194,
      "ÐµÐ½Ð¸Ðµ": 195,
      "ÑģÐ¸": 196,
      "ÑĭÐ²Ð°": 197,
      "ÐµÑĤÑģÑı": 198,
      "Ð¸Ñģ": 199,
      "ĠÐ·Ð°": 200,
      "ĠÐ¶": 201,
      "Ð½Ð¾Ð¹": 202,
      "ĠÐ¿ÑĢÐ¾": 203,
      "ÑĩÐ°": 204,
      "Ð½Ð¸Ñı": 205,
      "ĠÐºÐ¾": 206,
      "ĠÐµ": 207,
      "Ð»Ð¾": 208,
      "Ð½ÑĭÑħ": 209,
      "ÑĩÐµ": 210,
      "Ð¼Ð°": 211,
      "ÑĨÐ¸": 212,
      "ĠÐ¾ÑĤ": 213,
      "Ð¾Ð³Ð¸": 214,
      "Ð·Ð°": 215,
      "ĠÐ¿Ð¾Ñģ": 216,
      "ÑĢÑĭ": 217,
      "ĠÐ¿ÑĢÐµÐ´": 218,
      "ĠÑģÐ¾": 219,
      "Ð»Ñı": 220,
      "ÑģÐºÐ°": 221,
      "Ð½Ñĥ": 222,
      "ĠÑįÑĤÐ¾": 223,
      "Ð½ÑĭÐµ": 224,
      "ÑĩÐ¸": 225,
      "Ð¾ÑĢ": 226,
      "ĠÐ¶Ð¸": 227,
      "Ð½Ð¸Ðµ": 228,
      "ĠÐ·Ð½Ð°": 229,
      "Ð¶Ð°": 230,
      "âĢ": 231,
      "ĠâĢ": 232,
      "ĠâĢĶ": 233,
      "Ð¸Ð¼": 234,
      "ÑģÑĮ": 235,
      "ÑħÐ¾Ð´": 236,
      "ÑģÐº": 237,
      "ĠÐ¿Ð¾Ð´": 238,
      "ÑİÑī": 239,
      "ĠÑģÐ²": 240,
      "Ð¾Ð»Ð¾Ð³Ð¸": 241,
      "ÐµÐ»": 242,
      "Ð¾Ð¿": 243,
      "ÐµÐ³": 244,
      "ĠÐ¿ÑĢ": 245,
      "ÑģÑĤÐ¸": 246,
      "Ð¸ÑĤ": 247,
      "Ð»Ñĥ": 248,
      "ĠÑĤÐ°": 249,
      "Ð¡": 250,
      "Ð¾Ðº": 251,
      "ÐŁ": 252,
      "Ð¶Ð´": 253,
      "ÐºÑĥ": 254,
      "Ð½Ñı": 255,
      "Ð·ÑĭÐ²Ð°": 256,
      "ĠÑĤÐµ": 257,
      "ÑĥÑī": 258,
      "ÑĥÐ´": 259,
      "ĠÐ¿ÐµÑĢÐµ": 260,
      "Ð°ÑĢ": 261,
      "ÑĢÐ°Ðº": 262,
      "Ð¾Ð²Ðµ": 263,
      "Ð¸Ðµ": 264,
      "ÑİÐ´": 265,
      "Ð½Ð¸Ð¼Ð°": 266,
      "ÐºÐ¾": 267,
      "ĠÐ¿Ð¾ÑģÐ»Ðµ": 268,
      "ĠÑħ": 269,
      "ÑģÑĤÑĮ": 270,
      "Ð¶Ðµ": 271,
      "Ð¾Ð±Ñĭ": 272,
      "ÐµÐ¹": 273,
      "Ð±Ñĭ": 274,
      "ĠÐºÐ°Ðº": 275,
      "ĠÐŁ": 276,
      "ÑĬ": 277,
      "ĠÑĩÐ°": 278,
      "ÑĤÑĥ": 279,
      "ĠÑĢÐµ": 280,
      "ÑģÑĤÐ°": 281,
      "ÑģÐ»Ð¸": 282,
      "ÑĨÐ°": 283,
      "ÐµÑĤÐ°": 284,
      "ĠÐ¿Ð¾Ð»": 285,
      "ÑıÑĤ": 286,
      "ĠÐ¡": 287,
      "ĠÐ¿Ð¾Ð´Ð¾Ð±": 288,
      "ÑĤÐµÐ»ÑĮ": 289,
      "ĠÐºÐ¾ÑĤÐ¾": 290,
      "Ð¿Ð°": 291,
      "ĠÐ¾Ð´": 292,
      "ĠÐ¶Ð¸Ð·": 293,
      "Ð¾Ð·": 294,
      "ÑĤÐ¾Ð¼": 295,
      "Â«": 296,
      "Â»": 297,
      "ĠÂ«": 298,
      "ĠÑĢÑĥ": 299,
      "ĠÑĢÐ°Ñģ": 300,
      "ĠÐ¾Ð±ÑĢÐ°": 301,
      "ĠÑĩÐµÐ»": 302,
      "ĠÑĩÐµÐ»Ð¾Ð²Ðµ": 303,
      "ÐµÐ·": 304,
      "ĠÑĩÐ¸Ñģ": 305,
      "ĠÐ¾Ð±ÑĬ": 306,
      "ÑģÐºÐ¸": 307,
      "ĠÐºÐ°ÑĢ": 308,
      "Ð½Ð¾Ð³Ð¾": 309,
      "Ð´Ðµ": 310,
      "ĠÑģÑĥÐ´": 311,
      "ĠÑģÑĥÐ´ÑĮ": 312,
      "Ð³Ð°": 313,
      "Ð½ÑĭÐ¼": 314,
      "Ð¾Ð»ÑĮ": 315,
      "ÑĤÑĭ": 316,
      "ÐµÐ½Ð¸Ð¸": 317,
      "ÐµÐ´": 318,
      "ĠÐ±Ð»Ð¸": 319,
      "ĠÐ¾Ñģ": 320,
      "Ð½Ð¾Ð¼": 321,
      "ĠÐ´Ð°": 322,
      "ĠÐ¶Ð¸Ð·Ð½Ð¸": 323,
      "Ð¸ÑĢÐ°": 324,
      "ÑģÑĤÐ¾": 325,
      "ÐµÐ½Ð½Ð¾": 326,
      "ÐºÐµ": 327,
      "Ð¼Ðµ": 328,
      "ĠÑģÑĤÐ°": 329,
      "Ð¾Ñģ": 330,
      "Ð¸Ñħ": 331,
      "ĠÐ²Ñģ": 332,
      "ĠÑģÑĥÐ´ÑĮÐ±Ñĭ": 333,
      "Ð½Ð°Ñı": 334,
      "ĠÐ¾Ð¿": 335,
      "Ð½Ð½Ð¸": 336,
      "ÐµÐ»Ð°": 337,
      "ĠÐ»Ð¸": 338,
      "ĠÐļ": 339,
      "Ð¸ÑĨÐ¸": 340,
      "ĠÐĴ": 341,
      "ÑĩÐµÑģÑĤ": 342,
      "ĠÑĤÐ°Ðº": 343,
      "ÑĥÐ¼": 344,
      "ĠÑģÐ¾Ð²": 345,
      "ÑĢÐµÐ¼": 346,
      "Ð½Ð¾Ð²": 347,
      "ĠÑģÐ²Ñı": 348,
      "ĠÐ½Ð¾": 349,
      "ÑĳÑĢ": 350,
      "Ð²Ð»Ñı": 351,
      "ĠÐ¿Ð¾Ð²": 352,
      "ĠÐ²Ñĭ": 353,
      "Ð°Ð½": 354,
      "ÑĪÐµ": 355,
      "Ð²Ð¸Ð´": 356,
      "ĠÑģÐ»Ñĥ": 357,
      "Ð²ÐµÐ½": 358,
      "ĠÑģÑĤÐ¾": 359,
      "ĠÐ´Ð½Ðµ": 360,
      "Ð·Ð½Ð°": 361,
      "ÑģÐºÐ°Ð·Ð°": 362,
      "Ð·ÑĭÐ²Ð°ÑİÑĤ": 363,
      "ĠÐ¼Ð½": 364,
      "ĠÐĲ": 365,
      "Ð»Ð¾ÑģÑĮ": 366,
      "Ð¸ÑĤÑĮ": 367,
      "ÑĪÐºÐ¸": 368,
      "ÐĿ": 369,
      "ÐµÐº": 370,
      "ÑģÐ¸Ð»Ð¸": 371,
      "ÑĤÐµÐ»Ð¸": 372,
      "ĠÑĤÐ¾": 373,
      "ĠÐľ": 374,
      "ÑĢÑĥÐ³": 375,
      "Ð½ÑĭÐ¹": 376,
      "ÑĩÐµÐ½Ð¸Ðµ": 377,
      "ĠÑĥÑģÐ¸Ð»Ð¸": 378,
      "ĠÐ±Ñĭ": 379,
      "Ð½ÑĥÑĤ": 380,
      "Ð´Ð¾": 381,
      "ÑıÑģ": 382,
      "ÐµÐ³Ð¾": 383,
      "Ð±Ð»": 384,
      "ÑĢÐ°ÐºÑĤÐ¸": 385,
      "ĠÐĽ": 386,
      "Ð°Ð´Ð°": 387,
      "ÐºÐ¾Ð²Ð°": 388,
      "ĠÐµÑĳ": 389,
      "ÐºÐ¾Ð¼": 390,
      "ĠÑģÐ»": 391,
      "Ð»ÑģÑı": 392,
      "ÑĩÐµÑģÐºÐ¸": 393,
      "Ð³Ð¾": 394,
      "ĠÐĿ": 395,
      "ĠÑģÐ¸Ð¼": 396,
      "ÑĤÐµÑĢ": 397,
      "Ð½Ð¸Ðº": 398,
      "Ð¾Ð»ÐºÐ¾Ð²Ð°": 399,
      "Ð²ÑĪ": 400,
      "ÑĢÐ¸ÑĤÑĮ": 401,
      "Ð¸ÑĢÐ°Ð¼Ð¸": 402,
      "Ð²Ð¾Ð»": 403,
      "ÑĢÐ¾Ð¼": 404,
      "ÑĩÐ¸ÑĤÐ°": 405,
      "ÐµÐ½Ð¸Ñİ": 406,
      "ÑĳÑĤ": 407,
      "ĠÑģÐº": 408,
      "ĠÐ²Ð½Ð¸Ð¼Ð°": 409,
      "ÑĥÐ½": 410,
      "ĠÐ²Ð¾": 411,
      "ĠÑģÐ¸Ð¼Ð²Ð¾Ð»": 412,
      "ÑĢÑĭÐ¹": 413,
      "ķÑģÐ»Ð¸": 414,
      "ĠÑģÐ°": 415,
      "ĠÐ²Ð½ÑĥÑĤ": 416,
      "Ð»Ð¾Ð¼": 417,
      "ĠÑĩÐ°ÑĪÐºÐ¸": 418,
      "ĠÐ¿ÑĢÐµ": 419,
      "ĠÑĢÐµÑĪ": 420,
      "ÑĢÐ¾ÑĩÐµÑģÑĤ": 421,
      "ĠÐ»Ð¸Ð½Ð¸Ñı": 422,
      "ÐµÑģÑĤÐ½ÑĭÑħ": 423,
      "ÑģÐºÐ»Ð°": 424,
      "ÑĤÐ¾Ð±Ñĭ": 425,
      "ĠÑĩÑĤÐ¾Ð±Ñĭ": 426,
      "ÑħÐ¾Ð´ÑıÑĤ": 427,
      "ĠÐ¿Ð¸ÑĢÐ°Ð¼Ð¸": 428,
      "ĠÑĢÐ°Ð·": 429,
      "Ðŀ": 430,
      "ÐµÑģÑı": 431,
      "Ð²Ðµ": 432,
      "ÐķÑģÐ»Ð¸": 433,
      "ĠÑģÑĤÐ¾Ð¸ÑĤ": 434,
      "ÑĥÐ¿": 435,
      "Ð¼ÐµÑĩÐ°": 436,
      "Ð¸Ð¹": 437,
      "ĠÐ»ÑİÐ´": 438,
      "ĠÐ¢": 439,
      "ĠÐ¿ÐµÑĢÐµÐ´Ð°": 440,
      "Ð¸Ð½Ð°": 441,
      "Ð½Ð¾ÑģÑĤÐ¸": 442,
      "ÑģÑĤÑĢ": 443,
      "Ð¸Ð¼Ð¾": 444,
      "Ð»ÐµÑĤ": 445,
      "ÑģÑĤÑĢÐµ": 446,
      "Ð¾Ð´Ð¾Ð»": 447,
      "ÑĤÐ¸Ñı": 448,
      "ĠÑģÐ¿": 449,
      "ĠÐ²ÑĢÐµÐ¼": 450,
      "ÑģÑĤÑĭ": 451,
      "ĠÐºÐ¾ÑĤÐ¾ÑĢÑĭÐ¹": 452,
      "ÑĤÐ¾ÑĢ": 453,
      "ÑīÐ°": 454,
      "ĠÐ¾Ñī": 455,
      "ĠÐ¾ÑģÐ¾Ð±": 456,
      "ÐºÐ°Ñħ": 457,
      "ĠÐ¿ÑĢÐµÐ´ÑģÐºÐ°Ð·Ð°": 458,
      "Ð´Ñĭ": 459,
      "Ð½Ð¸Ð¼Ð°ÑĤÑĮ": 460,
      "Ð¶Ð´Ð°": 461,
      "Ð¾Ð²Ð°Ð¼": 462,
      "ĠÑģÐ»Ð¾Ð²Ð°Ð¼": 463,
      "ÐµÑĢÐ°": 464,
      "ĠÐ³Ð¾Ð´": 465,
      "ÐµÐ²": 466,
      "ÑīÐµÐ½Ð¸Ñı": 467,
      "ĠÐ¾Ð±ÑĬÑıÑģ": 468,
      "ĠÐ½Ð°Ð±Ð»": 469,
      "ĠÑĢÐ°ÑģÑģÐºÐ°": 470,
      "Ð½Ð½Ð¸ÐºÐ¸": 471,
      "Ð·Ñĭ": 472,
      "ÑİÑĤÑģÑı": 473,
      "Ð±Ð¾": 474,
      "ĠÑĤÐ¾Ð»ÐºÐ¾Ð²Ð°": 475,
      "ĠÐ¸Ð½": 476,
      "ÑĭÑĤ": 477,
      "ĠÑģÑĩÐ¸ÑĤÐ°": 478,
      "ÑĢÐ°Ð·": 479,
      "ĠÐ³Ð°Ð´Ð°": 480,
      "ĠÐ¼Ñĭ": 481,
      "ÐºÑĤ": 482,
      "Ð¶ÐµÐ½Ð¸Ñı": 483,
      "Ð´Ñĥ": 484,
      "ÑİÑīÐ¸Ðµ": 485,
      "ÑģÐµÐ´": 486,
      "ĠÐ¿ÑĢÐ¾Ð´Ð¾Ð»": 487,
      "ĠÑĩÐµÐ¼": 488,
      "ĠÐ¼Ð½ÐµÐ½Ð¸Ñİ": 489,
      "Ð¸ÑģÑĭÐ²Ð°": 490,
      "Ð¾ÑĤ": 491,
      "ÐµÐ³ÐµÐ½": 492,
      "Ð¿Ð¾Ð»": 493,
      "ĠÐ¼Ð¾Ð¶": 494,
      "Ð²ÐµÑĢ": 495,
      "ÑģÐ°": 496,
      "ÑĢÐ°ÐºÑĤÐ¸ÐºÑĥ": 497,
      "ĠÑģÐ»ÑĥÑĩÐ°": 498,
      "ÑĤÑģÑı": 499,
      "ÐºÐ¸Ñħ": 500,
      "Ð¾Ð½": 501,
      "ĠÐ¾Ð±ÑĬÐµÐº": 502,
      "ĠÐ¸Ñģ": 503,
      "Ð±Ðµ": 504,
      "ĠÑĨ": 505,
      "ĠÐ¿ÑĢÐ¸Ð¼": 506,
      "ĠÐ¿Ð¾Ð´Ð¾Ð±Ð½ÑĭÐµ": 507,
      "Ð¾Ð»Ð¾Ð³Ð¸Ð¸": 508,
      "ÑĦÐµ": 509,
      "Ġ2": 510,
      "ĠÐ¿ÑĢÐ¾Ð´Ð¾Ð»Ð¶Ð°": 511,
      "ÑĢÐ¾ÑĩÐµÑģÑĤÐ²Ð°": 512,
      "Ð¸ÑĢÐ¾Ð¼": 513,
      "Ð¸ÑĢÐ¾Ð¼Ð°Ð½": 514,
      "ĠÐ¼ÐµÑģÑĤÐ½ÑĭÑħ": 515,
      "ĠÑģÑĤ": 516,
      "ĠÐ½ÐµÑģÐº": 517,
      "ĠÐ½ÐµÑģÐºÐ¾Ð»ÑĮ": 518,
      "ĠÑĤÐ°ÐºÐ¾Ð¹": 519,
      "ĠÑĢÐ°ÑģÐºÐ»Ð°": 520,
      "ĠÑģÐ²ÑıÐ·ÑĭÐ²Ð°ÑİÑĤ": 521,
      "Ð²Ñĭ": 522,
      "ÑĥÐ¼ÐµÑĢ": 523,
      "ĠÐ¿Ðµ": 524,
      "ĠÐ²Ð½Ð¸Ð¼Ð°Ð½Ð¸Ðµ": 525,
      "ÑģÑĤÐ°Ð²Ð¸": 526,
      "ÐµÑģÑĤÐ¸": 527,
      "ĠÐºÐ°ÑĢÑĤÐ°": 528,
      "ĠÑĢÑĥÐ½Ð°": 529,
      "ĠÐ¿Ð¸ÑĢÐ°Ð¼Ð¸Ð´Ñĭ": 530,
      "ĠÐ½ÐµÐ¹": 531,
      "ĠÐ¿Ð¾Ð»Ð¾Ð¶": 532,
      "ĠÐ·Ð½Ð°Ð½Ð¸Ñı": 533,
      "ÐµÐ³ÐµÐ½Ð´Ð°": 534,
      "ĠÐ¾Ð±Ð»Ð°": 535,
      "Ð»ÐµÐ¹": 536,
      "ĠÐ´Ð½Ð¸": 537,
      "ÑģÑĤÑĢÐ¾Ð»Ð¾Ð³Ð¸": 538,
      "Ð¾Ð²Ð¾": 539,
      "ĠÐ·Ð²": 540,
      "ĠÑı": 541,
      "ĠÑģÐ°Ð¼": 542,
      "ĠÑĦ": 543,
      "ĠÐŀ": 544,
      "ÑĢÐ¾Ðµ": 545,
      "ÐĿÐ°": 546,
      "Ð·Ð¸": 547,
      "ĠÐ¿ÑĢÐµÐ´ÑĥÐ¿": 548,
      "ĠÐ¿ÑĢÐµÐ´ÑĥÐ¿ÑĢÐµ": 549,
      "Ð½Ð¸ÐµÐ¼": 550,
      "ĠÐ´Ð»Ñı": 551,
      "ĠÐ´Ð¾": 552,
      "ÑĢÐ°Ð²": 553,
      "Ð¿Ð¾Ð¼": 554,
      "ĠÐ¥": 555,
      "Ð°Ð»ÑĮ": 556,
      "Ðļ": 557,
      "ÑĤÐ¸Ð²": 558,
      "ĠÑĢ": 559,
      "ĠÐ²Ð½ÑĥÑĤÑĢÐµ": 560,
      "ĠÐµÑģÐ»Ð¸": 561,
      "Ð·ÑĭÐ²Ð°ÐµÑĤ": 562,
      "ÑĨÑĭ": 563,
      "ĠÐ¿ÑĢÐµÐ´Ð°": 564,
      "ÑģÑĤÐ²Ð¸": 565,
      "Ð´ÐµÐ½Ð¸Ñı": 566,
      "ĠÐł": 567,
      "ÑĤÐ¾Ð¹": 568,
      "Ð¼Ñĥ": 569,
      "ĠÐºÐ¾Ð½": 570,
      "ĠÑģÐ¾Ð²ÐµÑĤ": 571,
      "ĠÐ¿Ð¾Ðº": 572,
      "ÑĮÑı": 573,
      "Ð»Ñİ": 574,
      "ĠÐ¾ÑīÑĥÑī": 575,
      "ĠÐĶ": 576,
      "Ð½ÑĭÐ¼Ð¸": 577,
      "ĠÐ¾ÑģÐ¾Ð±ÐµÐ½Ð½Ð¾": 578,
      "Ð¼Ð¾": 579,
      "ÑīÑĳ": 580,
      "ĠÐºÐ¾ÑĤÐ¾ÑĢÐ¾Ðµ": 581,
      "ĠÐ¸ÑģÑĤÐ¾": 582,
      "ĠÐ¾ÑĤÐ¼ÐµÑĩÐ°": 583,
      "ÑĤÐµÐ»ÐµÐ¹": 584,
      "ĠÐ¾ÑĤÑĢÐ°": 585,
      "ÑģÐ¸ÑĤ": 586,
      "Ð½ÐµÐ¹": 587,
      "ÑĥÑīÐµ": 588,
      "Ð¹ÑĪ": 589,
      "Ð¶Ð°Ð¹ÑĪ": 590,
      "ĠÐ±Ð»Ð¸Ð¶Ð°Ð¹ÑĪ": 591,
      "ĠÑģÐ¾Ð±": 592,
      "ĠÑģÐ¾Ð±Ñĭ": 593,
      "ĠÐ¸Ð¼": 594,
      "ĠÑĥÑĤ": 595,
      "ÑģÑĤÐ²ÐµÐ½": 596,
      "ĠÐ¾Ð·Ð½Ð°": 597,
      "ĠÐ¾Ð·Ð½Ð°ÑĩÐ°": 598,
      "Ð°Ðº": 599,
      "ĠÐ´Ð²Ð¸": 600,
      "ĠÐ¸Ð·Ð´Ð°": 601,
      "ĠÐºÑĤÐ¾": 602,
      "ĠÐ¾ÑģÑĤ": 603,
      "ĠÑģÐºÑĢÑĭ": 604,
      "ĠÑĤÐµÑħ": 605,
      "ÐµÐ½Ð¸ÑıÑħ": 606,
      "ĠÐ´ÐµÐ»Ð°": 607,
      "ĠÐ´Ð¾Ð¼": 608,
      "ÐĴ": 609,
      "Ð¾Ð¿Ð¾Ð»": 610,
      "Ð¾ÑĢÐ¾Ð¶": 611,
      "ĠÐ¾ÑģÑĤÐ¾ÑĢÐ¾Ð¶": 612,
      "ĠÑĨÐ²": 613,
      "Ð¾ÑĢÐ¾": 614,
      "ĠÐĹ": 615,
      "Ð¸Ð¼Ð¾ÑģÑĤÑĮ": 616,
      "ĠÑģÐ¾Ð²Ð¿Ð°": 617,
      "ĠÐºÑĢÐ°": 618,
      "Ð½Ð¾Ðµ": 619,
      "ĠÐ¾Ð±ÑĬÑıÑģÐ½Ñı": 620,
      "ĠÐ½Ð°Ð±Ð»ÑİÐ´": 621,
      "Ð¿Ð¾Ð¼Ð¸Ð½Ð°": 622,
      "ÑĤÐµÐ»ÑĮÐ½Ð¾": 623,
      "ÑĨÐ¸Ð¸": 624,
      "ĠÐ½ÐµÐ¾Ð±": 625,
      "ĠÐ²ÑģÑĤÑĢÐµ": 626,
      "ÑĢÐ°Ð´": 627,
      "ĠÐ²Ð¾Ð¿": 628,
      "Ð»Ð°Ð´": 629,
      "ÐµÑĩ": 630,
      "ĠÑģÐ¸": 631,
      "ĠÐĳ": 632,
      "Ð¸ÑĤÐ°": 633,
      "ÐŁÐ¾": 634,
      "ĠÐ¸ÑģÑĤÐ¾ÑĢÐ¸": 635,
      "ĠÐ³Ð°Ð´Ð°Ð»": 636,
      "ĠÐ¿Ð¾Ñı": 637,
      "Ð°Ð¶": 638,
      "Ð¶Ð´Ñĭ": 639,
      "ĠÐ¼Ð¾Ð»": 640,
      "ĠÐ½ÐµÑģÐºÐ¾Ð»ÑĮÐºÐ¾": 641,
      "ĠÑħÐ°": 642,
      "ÐĶ": 643,
      "Ð§": 644,
      "ÐµÐ½Ð½ÑĭÐ¹": 645,
      "ĠÐ·Ð½Ð°ÑĩÐµÐ½Ð¸Ðµ": 646,
      "ĠÑģÑĢÐ°Ð·": 647,
      "ĠÑģÑĢÐ°Ð·Ñĥ": 648,
      "Ð»Ð°Ð´ÑĭÐ²Ð°": 649,
      "ĠÐĵ": 650,
      "ÑĢÐ¸Ñģ": 651,
      "ÑĢÐ°Ð½Ð¸": 652,
      "ĠÑĤÐ¾Ñĩ": 653,
      "ĠÐ½ÐµÐ¾Ð±ÑħÐ¾Ð´": 654,
      "ĠÑģÐ¾Ð±ÑĭÑĤÐ¸Ñı": 655,
      "Ð¼ÐµÑģÑĤ": 656,
      "ĠÐ¼Ð¾Ð¶ÐµÑĤ": 657,
      "ĠÑĥÐ¶Ðµ": 658,
      "ÑĢÐ¾Ð²Ð°": 659,
      "ĠÐ½ÐµÐ´Ðµ": 660,
      "ĠÐ¾ÑĤÐ¼ÐµÑĩÐ°ÑİÑĤ": 661,
      "ĠÐ¿ÑĢÐ¾Ð±": 662,
      "ĠÐ±Ð¾Ð»ÑĮ": 663,
      "ĠÑħÐ°ÑĢÐ°Ðº": 664,
      "ĠÑĨÐ¸": 665,
      "ĠÑĢÐ¸Ñģ": 666,
      "ÑĥÐ½Ð¾Ðº": 667,
      "ĠÑĢÐ¸ÑģÑĥÐ½Ð¾Ðº": 668,
      "Ð½Ð¸ÐºÐ¾Ð²": 669,
      "ĠÐ³Ð°Ð´Ð°Ð»ÐºÐ¸": 670,
      "Ð¢": 671,
      "ĠÑĥÐºÐ°": 672,
      "ĠÐ²Ð°Ð¶": 673,
      "ĠÑģÐ½Ð¾Ð²": 674,
      "ÐµÐ½ÑĮ": 675,
      "ĠÑĤÑĢÐ°Ð´": 676,
      "ĠÑĤÑĢÐ°Ð´Ð¸ÑĨÐ¸": 677,
      "ĠÐ±Ð»Ð¸Ð¶Ðµ": 678,
      "ĠÐµÐ³Ð¾": 679,
      "ÑģÑģÐ¸": 680,
      "ĠÑģÐµ": 681,
      "ÑĤÐ¸ÑĤÑĮ": 682,
      "ĠÐ¾Ð±ÑĢÐ°ÑĤÐ¸ÑĤÑĮ": 683,
      "ĠÐ¿ÑĢÐ¾Ð¸Ñģ": 684,
      "ĠÐ´Ð°ÑĢ": 685,
      "ÑĩÐµÑģÐºÐ¸Ð¹": 686,
      "ÑĢÐ¾Ð´": 687,
      "Ð±Ñĥ": 688,
      "ĠÑģÐ¾Ð²ÐµÑĤÑĥ": 689,
      "ÑĭÑĤÐ½ÑĭÐµ": 690,
      "ĠÑįÑĤÐ°": 691,
      "Ð»Ð¸Ñı": 692,
      "ÑĤÐ¾Ð²": 693,
      "ÑĢÐ°ÐºÑĤÐ¸ÐºÑĥÑİÑīÐ¸Ðµ": 694,
      "ĠÐĺ": 695,
      "ĠÐ²ÑĢÐµÐ¼Ñı": 696,
      "ÐµÑĢÐ´": 697,
      "ÑĩÑĮ": 698,
      "ÑĤÐµÐ»Ñı": 699,
      "ĠÐ¾ÑĩÐµ": 700,
      "ÑĤÐ¾ÑĢÑı": 701,
      "ĠÐ½Ð°ÑģÑĤÐ°": 702,
      "Ð½Ð¸Ð¹": 703,
      "Ðł": 704,
      "ĠÐ²Ð¾Ð·": 705,
      "ĠÐ»ÑİÐ´Ð¸": 706,
      "Ð²ÑĳÑĢ": 707,
      "ĠÐ²Ð¾Ð¿ÑĢÐ¾": 708,
      "Ð²Ð°ÑİÑĤ": 709,
      "ĠÑĩÐ¸ÑģÐ»Ð¾": 710,
      "ÐŁÑĢÐ¾": 711,
      "ĠÑĤÐ¾Ð»ÐºÐ¾Ð²Ð°ÑĤÐµÐ»Ð¸": 712,
      "ĠÑģÐµÑĢÐ´": 713,
      "Ð·Ð´": 714,
      "ÑĳÐ·Ð´": 715,
      "Ð¾ÑģÐ¾Ð±": 716,
      "ĠÑģÐ¿Ð¾ÑģÐ¾Ð±": 717,
      "Ġ20": 718,
      "Ð¶Ð´Ð°ÐµÑĤ": 719,
      "ÑıÐ¼Ð¸": 720,
      "ĠÑĥÑĦ": 721,
      "ĠÐ¾Ð±ÑĬÐµÐºÑĤÐ°": 722,
      "ĠÐ¾ÑĩÐµÐ²Ð¸Ð´": 723,
      "ĠÑĥÑĦÐ¾Ð»Ð¾Ð³Ð¸Ð¸": 724,
      "Ð¾Ð³Ð´Ð°": 725,
      "Ð½ÐµÐ²": 726,
      "ĠÐ¿Ð¾Ð²ÑģÐµÐ´": 727,
      "ĠÐ¿Ð¾Ð²ÑģÐµÐ´Ð½ÐµÐ²": 728,
      "ĠÐ¿ÑĢÐ¾Ð´Ð¾Ð»Ð¶Ð°ÑİÑĤ": 729,
      "ĠÐ¾Ð´Ð½Ð°": 730,
      "ĠÐºÐ¾ÑĦÐµ": 731,
      "ĠÐ¿ÑĢÐ¾ÑĢÐ¾ÑĩÐµÑģÑĤÐ²Ð°": 732,
      "ĠÑĤÐµÐº": 733,
      "Ð¿Ð°Ð»Ð°": 734,
      "ĠÐ¿ÑĢÐ¸Ð¼ÐµÑĤÐ°": 735,
      "ĠÑĩÐ¸ÑĤÐ°": 736,
      "ÑĤÐµÐ½": 737,
      "ĠÑĩÐµÐ»Ð¾Ð²ÐµÐºÑĥ": 738,
      "Ð°ÑģÑĤÑĭ": 739,
      "Ð½ÑĤÑĥ": 740,
      "ÑĢÐ¾Ð½Ð½Ð¸ÐºÐ¸": 741,
      "ĠÑĢÐ°ÑģÑģÐºÐ°Ð·Ñĭ": 742,
      "Ð·Ð¸Ð°ÑģÑĤÑĭ": 743,
      "Ð½ÑĤÑĥÐ·Ð¸Ð°ÑģÑĤÑĭ": 744,
      "Ð½Ð¸Ð¼": 745,
      "ĠÐ¶Ð¸ÑĤÐµÐ»ÐµÐ¹": 746,
      "Ðĵ": 747,
      "ĠÐ´Ð½ÐµÐ¹": 748,
      "Ð»Ð°Ð´ÑĭÐ²Ð°ÐµÑĤÑģÑı": 749,
      "ĠÐ½Ð°Ð¿Ð¾Ð¼Ð¸Ð½Ð°": 750,
      "ĠÑĢÑĥÐºÐµ": 751,
      "ÑİÑīÐ¸Ð¹": 752,
      "ĠÑĢÐ°ÑģÐºÐ»Ð°Ð´Ð°": 753,
      "ĠÐ´ÑĢÑĥÐ³": 754,
      "ĠÐ¿ÑĢÐ°Ð²": 755,
      "Ð¾Ð´Ð°": 756,
      "Ð¶Ð°ÐµÑĤÑģÑı": 757,
      "ĠÑĢÐ¾Ð¶": 758,
      "ĠÐ¾ÑĤÑĢÐ°Ð¶Ð°ÐµÑĤÑģÑı": 759,
      "ĠÐ¿Ð¾Ð´Ð¾Ð±Ð½Ð¾Ð³Ð¾": 760,
      "ĠÑĥÐºÐ°Ð·ÑĭÐ²Ð°ÐµÑĤ": 761,
      "Ð¾Ð´Ð½Ð°Ñı": 762,
      "ĠÐ½Ð¾Ð¼": 763,
      "ĠÐ½ÑĥÐ¼ÐµÑĢ": 764,
      "ÐºÐ¸Ðµ": 765,
      "ĠÑĤÐ°ÐºÐ¸Ðµ": 766,
      "ĠÑĩÐ¸ÑģÐ»Ð¾Ð¼": 767,
      "ÐµÑĢÐ°Ñħ": 768,
      "ĠÐ½Ð¾Ð¼ÐµÑĢÐ°Ñħ": 769,
      "ĠÐ²Ð»Ð¸Ñı": 770,
      "ĠÐ²Ð»Ð¸ÑıÐ½Ð¸Ðµ": 771,
      "ĠÐ´ÐµÑĤÐ°": 772,
      "ĠÐ´ÐµÑĤÐ°Ð»Ð¸": 773,
      "ÑĪÐ¾": 774,
      "Ð¹Ð½Ñĭ": 775,
      "ĠÐ´Ð°Ð¶Ðµ": 776,
      "ĠÐ´ÐµÐ½ÑĮ": 777,
      "Ð½ÑĥÑĤÐ¾Ð¼": 778,
      "ĠÐ¿ÐµÑĢÐµÐ²ÑĳÑĢ": 779,
      "ĠÐ²ÑĭÐ¿Ð°Ð»Ð°": 780,
      "ĠÐ¿Ð¾Ð»Ð¾Ð¶ÐµÐ½Ð¸Ð¸": 781,
      "ĠÐ¿ÐµÑĢÐµÐ²ÑĳÑĢÐ½ÑĥÑĤÐ¾Ð¼": 782,
      "ÐµÐµÑģÑı": 783,
      "Ð½Ð¾Ð·": 784,
      "ĠÐ¸Ñħ": 785,
      "ÑİÑīÐµÐµÑģÑı": 786,
      "ÑĦÐ¸ÑĨÐ¸": 787,
      "ÑĦÐ¸ÑĨÐ¸Ð°Ð»ÑĮ": 788,
      "ĠÐµÑīÑĳ": 789,
      "ĠÐ¾Ð±Ð»Ð°Ð´Ð°": 790,
      "Ð»ÐµÐºÐ°": 791,
      "ÐµÐ·Ð¶Ð°": 792,
      "ĠÐ¸Ð·Ð´Ð°Ð»ÐµÐºÐ°": 793,
      "Ð²Ð½Ð¸Ðº": 794,
      "ĠÐ²ÐµÑģÑĤÐ¸": 795,
      "ĠÐ´Ð½ÐµÐ²Ð½Ð¸Ðº": 796,
      "ĠÐ¿ÑĢÐ¸Ð½Ð¸Ð¼Ð°ÑĤÑĮ": 797,
      "ĠÐ¿ÑĢÐ¾Ð³": 798,
      "ĠÐ±Ð»Ð¸Ð¶Ð°Ð¹ÑĪÐ¸Ðµ": 799,
      "Ð¼ÐµÑģÑĤÐ¸Ð¼Ð¾ÑģÑĤÑĮ": 800,
      "ĠÐºÐ¾Ð³Ð´Ð°": 801,
      "ĠÐ»ÐµÐ³ÐµÐ½Ð´Ð°": 802,
      "ÑģÐ¸ÑĤÑĮ": 803,
      "ĠÑįÑĤÐ¾ÑĤ": 804,
      "ÑħÐ¾Ð´Ð¸ÑĤ": 805,
      "ÑĤÐ°ÐºÑĤ": 806,
      "ĠÐ¾Ð¿Ð¸ÑģÑĭÐ²Ð°": 807,
      "ĠÐ¿ÑĢÐ¾Ð¸ÑģÑħÐ¾Ð´ÑıÑĤ": 808,
      "ĠÐ¾Ð¿Ð¸ÑģÑĭÐ²Ð°ÑİÑĤ": 809,
      "ĠÐ·Ð½Ð°ÐºÐ°": 810,
      "ĠÐĲÑģÑĤÑĢÐ¾Ð»Ð¾Ð³Ð¸": 811,
      "ÑģÑĤÐ°Ð²Ð¸ÑĤÐµÐ»Ñı": 812,
      "ĠÐ³Ð¾Ð²Ð¾": 813,
      "ÐµÐ¹ÑģÑĤÐ²Ð¸": 814,
      "ÑĢÐµÐ²": 815,
      "ÐļÐ°Ðº": 816,
      "Ð²Ð¾": 817,
      "ĠÐ¾Ðº": 818,
      "ĠÐ¼Ðµ": 819,
      "ĠÐ¿Ð°": 820,
      "Ð½ÑĥÑİ": 821,
      "ĠÑĩÐµÐ»Ð¾Ð²ÐµÐºÐ°": 822,
      "ĠÐ·Ð°Ð¿": 823,
      "Ð½Ð¾Ð¼Ñĥ": 824,
      "Ð¸ÑģÐ»Ð¾": 825,
      "Ð§Ð¸ÑģÐ»Ð¾": 826,
      "Ð¡Ð¾": 827,
      "ÑĢÐµÐ´Ð¸": 828,
      "Ð°ÑĢÐ¾Ð´Ð½Ð°Ñı": 829,
      "ÐĿÐ°ÑĢÐ¾Ð´Ð½Ð°Ñı": 830,
      "ĠÐ·Ð²ÑĳÐ·Ð´": 831,
      "ĠÐ¸ÑģÐ¿Ð¾Ð»": 832,
      "ĠÐ¼Ð¾Ð»Ð²Ð°": 833,
      "Ð½ÑĮ": 834,
      "Ð²Ñĥ": 835,
      "ĠÐ²Ð¾Ð¿ÑĢÐ¾Ñģ": 836,
      "Ð¶Ð´ÐµÐ½Ð¸Ðµ": 837,
      "ĠÐ¿ÑĢÐµÐ´ÑĥÐ¿ÑĢÐµÐ¶Ð´ÐµÐ½Ð¸Ðµ": 838,
      "ĠÐ¸ÑģÑĤÐ¾ÑĢÐ¸Ð¸": 839,
      "ÑİÑīÐ¸Ñħ": 840,
      "Ð¾Ð²Ð¼ÐµÑģÑĤÐ¸Ð¼Ð¾ÑģÑĤÑĮ": 841,
      "Ð¡Ð¾Ð²Ð¼ÐµÑģÑĤÐ¸Ð¼Ð¾ÑģÑĤÑĮ": 842,
      "ÑģÑĤÐ¾Ñı": 843,
      "ĠÐ¸Ð·Ð²": 844,
      "ĠÐ±ÑĭÑĤÑĮ": 845,
      "Ð¶ÐµÐ½Ð¸Ð¸": 846,
      "Ð½Ð¾ÑģÑĤÑĮ": 847,
      "Ð»Ñĭ": 848,
      "ĠÐ¿Ñĥ": 849,
      "ĠÐ¿ÑĢÐ¾Ð²": 850,
      "ÑĥÐ¶Ð´": 851,
      "Ð¶Ð¸": 852,
      "Ð¾ÑĢÐ¾Ð²": 853,
      "ĠÑģÐ¾Ð²ÐµÑĤÑĥÑİÑĤ": 854,
      "ĠÐ±Ð¾Ð»ÑĮÑĪÐµ": 855,
      "Ð»Ð¸Ð·": 856,
      "ÐµÐ½Ð¸Ð¹": 857,
      "ĠÐ±ÐµÐ·": 858,
      "ĠÐ¿ÑĢÐ¸Ð½Ñı": 859,
      "ĠÐ¿ÑĢÐ¸Ð½ÑıÑĤÐ¾": 860,
      "ÑĤÑĮÑģÑı": 861,
      "ĠÐ²Ð½ÑĥÑĤÑĢÐµÐ½": 862,
      "ĠÐ±Ð¾Ð»": 863,
      "Ð¾Ð½Ð°": 864,
      "ĠÐ´Ð°Ð²": 865,
      "ĠÐ¿ÑĢÐ¾Ð±ÑĥÐ¶Ð´": 866,
      "ĠÐ¾ÑĤÐº": 867,
      "Ð»Ð¸ÑģÑĮ": 868,
      "ĠÐ¼ÑĭÑģ": 869,
      "Ð»Ð°ÑģÑĮ": 870,
      "ÑĤÐµÐ»ÑĮÐ½Ð¸": 871,
      "ĠÐ¿ÑĢÐµÐ´Ð°Ð½Ð¸Ñı": 872,
      "ĠÐ´ÑĢÐµÐ²": 873,
      "ÑĩÑĤÐ¸": 874,
      "ĠÐ¿Ð¾ÑĩÑĤÐ¸": 875,
      "ÐµÐ½Ð½Ð¾Ð¹": 876,
      "ĠÐ¿Ð»Ð°": 877,
      "ĠÐ±ÑĭÐ»Ð¾": 878,
      "Ð¾Ð²Ñĭ": 879,
      "Ð°Ñı": 880,
      "Ð¾ÑĢÑĥ": 881,
      "ÑıÐ²Ð»Ñı": 882,
      "ĠÐ¿ÑĢÐ¾ÑıÐ²Ð»Ñı": 883,
      "Ð½ÐµÑĤ": 884,
      "ĠÐ´ÐµÑģÑı": 885,
      "Ð½ÐµÐµ": 886,
      "Ð²ÐµÑĢÐµ": 887,
      "ĠÑĩÐµÑĢÐµ": 888,
      "ĠÑĩÐµÑĢÐµÐ·": 889,
      "ĠÐ³Ð»Ð°": 890,
      "ĠÑĤÑĢÐµ": 891,
      "ĠÐ´ÐµÐ¹ÑģÑĤÐ²Ð¸": 892,
      "Ð½Ð¾ÑĪ": 893,
      "ĠÐ¾ÑĤÐ½Ð¾ÑĪ": 894,
      "ĠÐ¾Ð¿Ñĭ": 895,
      "ÑħÐµ": 896,
      "ĠÐ»Ð°": 897,
      "Ð¾Ð²ÐµÑĢÐ¸ÑĤÑĮ": 898,
      "ÑĤÑı": 899,
      "Ð½Ð¸Ñİ": 900,
      "Ð½Ð½ÑĭÐµ": 901,
      "Ð»ÐºÐ°": 902,
      "ĠÐ¶ÐµÐ»Ð°": 903,
      "ÐµÐ¼Ñĥ": 904,
      "ĠÐ¿Ð¾ÑĢ": 905,
      "ÐµÐ½ÑĤ": 906,
      "ÑģÑģ": 907,
      "ĠÐ¾Ð´Ð½Ð¾": 908,
      "ÑĢÐ¸Ñı": 909,
      "ĠÐŃ": 910,
      "ĠÑģÐ¾Ñħ": 911,
      "ĠÐ²ÑģÐµ": 912,
      "Ð¸Ð´": 913,
      "ĠÐºÑĢÑĥÐ³": 914,
      "ĠÐ¼ÑĭÑģÐ»": 915,
      "ĠÐ¾Ð·Ð½Ð°ÑĩÐ°ÐµÑĤ": 916,
      "ĠÐ¿Ð¾Ð½Ð¸Ð¼Ð°ÑĤÑĮ": 917,
      "Ð±Ð°": 918,
      "ĠÐ¼ÐµÑĢÐµ": 919,
      "ĠÑĤÑĢÐ°Ðº": 920,
      "ĠÑĤÑĢÐ°ÐºÑĤÑĥ": 921,
      "ĠÑģÐ¾Ð±ÑģÑĤÐ²ÐµÐ½": 922,
      "Ð¾Ð²Ð°Ð»": 923,
      "Ð»Ð°Ð³": 924,
      "ĠÐ±Ð°": 925,
      "Ð²Ð°ÐµÑĤ": 926,
      "ÑģÐºÐ¾Ð¹": 927,
      "ĠÑĥÑģÑĤ": 928,
      "ĠÐ·Ð°Ñī": 929,
      "Ð²Ð»ÑıÐµÑĤ": 930,
      "Ð½ÐµÐ½Ð¸Ñı": 931,
      "ÐµÐ»Ð¸": 932,
      "ÐĽ": 933,
      "ÑĢÐ³": 934,
      "ĠÐ½Ð°ÑħÐ¾Ð´": 935,
      "Ð»ÑĮÑĨÐ°": 936,
      "ĠÐ´Ð¾Ð»": 937,
      "ÑıÑĤÑĮ": 938,
      "ĠÐ½Ð¸": 939,
      "ĠÑģÐ¾Ð½": 940,
      "ĠÐ»Ñĥ": 941,
      "ÑĤÑĭÑħ": 942,
      "ĠÐ²Ð¾Ð·Ð²": 943,
      "Ð»ÐµÐ½Ð¸Ðµ": 944,
      "ÐµÐ½Ð¸ÐµÐ¼": 945,
      "ÑĨÐµÐ²": 946,
      "ĠÑĨÐ²ÐµÑĤ": 947,
      "Ð½ÐµÐ³Ð¾": 948,
      "ĠÑĩÐ¸ÑģÐ»Ð°": 949,
      "ÐºÐ¸Ð¹": 950,
      "ÑĢÐ¸ÑĤ": 951,
      "ĠÑģÐ¾Ð²Ð¿Ð°Ð´ÐµÐ½Ð¸Ñı": 952,
      "Ð¶Ð´Ðµ": 953,
      "ĠÐ´Ð¾Ð±": 954,
      "ĠÐ´Ð¾Ð±Ð°": 955,
      "ĠÐ¿ÑĢÐ¸Ð·Ð½Ð°": 956,
      "ĠÐ¿ÐµÑĢÐ¸": 957,
      "Ð¾Ð¿Ð°": 958,
      "ĠÐ¿ÑĢÐ°ÐºÑĤÐ¸": 959,
      "Ð¶Ð´Ð°ÑİÑĤ": 960,
      "Ð¾Ð¶Ð¸": 961,
      "ĠÑĥÐ²ÐµÑĢÐµ": 962,
      "ĠÐ»Ð°Ð´Ð¾": 963,
      "ÑĤÐµÑĢÐ¸": 964,
      "ÑĥÐ°": 965,
      "ÑĥÐ¼Ð°": 966,
      "ÐµÑģ": 967,
      "ÑģÐºÐ°Ñı": 968,
      "ĠÐ½Ð°Ð´": 969,
      "ĠÑĥÑĤÐ²ÐµÑĢ": 970,
      "ĠÑģÐºÐ°": 971,
      "ĠÐºÐ¾Ð»": 972,
      "Ð°Ð»": 973,
      "ĠÑĪ": 974,
      "ÑģÑĥ": 975,
      "ĠÐ¸Ð½ÑĤÑĥ": 976,
      "ĠÑģÐ»ÑĥÑĩÐ¸": 977,
      "ĠÐ¿Ð¾ÑıÐ²Ð¸": 978,
      "ĠÑįÐ½Ðµ": 979,
      "ĠÑįÐ½ÐµÑĢÐ³": 980,
      "ĠÐ¿Ð¾ÐºÐ¾Ð»": 981,
      "ĠÐ²ÑģÐµÐ¹": 982,
      "Ð½Ð½Ð¾ÑģÑĤÐ¸": 983,
      "ÑģÐºÐ¸Ñħ": 984,
      "ĠÑĤÐ¾Ð»ÐºÐ¾Ð²Ð°Ð½Ð¸Ñı": 985,
      "Ð±Ð¾ÑĢÐµ": 986,
      "ĠÐ´Ð¾Ð»Ð³": 987,
      "ĠÐ¸Ð´": 988,
      "ĠÑĥÐ³": 989,
      "ÐµÐµ": 990,
      "ĠÐ±Ð¾Ð»ÐµÐµ": 991,
      "ĠÐ´Ð°ÑĤÑĭ": 992,
      "ĠÑħÑĢÐ°Ð½Ð¸": 993,
      "ĠÑĥÑģÐ¸Ð»Ð¸Ð²Ð°ÐµÑĤ": 994,
      "ÑħÐ¸": 995,
      "ĠÐ»ÐµÑĤ": 996,
      "Ð°Ð»Ð¸Ð·": 997,
      "ÐµÐ¹Ð½Ð¾Ð¹": 998,
      "Ð¾Ð³Ð¸Ðµ": 999,
      "ĠÑĤÐµÑĩÐµÐ½Ð¸Ðµ": 1000,
      "ĠÐ¿Ð¾Ð´ÑģÐºÐ°": 1001,
      "ÑıÑħ": 1002,
      "ÑĨÐ¸ÑıÑħ": 1003,
      "ÑĤÐ¸Ð»ÐµÑĤ": 1004,
      "ĠÐ´ÐµÑģÑıÑĤÐ¸Ð»ÐµÑĤ": 1005,
      "ĠÐ¿ÐµÑĢÐµÐ´Ð°Ð²Ð°": 1006,
      "ĠÐ¿ÑĢÐ¾ÑıÐ²Ð»ÑıÐµÑĤÑģÑı": 1007,
      "ĠÐ²ÐµÐº": 1008,
      "ĠÐ¾Ð±ÑĢÐ°Ð·": 1009,
      "ÑĪÐµÑģÑĤ": 1010,
      "ĠÐºÐ°ÑĢÑĤÐ¾Ð¹": 1011,
      "Ð´Ð¾Ñħ": 1012,
      "ĠÐ¾ÑīÑĥÑīÐµÐ½Ð¸Ðµ": 1013,
      "ĠÑģÐ¾Ð¾ÑĢÑĥ": 1014,
      "ĠÑģÐ¾Ð¾ÑĢÑĥÐ¶ÐµÐ½Ð¸Ñı": 1015,
      "ĠÐ¿ÑĢÐµÐ¶Ð´Ðµ": 1016,
      "ÑĳÐ»ÐºÐ°": 1017,
      "ĠÐ¿Ð¾ÑģÑĳÐ»ÐºÐ°": 1018,
      "ĠÐ°ÐºÑĥ": 1019,
      "ĠÐ°ÐºÑĥÑģÑĤÐ¸": 1020,
      "ĠÑĢÐ°Ð·Ð²Ð¸": 1021,
      "ĠÐ´Ð¾Ð±Ð°Ð²Ð»ÑıÐµÑĤ": 1022,
      "ĠÐ²Ð½ÑĥÑĤÑĢÐ¸": 1023,
      "ĠÐ½ÐµÐ´ÐµÐ»Ð¸": 1024,
      "ĠÐ¿Ð¾ÑģÐ»Ð°": 1025,
      "ĠÑħÐ¾Ð»": 1026,
      "ÐºÐ¾Ð¹": 1027,
      "ÑĤÐ¸Ð¼Ð¾": 1028,
      "Ð¾Ðµ": 1029,
      "ÑģÑĤÑĥ": 1030,
      "ÑĢÑĥÐ´": 1031,
      "ĠÐ¾Ð±ÑĬÑıÑģÐ½ÑıÐµÑĤ": 1032,
      "ĠÐ³Ð¾Ð²Ð¾ÑĢÐ¸ÑĤ": 1033,
      "ÑĢÐ°Ð½": 1034,
      "ĠÐŁÐ¾": 1035,
      "Ðĺ": 1036,
      "ĠÑĥÐ´Ð°": 1037,
      "ÑĩÐ¸Ð½Ð°": 1038,
      "Ð¾Ð»Ð°": 1039,
      "Ð¿Ð¾": 1040,
      "Ð½Ð½Ð¾Ð¹": 1041,
      "ÐµÐ³Ð¾ÑģÑı": 1042,
      "Ð²ÑĪÐµÐ³Ð¾ÑģÑı": 1043,
      "ÑĥÐ½Ð°": 1044,
      "ÑģÐ¸Ð¹": 1045,
      "ĠÐ¼ÐµÐ½": 1046,
      "ĠÑħÐ°ÑĢÐ°ÐºÑĤÐµÑĢ": 1047,
      "ĠÐ¸ÑģÐ¿Ð¾Ð»Ð½Ð¸": 1048,
      "ĠÑħÐ¾Ð»Ð¼": 1049,
      "ÐµÐ½ÐµÐ¼": 1050,
      "ĠÐ²ÑĢÐµÐ¼ÐµÐ½ÐµÐ¼": 1051,
      "Ð¾Ð¼ÐµÐ½ÑĤ": 1052,
      "ĠÐ¼Ð¾Ð¼ÐµÐ½ÑĤ": 1053,
      "ÑĤÐ¸ÐºÐ¸": 1054,
      "ĠÑĤÐµÑħÐ½": 1055,
      "ÑĤÐµÑĢÐµ": 1056,
      "ĠÑĢÐ°Ð±Ð¾": 1057,
      "ÑĩÐ¸Ñħ": 1058,
      "ĠÑĢÐ°Ð±Ð¾ÑĩÐ¸Ñħ": 1059,
      "ĠÐ¿ÑĢÐ¸Ð²Ñĭ": 1060,
      "ĠÐ¿ÑĢÐ¸Ð²ÑĭÑĩ": 1061,
      "Ð¶Ð´Ñĥ": 1062,
      "ÑĩÐ½ÑĭÑħ": 1063,
      "ĠÐ´ÐµÐ»Ð°Ñħ": 1064,
      "ÐºÑģÐ¸": 1065,
      "ÑĤÐµÐ»ÑĮÐ½ÑĭÐ¼": 1066,
      "ĠÐ¿Ð¾Ð²ÑĤÐ¾ÑĢÑı": 1067,
      "ÐµÑĢÑıÑĤÑĮ": 1068,
      "ĠÑĤÑĢÐ°Ð´Ð¸ÑĨÐ¸Ñı": 1069,
      "ĠÑģÐµÐ±Ðµ": 1070,
      "ĠÐ¿ÑĢÐ¾ÑĤÐ¸Ð²": 1071,
      "Ð²Ð°ÑĤÑĮÑģÑı": 1072,
      "ĠÐ±ÑĥÐ´": 1073,
      "ĠÑģÐ¾Ñİ": 1074,
      "ÑīÐµ": 1075,
      "ĠÑĩÐ°ÑīÐµ": 1076,
      "ĠÑģÐ¾ÑģÐµÐ´": 1077,
      "ĠÐ¿ÑĢÐµÐ´Ð°Ð½Ð¸ÑıÑħ": 1078,
      "ÑģÐ¼Ð°": 1079,
      "Ð»Ð¸ÑģÐ¼Ð°": 1080,
      "ĠÑĤÐ°Ð»Ð¸ÑģÐ¼Ð°": 1081,
      "ĠÐ¿ÑĢÐ¾Ð±ÑĥÐ¶Ð´ÐµÐ½Ð¸Ñı": 1082,
      "ĠÐ¾ÑĤÐ½Ð¾ÑĪÐµÐ½Ð¸Ñı": 1083,
      "ĠÐ´Ð°Ð²Ð½Ð¾": 1084,
      "ĠÐ·Ð°Ð¿Ð¸ÑģÑĭÐ²Ð°": 1085,
      "ÑĭÑħ": 1086,
      "ÑĩÐµÑģÐºÐ¸Ðµ": 1087,
      "ĠÑģÐºÑĢÑĭÑĤÑĭÑħ": 1088,
      "ĠÑĤÑĢÐµÐ±Ñĥ": 1089,
      "ÑĢÐµÐ´ÐºÐ¾": 1090,
      "Ð²ÑĪÐµÐ¼Ñĥ": 1091,
      "Ð²ÑĪÐµÐ¼ÑĥÑģÑı": 1092,
      "ĠÐ²ÑģÐµÐ³Ð¾": 1093,
      "ĠÐ¿ÐµÑĢÐµÐ´": 1094,
      "Ð²Ð»ÐµÐ½Ð¸Ðµ": 1095,
      "ĠÑĩÐµÐ»Ð¾Ð²ÐµÑĩÐµÑģÑĤ": 1096,
      "ĠÐ¼ÑĭÑģÐ»ÐµÐ½Ð½Ð¾": 1097,
      "ĠÐ¿ÑĢÐ¾Ð²Ð¾Ð´": 1098,
      "ĠÐ¾Ð±ÑĢÐ°Ð·Ð°": 1099,
      "ĠÐ²ÑģÑĤÑĢÐµÑĩÐµ": 1100,
      "ĠÐ¿ÐµÑĢÐ¸Ð¾Ð´": 1101,
      "ĠÐ·Ð°Ð³Ð°": 1102,
      "ĠÐ½ÐµÐ¾Ð±Ñĭ": 1103,
      "Ð±Ð»Ð¸": 1104,
      "Ð±Ð»Ð¸Ð¶Ð°": 1105,
      "ĠÐ³Ð»Ð°ÑģÐ¸ÑĤ": 1106,
      "Ð¿Ð¸": 1107,
      "Ð¡ÑĤÐ¾": 1108,
      "Ð²Ð¾ÑĢ": 1109,
      "ĠÑĥÐ±Ðµ": 1110,
      "ĠÑģÐ¸Ð»Ñĥ": 1111,
      "ĠÐ²ÐµÑĢ": 1112,
      "ĠÐ¾Ð´Ð½Ð¾Ð¹": 1113,
      "ĠÐ²ÐµÑĢÑģÐ¸Ð¹": 1114,
      "ĠÑĢÐ°ÑģÑģÐºÐ°Ð·Ð°": 1115,
      "ĠÑĢÐ°ÑģÑģÐºÐ°Ð·Ð°Ð¼": 1116,
      "ĠÐºÐ»Ñİ": 1117,
      "ĠÐ¤": 1118,
      "ĠÐ²ÑģÑı": 1119,
      "ĠÑĤÐµÐ¼": 1120,
      "Ð³ÐºÐ¾": 1121,
      "ĠÐ·Ð°ÑīÐ¸ÑĤ": 1122,
      "ĠÐ²Ðµ": 1123,
      "ĠÑįÐ¿Ð¾": 1124,
      "ĠÑįÐ¿Ð¾ÑħÐ¸": 1125,
      "Ð´Ð¾Ð²Ð°": 1126,
      "ÑĤÐ½": 1127,
      "ĠÐ¿Ð°ÑĢ": 1128,
      "ÑĤÐ½ÑĳÑĢ": 1129,
      "ĠÐ¿Ð°ÑĢÑĤÐ½ÑĳÑĢ": 1130,
      "ĠÐ¾Ð¿ÑĭÑĤÐ½ÑĭÐµ": 1131,
      "ÑĪÐ¸": 1132,
      "ĠÐ¿ÑĢÐ°ÐºÑĤÐ¸ÐºÐ¸": 1133,
      "ÑħÐ°": 1134,
      "ÑĭÐµ": 1135,
      "Ð´Ð¾ÑĢÐ¾Ð²": 1136,
      "ĠÐ·Ð´Ð¾ÑĢÐ¾Ð²": 1137,
      "ĠÑģÐµÐ¼": 1138,
      "Ð·Ð°Ñħ": 1139,
      "Ð´Ð¾Ðº": 1140,
      "ĠÑĩÐ°ÑģÑĤÐ¾": 1141,
      "ÑĥÐ±": 1142,
      "ĠÑĥÐ²ÐµÑĢÐµÐ½Ñĭ": 1143,
      "ĠÐ´ÑĢÐµÐ²Ð½Ð¸Ðµ": 1144,
      "ĠÐ¸Ð·Ð¼": 1145,
      "ÑĩÐºÐ°": 1146,
      "ĠÐ¾Ð±ÑĬÑıÑģÐ½ÑıÑİÑĤ": 1147,
      "Ð¥": 1148,
      "ĠÐĽÑİÐ´": 1149,
      "ĠÐ±Ð»Ð¸Ð·": 1150,
      "ĠÑģÑĩÐ¸ÑĤÐ°ÑİÑĤ": 1151,
      "ÑĤÐ°Ñı": 1152,
      "ĠÑģÐ²Ðµ": 1153,
      "ĠÐ¸Ð½ÑĤÑĥÐ¸ÑĨÐ¸": 1154,
      "ĠÑĤÐ¾Ð³Ð¾": 1155,
      "Ð²ÑĥÑī": 1156,
      "Ð²ÑĥÑīÐ°Ñı": 1157,
      "ÐµÐ½Ð´Ñĥ": 1158,
      "ĠÑĢÐµÐºÐ¾Ð¼": 1159,
      "ĠÑĢÐµÐºÐ¾Ð¼ÐµÐ½Ð´Ñĥ": 1160,
      "ĠÐ³Ð»Ñĥ": 1161,
      "ĠÐ³Ð»ÑĥÐ±": 1162,
      "ĠÑģÐ²Ð¾": 1163,
      "ÐµÐ½Ð½Ð¾ÑģÑĤÑĮ": 1164,
      "ÐºÐ¾Ð²": 1165,
      "ĠÑįÐ½ÐµÑĢÐ³Ð¸": 1166,
      "ÑĢÐ°Ð¶": 1167,
      "Ð½Ð¸Ð¸": 1168,
      "ĠÑģÑĤÐ¾ÑĢÐ¾Ð½Ð½Ð¸ÐºÐ¸": 1169,
      "Ð´ÐµÐ½Ð¸Ðµ": 1170,
      "ĠÐ³ÑĥÑīÐµ": 1171,
      "ĠÐºÐ°Ð¶Ð´Ñĭ": 1172,
      "ĠÐ½Ð°ÑģÑĤÐ¾Ñı": 1173,
      "ĠÐ½Ð°ÑģÑĤÐ¾ÑıÑĤÐµÐ»ÑĮÐ½Ð¾": 1174,
      "Ð¾Ð²Ð°ÑĢÐ¸": 1175,
      "ĠÑĥÐ³Ð¾Ð²Ð°ÑĢÐ¸": 1176,
      "Ð»Ð°Ð³Ð°": 1177,
      "ĠÐ¿ÑĢÐµÐ´Ð»Ð°Ð³Ð°": 1178,
      "ĠÑģÐµÑĢÐ´ÑĨ": 1179,
      "ĠÐ¼Ð¸": 1180,
      "ÐĵÐ°Ð´Ð°": 1181,
      "ÑıÐ³ÐºÐ¾": 1182,
      "ĠÐ¼ÑıÐ³ÐºÐ¾": 1183,
      "ÐĲ": 1184,
      "Ð²ÑĪÐ¸Ñħ": 1185,
      "ĠÐ²Ð¸": 1186,
      "ÐµÐ²Ð¾Ð¹": 1187,
      "Ð½Ð¾Ð³Ð¸Ðµ": 1188,
      "ĠÐľÐ½Ð¾Ð³Ð¸Ðµ": 1189,
      "ĠÐŁÑĢÐ°ÐºÑĤÐ¸ÐºÑĥÑİÑīÐ¸Ðµ": 1190,
      "ĠÐ£": 1191,
      "ĠÐ³Ð»ÑĥÐ±Ð¾Ðº": 1192,
      "ĠÐĽÑİÐ´Ð¸": 1193,
      "Ð²Ð°Ð»Ð¾Ð¼": 1194,
      "ĠÐ¿ÑĢÐµÐ´ÑģÑĤÐ°Ð²Ð¸ÑĤÐµÐ»Ñı": 1195,
      "ĠÐ´Ð¾Ð²ÐµÑĢÐ¸ÑĤÑĮ": 1196,
      "ĠÐ´Ð¾Ð²ÐµÑĢÐ¸ÑĤÑĮÑģÑı": 1197,
      "ÐµÑĢÐ¾Ð¼": 1198,
      "ĠÑįÐ½ÐµÑĢÐ³Ð¸Ð¸": 1199,
      "ĠÐ²ÑĭÑģ": 1200,
      "Ġ1": 1201,
      "ĠÑıÑĢ": 1202,
      "ĠÐļÐ»Ð°": 1203,
      "Ð½Ð½ÑĭÐ¼": 1204,
      "ĠÐ°Ðº": 1205,
      "ĠÐ³Ð¾": 1206,
      "Ð°ÑģÑĮ": 1207,
      "ÑĢÑı": 1208,
      "ĠÐļÐ¾Ð½": 1209,
      "ÑĥÑĩÐ¸": 1210,
      "ÑģÑĤÑıÐ¼Ð¸": 1211,
      "ÐºÐ¾Ð»Ð°": 1212,
      "ĠÐ½Ð°ÑĩÐ¸Ð½Ð°": 1213,
      "Ð¸Ð·": 1214,
      "Ð¸Ð»ÑĮ": 1215,
      "ÑĦÐ»Ð¸": 1216,
      "ĠÐºÐ¾Ð½ÑĦÐ»Ð¸": 1217,
      "Ð²Ð»ÑıÑİÑĤ": 1218,
      "ÑħÐ°ÑĢÐ°": 1219,
      "Ð¾Ð½Ðµ": 1220,
      "Ð¸Ð²Ð°ÑİÑĤ": 1221,
      "Ð¸ÐºÑģÐ¸": 1222,
      "ÑıÐ»Ð¾ÑģÑĮ": 1223,
      "ÐºÐ»Ð°Ð´ÑĭÐ²Ð°ÐµÑĤÑģÑı": 1224,
      "ĠÐ¿Ð¾Ð·": 1225,
      "Ð´Ð½Ð¸Ð¼": 1226,
      "ĠÐ²ÐµÑĩ": 1227,
      "ÑİÐ´Ð°": 1228,
      "Ð¹Ð¾Ð½Ðµ": 1229,
      "ĠÐ´Ð»Ð¸": 1230,
      "Ð¾Ð´Ð¾Ð±": 1231,
      "Ð¿ÑĤÐ¸ÐºÐ¸": 1232,
      "ĠÑĥÐºÐ»Ð°Ð´ÑĭÐ²Ð°ÐµÑĤÑģÑı": 1233,
      "ĠÐ½ÐµÐ²Ð¸Ð´": 1234,
      "ĠÑįÐ½ÑĤÑĥÐ·Ð¸Ð°ÑģÑĤÑĭ": 1235,
      "Ð²Ð¸Ð´Ðµ": 1236,
      "ÐµÑĢÐ½Ð¾": 1237,
      "ĠÑĢÐ°Ð½ÑĮ": 1238,
      "ĠÑĢÐ°Ð¹Ð¾Ð½Ðµ": 1239,
      "Ð¸Ð¼Ð¾Ð³Ð¾": 1240,
      "ÑİÐ´ÐµÐ½Ð¸Ðµ": 1241,
      "ĠÐŁÐ¾Ð´Ð¾Ð±": 1242,
      "ĠÐ¡Ð²Ðµ": 1243,
      "Ð³Ð°Ð»ÑģÑı": 1244,
      "Ð¸ÑĢÐ°ÑĤÑĮ": 1245,
      "ÐºÐµÐ¿ÑĤÐ¸ÐºÐ¸": 1246,
      "ÑĢÑĥÐ³Ð¸": 1247,
      "Ð±Ð»ÑİÐ´ÐµÐ½Ð¸Ðµ": 1248,
      "ĠÐĿÐĽ": 1249,
      "ÑĤÐµÑĢÐ²Ð°Ð»Ð¾Ð¼": 1250,
      "ĠÐ¾Ð±ÑĬÑıÑģÐ½ÐµÐ½Ð¸Ñı": 1251,
      "ĠÐ½Ð°Ð±Ð»ÑİÐ´Ð°": 1252,
      "ĠÐ¸Ð½ÑĤÐµÑĢÐ²Ð°Ð»Ð¾Ð¼": 1253,
      "ĠÑģÐ»ÑĥÑĩÐ°Ð¸": 1254,
      "ĠÐ¾Ð±ÑĬÐµÐºÑĤ": 1255,
      "ĠÐ¿ÑĢÐ¸Ð¼ÐµÑĢÐ½Ð¾": 1256,
      "ĠÑĦÐ¸ÐºÑģÐ¸": 1257,
      "ÐĿÐ°Ð±Ð»ÑİÐ´ÐµÐ½Ð¸Ðµ": 1258,
      "ĠÑģÐ¾Ð±Ð¸ÑĢÐ°ÑĤÑĮ": 1259,
      "ĠÐ¸Ð¼ÐµÐ½Ð¸": 1260,
      "ĠÐ´Ð²Ð¸Ð¶ÐµÐ½Ð¸Ñı": 1261,
      "ĠÐ´Ð²Ð¸Ð³Ð°Ð»ÑģÑı": 1262,
      "ĠÐ½Ð°Ð±Ð»ÑİÐ´ÐµÐ½Ð¸Ñı": 1263,
      "ÑĢÐ¾Ð²Ð°Ð»Ð¸ÑģÑĮ": 1264,
      "ĠÐ½Ð°ÑģÑĤÐ°Ð¸Ð²Ð°ÑİÑĤ": 1265,
      "ĠÐ¾ÑĩÐµÐ²Ð¸Ð´ÑĨÐ°": 1266,
      "ĠÐ¾ÑĩÐµÐ²Ð¸Ð´ÑĨÐµÐ²": 1267,
      "ĠÐ¾Ð´Ð½Ð°ÐºÐ¾": 1268,
      "ĠÐ¾ÐºÑĢÑĥÐ³Ð¸": 1269,
      "ĠÑģÐ»ÑĥÑĩÐ¸Ð²ÑĪÐµÐ³Ð¾ÑģÑı": 1270,
      "ĠÐ¿Ð¾ÑıÐ²Ð¸Ð»ÑģÑı": 1271,
      "ĠÐ¼ÐµÐ½ÑıÐ»Ð¾ÑģÑĮ": 1272,
      "ĠÐ¿Ð¾Ð·Ð´Ð½Ð¸Ð¼": 1273,
      "ĠÐ²ÐµÑĩÐµÑĢÐ¾Ð¼": 1274,
      "ĠÐ´Ð»Ð¸Ð»Ð¾ÑģÑĮ": 1275,
      "ĠÐ½ÐµÐ²Ð¸Ð´Ð¸Ð¼Ð¾Ð³Ð¾": 1276,
      "Ð²Ð¸Ð´ÐµÑĨ": 1277,
      "ĠÑĢÐ°Ð½ÑĮÑĪÐµ": 1278,
      "ĠÐŁÐ¾Ð´Ð¾Ð±Ð½ÑĭÐµ": 1279,
      "ĠÐ¡Ð²ÐµÑĩÐµÐ½Ð¸Ðµ": 1280,
      "ĠÐĿÐĽÐŀ": 1281,
      "ĠÑĦÐ¸ÐºÑģÐ¸ÑĢÐ¾Ð²Ð°Ð»Ð¸ÑģÑĮ": 1282,
      "ÑĳÑĢÑĭ": 1283,
      "ĠÐ²Ð¾Ñģ": 1284,
      "ĠÐ½ÐµÐ¾Ð¶Ð¸": 1285,
      "ĠÐ½ÐµÐ¾Ð¶Ð¸Ð´Ð°": 1286,
      "Ð»Ð°Ð½": 1287,
      "ĠÐ¿Ð¸ÑĤÑĮ": 1288,
      "ÑĩÐºÐµ": 1289,
      "ĠÑģÐ»Ðµ": 1290,
      "ĠÑģÑĤÐµÐ½": 1291,
      "ĠÐ¾ÑģÑĤÐ°Ð²Ð¸": 1292,
      "Ð´Ð°ÑİÑĤ": 1293,
      "ĠÐ¿Ð¾ÑĤÐ¾Ð¼": 1294,
      "ÑįÑĤ": 1295,
      "ĠÐ¿ÑĢÐ¸Ð´Ð°ÑİÑĤ": 1296,
      "ÑĦÐµÐ¹Ð½Ð¾Ð¹": 1297,
      "Ð¾Ð¶ÐµÐ½Ð½Ð¾Ð¹": 1298,
      "ĠÐ¿ÑĢÐ¾ÑģÑĤÑĥ": 1299,
      "ĠÐºÐ¾ÑĦÐµÐ¹Ð½Ð¾Ð¹": 1300,
      "Ð½ÑĥÑĤÑĮ": 1301,
      "ÑİÑīÐµÐ³Ð¾": 1302,
      "Ð¿Ð°ÐµÑĤ": 1303,
      "ĠÑĢÑĥÑĩÐºÐµ": 1304,
      "ĠÑĢÐ°ÑģÐ¿Ð¾Ð»": 1305,
      "ĠÑģÐ°ÑħÐ°ÑĢÐ°": 1306,
      "ĠÐ³Ð°Ð´Ð°Ð½Ð¸Ñı": 1307,
      "ĠÐ¼ÑĭÑĤÑĮ": 1308,
      "Ð´ÑĥÑİÑīÐµÐ³Ð¾": 1309,
      "Ð¾ÑĤÐ´Ð¾Ñħ": 1310,
      "ĠÑģÐ°Ð¼Ð¾Ð³Ð¾": 1311,
      "ĠÑĥÑĤÑĢÐ°": 1312,
      "ÑģÑĤÐ²ÐµÐ½Ð½ÑĭÐµ": 1313,
      "ĠÐºÑĢÐ°Ñı": 1314,
      "ĠÑĤÐ¾ÑĩÐ½Ð¾Ð³Ð¾": 1315,
      "ĠÑĩÐ¸ÑĤÐ°ÑİÑĤ": 1316,
      "ĠÐ½Ð°Ð¿Ð¾Ð¼Ð¸Ð½Ð°ÑİÑīÐ¸Ð¹": 1317,
      "ĠÑģÐ¸Ð»ÑĥÑįÑĤ": 1318,
      "ÐĵÐ°Ð´Ð°Ð½Ð¸Ðµ": 1319,
      "ĠÑģÐ»ÐµÐ´ÑĥÑİÑīÐµÐ³Ð¾": 1320,
      "ĠÑģÑĤÐµÐ½ÐºÐ°Ñħ": 1321,
      "ĠÐ¾ÑģÑĤÐ°Ð²Ð¸Ð²": 1322,
      "ĠÐ¿Ð¾ÑĤÐ¾Ð¼ÑģÑĤÐ²ÐµÐ½Ð½ÑĭÐµ": 1323,
      "ĠÐ¿ÑĢÐ¾ÑģÑĤÑĥÐ¿Ð°ÐµÑĤ": 1324,
      "ĠÑĢÐ°ÑģÐ¿Ð¾Ð»Ð¾Ð¶ÐµÐ½Ð½Ð¾Ð¹": 1325,
      "Ð¾ÑĤÐ´Ð¾ÑħÐ½ÑĥÑĤÑĮ": 1326,
      "ÑĥÑĩÐ°": 1327,
      "ĠÐ½Ð¸Ñħ": 1328,
      "ĠÐ¸Ð·ÑĥÑĩÐ°": 1329,
      "ĠÑĢÐµÑĩÑĮ": 1330,
      "ĠÐ¿Ð¾Ð´Ð¾Ð±Ð½ÑĭÐ¼": 1331,
      "ĠÐ¾Ð´Ð½Ð¸": 1332,
      "ĠÑĢÐ°ÑģÑħÐ¾Ð´ÑıÑĤ": 1333,
      "ĠÑģÑĤÐ°Ð½ÐµÑĤ": 1334,
      "ĠÐ¼Ð½ÐµÐ½Ð¸ÑıÑħ": 1335,
      "ÑĢÐ¾ÑĩÐµÑģÑĤÐ²Ð¾": 1336,
      "ĠÐ¸Ð½ÑĤÐµÑĢÐµ": 1337,
      "ĠÐ¿ÑĢÐµÐ´Ð°Ð½Ð¸Ñİ": 1338,
      "ÐŁÑĢÐ¾ÑĢÐ¾ÑĩÐµÑģÑĤÐ²Ð¾": 1339,
      "ĠÐ¿ÑĢÐ¾ÑĢÐ¾ÑĩÐµÑģÑĤÐ²Ð°Ð¼": 1340,
      "ĠÑĤÐµÐºÑģÑĤ": 1341,
      "ĠÑĤÐµÐºÑģÑĤÑĭ": 1342,
      "ĠÐ´ÑĢÑĥÐ³Ð¸Ðµ": 1343,
      "ĠÐ½Ð°ÑħÐ¾Ð´Ð¸ÑĤÑĮ": 1344,
      "ĠÐ¸Ð´ÑĳÑĤ": 1345,
      "ĠÐ¿ÐµÑĢÐµÐ´Ð°Ð²Ð°Ð²ÑĪÐµÐ¼ÑĥÑģÑı": 1346,
      "ĠÐ¸Ð·ÑĥÑĩÐ°ÑİÑīÐ¸Ðµ": 1347,
      "ĠÑĢÐ°ÑģÑħÐ¾Ð´ÑıÑĤÑģÑı": 1348,
      "ĠÐ¸Ð½ÑĤÐµÑĢÐµÑģ": 1349,
      "ÑĩÐ°ÐµÑĤÑģÑı": 1350,
      "ĠÐ¿ÑĢÐµÐ´Ð²Ðµ": 1351,
      "ĠÐ¿Ð¾Ð»Ð½Ð¾Ð¹": 1352,
      "ĠÐ¿Ð¾Ð´Ð¾Ð±Ð½Ð¾Ðµ": 1353,
      "ĠÐ¿Ð¾Ð²ÑģÑĤÑĢÐµ": 1354,
      "ÑīÐ°ÐµÑĤ": 1355,
      "ĠÑģÐ¾Ð²Ð¿Ð°Ð´ÐµÐ½Ð¸Ðµ": 1356,
      "ĠÐ¸ÑģÐ¿Ð¾Ð»Ð½Ð¸Ð»Ð°ÑģÑĮ": 1357,
      "ĠÐ¿ÑĢÐµÐ´Ð²ÐµÑīÐ°ÐµÑĤ": 1358,
      "ĠÐ¿Ð¾Ð²ÑģÑĤÑĢÐµÑĩÐ°ÐµÑĤÑģÑı": 1359,
      "ĠÐ¿ÑĢÐ°Ð²Ð¾Ð¹": 1360,
      "Ð¿ÑĭÑĤÐ½ÑĭÐµ": 1361,
      "ÐµÐ¸Ñħ": 1362,
      "Ð»Ð¾Ð¶": 1363,
      "Ð´ÐµÐ½Ð¸Ð¸": 1364,
      "Ð½Ð¸ÑĤÐµÐ»ÑĮÐ½ÑĭÐ¼": 1365,
      "ĠÐ¸Ð¼Ðµ": 1366,
      "Ð¶ÐµÑĤ": 1367,
      "ĠÐ¿Ð¾ÑĤÐµÐ½": 1368,
      "ĠÐ¾Ð±ÐµÐ¸Ñħ": 1369,
      "Ð¾Ð¶Ð½Ð¾Ð¹": 1370,
      "ĠÐ·Ð°Ð»Ð¾Ð¶": 1371,
      "ÑĩÐµÐ²Ñĭ": 1372,
      "ÑĨÐ¸Ð°Ð»": 1373,
      "ĠÑģÐ²ÐµÑĢÑıÑĤÑĮ": 1374,
      "ÑģÑĤÐ¸Ðº": 1375,
      "ĠÑħÐ¸ÑĢÐ¾Ð¼Ð°Ð½": 1376,
      "ĠÑĢÐµÐ°Ð»Ð¸Ð·": 1377,
      "ĠÑĩÐµÐ»Ð¾Ð²ÐµÐº": 1378,
      "ĠÐ²ÑĭÑĢÐ°Ð¶": 1379,
      "ĠÑĥÑģÐ¸Ð»Ð¸ÑıÐ¼Ð¸": 1380,
      "ĠÑĢÐ°ÑģÑģÐºÐ°Ð¶ÐµÑĤ": 1381,
      "Ð¸ÑĢÐ¾Ð¼Ð°Ð½ÑĤÑĭ": 1382,
      "Ð¸ÑĢÐ¾Ð¼Ð°Ð½ÑĤÐ¸Ñı": 1383,
      "ĠÐ¥Ð¸ÑĢÐ¾Ð¼Ð°Ð½ÑĤÑĭ": 1384,
      "Ð¾Ð¿Ð¾Ð»Ð½Ð¸ÑĤÐµÐ»ÑĮÐ½ÑĭÐ¼": 1385,
      "Ð¾Ð¿Ð¾Ð»Ð¾Ð¶Ð½Ð¾Ð¹": 1386,
      "ĠÑħÐ°ÑĢÐ°ÐºÑĤÐµÑĢÐ¸": 1387,
      "ĠÑĩÐ¸ÑĤÐ°ÐµÑĤÑģÑı": 1388,
      "ĠÑĢÐ¾Ð¶Ð´ÐµÐ½Ð¸Ð¸": 1389,
      "ĠÑģÐ¾Ð±ÑģÑĤÐ²ÐµÐ½Ð½ÑĭÐ¼Ð¸": 1390,
      "ĠÐ¿ÑĢÐ¸Ð·Ð½Ð°ÐºÐ¾Ð¼": 1391,
      "ĠÐ»Ð°Ð´Ð¾Ð½ÐµÐ¹": 1392,
      "ĠÐ¿ÑĢÐ¾ÑĤÐ¸Ð²Ð¾Ð¿Ð¾Ð»Ð¾Ð¶Ð½Ð¾Ð¹": 1393,
      "ĠÐºÐ»ÑİÑĩÐµÐ²Ñĭ": 1394,
      "Ð¥Ð¸ÑĢÐ¾Ð¼Ð°Ð½ÑĤÐ¸Ñı": 1395,
      "ĠÐ¸Ð¼ÐµÐµÑĤ": 1396,
      "ĠÐ¿Ð¾ÑĤÐµÐ½ÑĨÐ¸Ð°Ð»": 1397,
      "ĠÐ·Ð°Ð»Ð¾Ð¶ÐµÐ½Ð½ÑĭÐ¹": 1398,
      "ĠÑħÐ¸ÑĢÐ¾Ð¼Ð°Ð½ÑĤÐ¾Ð²": 1399,
      "ĠÑĢÐµÐ°Ð»Ð¸Ð·Ð¾Ð²Ð°Ð»": 1400,
      "ĠÐ²ÑĭÑĢÐ°Ð¶ÐµÐ½Ð½Ð¾ÑģÑĤÑĮ": 1401,
      "ĠÑħÐ°ÑĢÐ°ÐºÑĤÐµÑĢÐ¸ÑģÑĤÐ¸Ðº": 1402,
      "ĠÐºÐ»ÑİÑĩÐµÐ²ÑĭÑħ": 1403,
      "ĠÐ»ÐµÐ²Ð¾Ð¹": 1404,
      "ĠÐ¢Ðµ": 1405,
      "ÐµÐºÐ°Ñħ": 1406,
      "Ð½ÐµÐ½Ð½ÑĭÐ¹": 1407,
      "ÑıÐ¼": 1408,
      "ĠÐ¿ÑĢÐ°ÐºÑĤÐ¸ÐºÑĥ": 1409,
      "Ð²ÑĤÐ¾Ð¼": 1410,
      "Ð²ÐµÑģÑĤÐ¸": 1411,
      "ÑĩÐµÑĤÐ°": 1412,
      "ÑĩÐ½Ð¾Ð¼Ñĥ": 1413,
      "ĠÑģÐ¸ÑĤ": 1414,
      "ĠÑģÑĥÐ¼": 1415,
      "ĠÐ¾Ð½Ð¾": 1416,
      "ĠÑĩÐµÐºÐ°Ñħ": 1417,
      "Ð¾Ð»Ð¾Ð³": 1418,
      "Ð½Ð°ÑĩÐ½Ð¾Ð¼Ñĥ": 1419,
      "Ð´Ð°ÑĳÑĤ": 1420,
      "Ð¾Ð±Ð¸Ð»ÑĮ": 1421,
      "ĠÐ¼ÐµÐ»": 1422,
      "ĠÐ½ÐµÑģÑĥ": 1423,
      "ĠÐ¾Ð±ÑīÐµÐ½Ð¸Ñı": 1424,
      "ĠÐ¿ÑĢÐ¸Ð²ÐµÑģÑĤÐ¸": 1425,
      "ÑĦÑĢÑĭ": 1426,
      "Ð¾Ð¶Ð¸ÑĤÑĮ": 1427,
      "ĠÐ°Ð²ÑĤÐ¾Ð¼": 1428,
      "ĠÐ·Ð°Ð´Ð°ÑĳÑĤ": 1429,
      "ĠÐ¿ÑĢÐ¾ÑĦÐµ": 1430,
      "ĠÑģÐ¾ÑĩÐµÑĤÐ°": 1431,
      "ĠÑħÐ¾ÑĢÐ¾": 1432,
      "ĠÐ¿Ð¾Ð»ÑĥÑĩÐ¸": 1433,
      "ĠÐ¾Ð´Ð½Ð¾Ð·": 1434,
      "ĠÐ¶Ð¸Ð·Ð½ÐµÐ½Ð½ÑĭÐ¹": 1435,
      "ĠÐ¾Ð±ÑĢÐ°ÑīÐ°": 1436,
      "ĠÑĩÐ¸ÑģÐ»Ñĥ": 1437,
      "ĠÐ¾ÑģÐ½Ð¾Ð²": 1438,
      "Ð²Ð»ÑıÑİÑĤÑģÑı": 1439,
      "ĠÐ²ÑĭÐ±Ð¾ÑĢÐµ": 1440,
      "ĠÑģÐ»Ð¾Ð¶Ð¸ÑĤÑĮ": 1441,
      "ĠÐĿÑĥÐ¼ÐµÑĢ": 1442,
      "ĠÐ»ÑİÐ´ÑıÐ¼": 1443,
      "ÐºÑĤÐ½ÑĭÑħ": 1444,
      "ĠÑģÐ»ÑĥÑĩÐ°Ð¹Ð½Ñĭ": 1445,
      "ĠÑıÐ²Ð»ÑıÑİÑĤÑģÑı": 1446,
      "ĠÐ´Ð¾Ð¼Ð¾Ð²": 1447,
      "ĠÐ¿Ð¾ÑıÐ²Ð»ÐµÐ½Ð¸Ðµ": 1448,
      "ĠÑĨÐ¸ÑĦÑĢÑĭ": 1449,
      "ÑģÑģÐ¸Ð¸": 1450,
      "ĠÐ¿Ð¾Ð²ÑģÐµÐ´Ð½ÐµÐ²Ð½Ð¾Ð¹": 1451,
      "ĠÐ¿Ð¾Ð²ÑģÐµÐ´Ð½ÐµÐ²Ð½ÑĭÑħ": 1452,
      "ĠÐ½Ð°Ð¿Ð¾Ð¼Ð¸Ð½Ð°Ð½Ð¸ÐµÐ¼": 1453,
      "ĠÑĢÐ¾Ð¶Ð´ÐµÐ½Ð¸Ñı": 1454,
      "ĠÐ½ÑĥÐ¼ÐµÑĢÐ¾Ð»Ð¾Ð³Ð¸": 1455,
      "ĠÐ½ÑĥÐ¼ÐµÑĢÐ¾Ð»Ð¾Ð³": 1456,
      "ĠÐŃÑĤÐ¾": 1457,
      "ĠÐºÑĢÑĥÐ³Ðµ": 1458,
      "ÑĥÐ°ÑĨÐ¸ÑıÑħ": 1459,
      "ĠÐ²ÐµÐºÑĤÐ¾ÑĢ": 1460,
      "ĠÐ¿ÑĢÐ¸Ð²ÑĭÑĩÐºÐ°Ñħ": 1461,
      "ĠÐ¿Ð¾Ð²ÑĤÐ¾ÑĢÑıÑİÑīÐµÐµÑģÑı": 1462,
      "ĠÑģÐ¾ÑİÐ·Ð°Ñħ": 1463,
      "ĠÐ¿Ð°ÑĢÑĤÐ½ÑĳÑĢÑģÐºÐ¸Ñħ": 1464,
      "ĠÐºÐ¾Ð½ÑĦÐ»Ð¸ÐºÑĤÐ½ÑĭÑħ": 1465,
      "ĠÐ¿ÑĢÐ°ÐºÑĤÐ¸ÐºÑĥÑİÑīÐ¸Ñħ": 1466,
      "ĠÑģÐ¸ÑĤÑĥÐ°ÑĨÐ¸ÑıÑħ": 1467,
      "ĠÑģÑĥÐ¼Ð¼Ñĥ": 1468,
      "Ð¾Ð±Ð¸Ð»ÑĮÐ½ÑĭÑħ": 1469,
      "ĠÐ¼ÐµÐ»ÐºÐ¸Ñħ": 1470,
      "ĠÐ½ÐµÑģÑĥÑĤ": 1471,
      "ĠÐ°Ð²ÑĤÐ¾Ð¼Ð¾Ð±Ð¸Ð»ÑĮÐ½ÑĭÑħ": 1472,
      "ĠÐ¿ÑĢÐ¾ÑĦÐµÑģÑģÐ¸Ð¸": 1473,
      "ĠÑģÐ¾ÑĩÐµÑĤÐ°ÐµÑĤÑģÑı": 1474,
      "ĠÑħÐ¾ÑĢÐ¾ÑĪÐ¾": 1475,
      "ĠÐ¿Ð¾Ð»ÑĥÑĩÐ¸ÑĤÑģÑı": 1476,
      "ĠÐ¾Ð´Ð½Ð¾Ð·Ð½Ð°ÑĩÐ½Ð¾Ð¼Ñĥ": 1477,
      "ĠÐ¾Ð±ÑĢÐ°ÑīÐ°ÑĤÑĮ": 1478,
      "ĠÐ¾ÑģÐ½Ð¾Ð²Ð½Ð¾Ð¹": 1479,
      "ĠÐĿÑĥÐ¼ÐµÑĢÐ¾Ð»Ð¾Ð³Ð¸": 1480,
      "ĠÐ½ÑĥÐ¼ÐµÑĢÐ¾Ð»Ð¾Ð³Ð¾Ð²": 1481,
      "ÑģÐ½Ð¸": 1482,
      "ÑıÑĤÐ¸": 1483,
      "Ð½Ð¸ÑĤÑģÑı": 1484,
      "ĠÑģÐ½Ð¸ÑĤÑģÑı": 1485,
      "Ð¼ÑıÑĤÐ¸": 1486,
      "ĠÑĥÑĩÐ°": 1487,
      "ĠÐ¿ÑĢÐ¸ÑģÐ½Ð¸": 1488,
      "ĠÑģÐ¾Ð½Ð½Ð¸ÐºÐ¸": 1489,
      "ÑģÑĤÐ¸ÐµÐ¼": 1490,
      "ĠÐ¾Ð±ÑĢÐ°Ð·Ñĭ": 1491,
      "Ð½Ð½Ð¸Ðº": 1492,
      "ĠÑĩÐµÐ¼Ñĥ": 1493,
      "ĠÐ¿Ð¾ÐºÐ°": 1494,
      "ÑģÑģÐ¸ÑĩÐµÑģÐºÐ¸Ðµ": 1495,
      "ÑİÑīÐ¸Ð¹ÑģÑı": 1496,
      "ĠÐ¿Ð°Ð¼ÑıÑĤÐ¸": 1497,
      "Ð¡Ð¾Ð½Ð½Ð¸Ðº": 1498,
      "ĠÑĤÑĢÐ°ÐºÑĤÑĥÑİÑĤ": 1499,
      "ĠÐ·Ð°Ð¿Ð¸ÑģÑĭÐ²Ð°Ñı": 1500,
      "ĠÑģÐ²ÐµÐ¶Ð¸": 1501,
      "ĠÐļÐ»Ð°ÑģÑģÐ¸ÑĩÐµÑģÐºÐ¸Ðµ": 1502,
      "ĠÑĥÑĩÐ°ÑģÑĤÐ¸ÐµÐ¼": 1503,
      "ĠÐ¿ÑĢÐ¸ÑģÐ½Ð¸Ð»ÑģÑı": 1504,
      "Ð°ÑģÐºÐ»Ð°": 1505,
      "ĠÐºÐ»Ð¸": 1506,
      "ĠÐ´Ð½Ñı": 1507,
      "ÑĢÐ¸Ð¶Ð´Ñĭ": 1508,
      "Ð¾Ð´Ð½Ñı": 1509,
      "ÐµÐ½ÑĤÑĭ": 1510,
      "ĠÑĤÑĢÐ¸Ð¶Ð´Ñĭ": 1511,
      "ĠÐ·Ð°Ð¶Ðµ": 1512,
      "ÑĢÑĭÐ»Ð°": 1513,
      "ĠÑģÐ²ÐµÑĩ": 1514,
      "ÐµÐ³Ð¾Ð´Ð½Ñı": 1515,
      "ĠÐ¿Ð¾Ð»ÐµÐ·": 1516,
      "Â».": 1517,
      "ĠÐºÐ°ÑĢÑĤÑĥ": 1518,
      "ĠÐºÐ°ÑĢÑĤÑĭ": 1519,
      "ĠÑĤÐ°ÐºÐ¾Ð³Ð¾": 1520,
      "ĠÐ½Ð¾ÑģÐ¸ÑĤ": 1521,
      "ĠÑĢÐµÑĪÐµÐ½Ð¸Ðµ": 1522,
      "ĠÐ¢ÐµÐ¼": 1523,
      "ĠÐ¾ÑģÐ¾Ð±Ð¾Ðµ": 1524,
      "ĠÑĢÐ°ÑģÐºÐ»Ð°Ð´Ðµ": 1525,
      "Ð¾Ð²Ð¾ÑĢÐ¸ÑĤÑĮ": 1526,
      "ĠÐ¸Ð¼Ñı": 1527,
      "ĠÐ¾Ð·Ð½Ð°ÑĩÐ°ÑĤÑĮ": 1528,
      "ĠÑĨÐ²ÐµÑĤÐ°": 1529,
      "ÐłÐ°ÑģÐºÐ»Ð°": 1530,
      "ĠÐ¿ÑĢÐ¾Ð³Ð¾Ð²Ð¾ÑĢÐ¸ÑĤÑĮ": 1531,
      "ĠÐ¾ÑĤÐºÑĢÑĭÐ»Ð°": 1532,
      "ĠÐºÐ¾Ð»Ð¾Ð´Ð°": 1533,
      "ĠÑĢÐ°Ð·Ð²Ð¸Ð²Ð°ÑĤÑĮÑģÑı": 1534,
      "ĠÐ½Ð°ÑĩÐ¸Ð½Ð°ÑİÑĤ": 1535,
      "ĠÐºÐ»Ð¸ÐµÐ½ÑĤÑĭ": 1536,
      "ĠÐ·Ð°Ð¶ÐµÑĩÑĮ": 1537,
      "ĠÑģÐ²ÐµÑĩÑĥ": 1538,
      "ĠÐ¿Ð¾Ð»ÐµÐ·Ð½Ð¾": 1539,
      "ÐłÐ°ÑģÐºÐ»Ð°Ð´": 1540,
      "Ð¾ÑģÐ¸ÑĤÑĮ": 1541,
      "Ð½Ð¸ÑĩÐµÑģÐºÐ¸Ð¹": 1542,
      "ĠÐ½ÐµÑĢÐµÐ´ÐºÐ¾": 1543,
      "ÑĤÐ¸Ð¼": 1544,
      "ĠÑįÑĤÐ¸Ð¼": 1545,
      "ĠÐ°Ð¼Ñĥ": 1546,
      "Ð½ÑĥÑĤÐ°Ñı": 1547,
      "Ð·ÑĭÐ²Ð°ÐµÑĤÑģÑı": 1548,
      "ĠÑĢÑĥÐ½Ð¸ÑĩÐµÑģÐºÐ¸Ð¹": 1549,
      "ĠÑģÐ²ÑıÐ·ÑĭÐ²Ð°ÐµÑĤÑģÑı": 1550,
      "ĠÑĥÑģÐ¸Ð»Ð¸ÑĤÑĮ": 1551,
      "ĠÐĿÐ¾ÑģÐ¸ÑĤÑĮ": 1552,
      "ÑĥÐ½Ð¾Ð»Ð¾Ð³Ð¸": 1553,
      "ĠÑģÐ¸Ð¼Ð²Ð¾Ð»Ð¾Ð¼": 1554,
      "Ð¾Ð½Ð½Ð¾": 1555,
      "ĠÐłÑĥÐ½Ð¾Ð»Ð¾Ð³Ð¸": 1556,
      "ĠÑĤÑĢÐ°Ð´Ð¸ÑĨÐ¸Ð¾Ð½Ð½Ð¾": 1557,
      "ÐłÑĥÐ½Ð°": 1558,
      "ÑĪÐ¾ÑĩÐºÐ°": 1559,
      "ĠÐ¼ÐµÑĪÐ¾ÑĩÐºÐ°": 1560,
      "ĠÐ´ÐµÐ¹ÑģÑĤÐ²Ð¸Ðµ": 1561,
      "ĠÐ¿Ð¾ÑģÐ»Ð°Ð½Ð¸Ðµ": 1562,
      "ĠÐ·Ð°ÑīÐ¸ÑĤÐ½Ð¾Ðµ": 1563,
      "ĠÐ°Ð¼ÑĥÐ»ÐµÑĤ": 1564,
      "Ð»Ð¸Ð·Ð°": 1565,
      "Ð²Ð¸Ð»Ð¸Ð·Ð°": 1566,
      "ĠÑĨÐ¸Ð²Ð¸Ð»Ð¸Ð·Ð°": 1567,
      "ĠÑĨÐ¸Ð²Ð¸Ð»Ð¸Ð·Ð°ÑĨÐ¸Ð¸": 1568,
      "ĠÑħÐ¾Ð´ÑıÑĤ": 1569,
      "ÐµÐ¾Ð¼": 1570,
      "Ð°Ð¹Ð½Ñĭ": 1571,
      "ÑĢÑħÐµ": 1572,
      "ÑĥÐºÐµ": 1573,
      "ĠÐ¾ÑĦÐ¸ÑĨÐ¸Ð°Ð»ÑĮ": 1574,
      "ÐµÑĤÑĢÐ¸Ñı": 1575,
      "Ð½Ð°ÑĤÐ¸Ð²": 1576,
      "ĠÐ½Ð°ÑĥÐºÐµ": 1577,
      "ÑĤÐµÑĪÐµÑģÑĤ": 1578,
      "ÑįÐ½ÑĤÑĥÐ·Ð¸Ð°ÑģÑĤÑĭ": 1579,
      "Ð»ÐµÐ´Ð¾Ð²Ð°": 1580,
      "ĠÐ³ÐµÐ¾Ð¼": 1581,
      "Ð»ÑĮÑĤÐµÑĢ": 1582,
      "ĠÐ°ÑĢÑħÐµ": 1583,
      "ĠÐ°Ð»ÑĮÑĤÐµÑĢ": 1584,
      "Ð·Ð°Ð½Ð°": 1585,
      "ĠÐ¶Ð¸ÑĤÑĮ": 1586,
      "ĠÐ·Ð½Ð°Ð½Ð¸ÐµÐ¼": 1587,
      "Ð¸Ð¼ÑĭÐµ": 1588,
      "Ð¾Ð»Ð¾Ð³Ð¸Ñı": 1589,
      "ÐµÐ´ÐµÐ½Ð¸Ñı": 1590,
      "ĠÐ¾ÑģÐ²Ðµ": 1591,
      "ĠÑģÐ²ÑıÐ·Ð°Ð½Ð°": 1592,
      "Ð²ÐµÐ½Ð½Ð¸ÐºÐ¾Ð²": 1593,
      "ĠÐĽÐµÐ³ÐµÐ½Ð´Ð°": 1594,
      "ĠÐ¿Ð¸ÑĢÐ°Ð¼Ð¸Ð´Ð°": 1595,
      "ĠÑģÑĩÐ¸ÑĤÐ°ÑĤÑĮ": 1596,
      "ÑĢÐ°Ð·Ð´Ð¾": 1597,
      "ĠÐ¿ÑĢÐ¾Ð´Ð¾Ð»Ð¶Ð°ÐµÑĤ": 1598,
      "ĠÐ·Ð½Ð°Ð½Ð¸ÑıÑħ": 1599,
      "ĠÐ·Ð½Ð°Ð½Ð¸ÑıÐ¼Ð¸": 1600,
      "ĠÐŀÑĦÐ¸ÑĨÐ¸Ð°Ð»ÑĮ": 1601,
      "ĠÐ¾ÑīÑĥÑīÐµÐ½Ð¸ÑıÑħ": 1602,
      "ĠÐ¾ÑģÐ¾Ð±ÐµÐ½Ð½Ð¾ÑģÑĤÑıÐ¼Ð¸": 1603,
      "ĠÑĤÐ¾ÑĩÐ½Ð°Ñı": 1604,
      "ĠÐ½ÐµÐ¾Ð±ÑħÐ¾Ð´Ð¸Ð¼ÑĭÐµ": 1605,
      "Ð¢Ð°Ð¹Ð½Ñĭ": 1606,
      "ĠÐ´ÑĢÑĥÐ³Ð¾Ð¹": 1607,
      "ĠÐ¾Ð±Ð»Ð°Ð´Ð°Ð»Ð¸": 1608,
      "ĠÐ¿ÑĥÑĤÐµÑĪÐµÑģÑĤ": 1609,
      "ĠÑĥÑģÑĤÐ½ÑĭÑħ": 1610,
      "ĠÐ²Ð¾Ð·Ð²ÐµÐ´ÐµÐ½Ð¸Ñı": 1611,
      "ĠÑħÑĢÐ°Ð½Ð¸ÑĤ": 1612,
      "ĠÐ°ÐºÑĥÑģÑĤÐ¸ÐºÐ¸": 1613,
      "ĠÑĤÐµÑħÐ½Ð¾Ð»Ð¾Ð³Ð¸Ð¸": 1614,
      "ĠÐ¿ÑĢÐ¾Ð²Ð¾Ð´Ð½Ð¸ÐºÐ¾Ð²": 1615,
      "ĠÐ·Ð°Ð³Ð°Ð´Ð¾Ðº": 1616,
      "ĠÐ½ÐµÐ¾Ð±ÑĭÑĩÐ½ÑĭÑħ": 1617,
      "ĠÐ³Ð¾ÑĢÐ°Ð·Ð´Ð¾": 1618,
      "ĠÐ¾ÑĦÐ¸ÑĨÐ¸Ð°Ð»ÑĮÐ½Ð¾Ð¹": 1619,
      "Ð½Ð°ÑĤÐ¸Ð²Ð½Ð¾Ð¹": 1620,
      "Ð»ÐµÐ´Ð¾Ð²Ð°ÑĤÐµÐ»Ð¸": 1621,
      "ĠÐ³ÐµÐ¾Ð¼ÐµÑĤÑĢÐ¸Ñı": 1622,
      "ĠÐ°ÑĢÑħÐµÐ¾Ð»Ð¾Ð³Ð¸Ñı": 1623,
      "ĠÐ°Ð»ÑĮÑĤÐµÑĢÐ½Ð°ÑĤÐ¸Ð²Ð½Ð¾Ð¹": 1624,
      "ĠÐ¾ÑģÐ²ÐµÑīÐµÐ½Ð¸Ñı": 1625,
      "ĠÐŀÑĦÐ¸ÑĨÐ¸Ð°Ð»ÑĮÐ½Ð°Ñı": 1626,
      "ĠÐ¿ÑĥÑĤÐµÑĪÐµÑģÑĤÐ²ÐµÐ½Ð½Ð¸ÐºÐ¾Ð²": 1627,
      "ĠÑģÑĬ": 1628,
      "ĠÑĥÐ·Ð½Ð°": 1629,
      "ĠÐ¿ÑĢÐ¸ÐµÐ·Ð¶Ð°": 1630,
      "ĠÐ¿ÑĢÐ¸ÑħÐ¾Ð´Ð¸ÑĤ": 1631,
      "ĠÐºÐ°ÑģÐ°": 1632,
      "ĠÐµÐ¹": 1633,
      "ĠÐ¿ÑĢÐµÐ´Ð²Ð¸Ð´": 1634,
      "ĠÐ¶Ð¸Ð²ÑĥÑīÐ°Ñı": 1635,
      "ĠÐ´Ð°ÑĢÐµ": 1636,
      "ĠÑģÑĤÐ°Ð»Ð¸": 1637,
      "ÐµÐ»Ð°ÑģÑĮ": 1638,
      "ĠÑĢÐ°Ð·Ð»ÐµÑĤ": 1639,
      "ĠÐ¿ÐµÑĢÐµÐ´Ð°Ð»ÑģÑı": 1640,
      "ĠÐ¿ÑĢÐµÐ´ÑģÐºÐ°Ð·Ð°Ð½Ð¸Ðµ": 1641,
      "ĠÐ¿ÑĢÐµÐ´ÑģÐºÐ°Ð·Ð°Ð½Ð¸Ð¹": 1642,
      "ĠÑģÐ°Ð¼ÑĭÑħ": 1643,
      "ĠÐ¿ÑĢÐµÐ´ÑĥÐ¿ÑĢÐµÐ¶Ð´Ð°ÐµÑĤ": 1644,
      "ĠÐ¾ÑģÑĤÐ¾ÑĢÐ¾Ð¶Ð½Ð¾ÑģÑĤÐ¸": 1645,
      "ĠÐ´Ð°ÑĢÐ¾Ð¼": 1646,
      "ÐŁÑĢÐ¾ÑĢÐ¾ÑĩÐµÑģÑĤÐ²Ð°": 1647,
      "ĠÐ¾Ð±Ð»Ð°Ð´Ð°ÐµÑĤ": 1648,
      "ÐµÐ·Ð¶Ð°ÑİÑĤÑģÑı": 1649,
      "ĠÐ¸Ð·Ð²ÐµÑģÑĤÐ½ÑĭÑħ": 1650,
      "ĠÐ´ÐµÑģÑıÑĤÐ¸Ð»ÐµÑĤÐ¸Ðµ": 1651,
      "ĠÑģÐ¾ÑģÐµÐ´Ð½Ð¸Ð¼": 1652,
      "ĠÑĤÑĢÐµÐ±ÑĥÐµÑĤ": 1653,
      "ĠÑģÑĬÐµÐ·Ð¶Ð°ÑİÑĤÑģÑı": 1654,
      "ĠÑĥÐ·Ð½Ð°ÑĤÑĮ": 1655,
      "ĠÐ¿ÑĢÐ¸ÐµÐ·Ð¶Ð°ÑĤÑĮ": 1656,
      "ĠÐºÐ°ÑģÐ°Ð»Ð¾ÑģÑĮ": 1657,
      "ĠÐ¿ÑĢÐµÐ´Ð²Ð¸Ð´ÐµÐ½Ð¸Ñı": 1658,
      "ĠÑĢÐ°Ð·Ð»ÐµÑĤÐµÐ»Ð°ÑģÑĮ": 1659,
      "ÐµÑīÐ°": 1660,
      "ÑĢÐ°Ð½Ñı": 1661,
      "Ð»Ð¸Ðº": 1662,
      "ĠÐ½Ð°ÑĢÑĥ": 1663,
      "ÑĪÐ¸ÑĤÑĮ": 1664,
      "Ð¾Ð±ÑīÐµÐ½Ð¸Ñı": 1665,
      "ĠÐ¾Ð±Ð»Ð¸Ðº": 1666,
      "ĠÐ¿ÑĢÐ¸ÑĪÐµ": 1667,
      "Ð²Ð¸Ð¶ÐµÐ½Ð¸Ñı": 1668,
      "ÐµÐ¼Ð»Ñİ": 1669,
      "ĠÐ¿ÑĢÐ¾ÑĤÑı": 1670,
      "ĠÐ¿Ð¾ÑģÐµÑīÐ°": 1671,
      "ÑıÑĤÑģÑı": 1672,
      "ÑĢÐµÐ¼ÑıÑĤÑģÑı": 1673,
      "ÑĳÑĢÐ¾Ð²": 1674,
      "ĠÐ¿ÐµÑĢÐµÐ´Ð°ÑĤÑĮ": 1675,
      "ĠÑģÑĤÑĢÐµÐ¼ÑıÑĤÑģÑı": 1676,
      "ĠÐ¾Ð±Ð»Ð°ÑģÑĤÐ¸": 1677,
      "ĠÐºÐ¾Ð½ÑĤÐ°ÐºÑĤ": 1678,
      "ĠÐ´ÐµÐ»Ð°ÑİÑĤ": 1679,
      "ĠÐ¾ÑģÑĤÐ¾ÑĢÐ¾Ð¶Ð½Ð¾": 1680,
      "ĠÐĹÐµÐ¼Ð»Ñİ": 1681,
      "ĠÐĺÑħ": 1682,
      "ÑĤÐ°ÐºÑĤÑĳÑĢÑĭ": 1683,
      "ĠÐ·Ð²ÑĳÐ·Ð´Ð½ÑĭÑħ": 1684,
      "ĠÐ¾Ð¿ÑĭÑĤÐ°": 1685,
      "ĠÑģÐ¾ÑħÑĢÐ°Ð½Ñı": 1686,
      "Ð»ÑĮÑĨÐ°Ñħ": 1687,
      "ĠÐ¿ÐµÑĢÐµÐ´Ð²Ð¸Ð¶ÐµÐ½Ð¸Ñı": 1688,
      "ĠÑĩÐµÐ»Ð¾Ð²ÐµÑĩÐµÑģÑĤÐ²Ñĥ": 1689,
      "ĠÐļÐ¾Ð½ÑĤÐ°ÐºÑĤÑĳÑĢÑĭ": 1690,
      "ĠÐ½Ð°ÑĢÑĥÑĪÐ¸ÑĤÑĮ": 1691,
      "ĠÐ¿ÑĢÐ¸ÑĪÐµÐ»ÑĮÑĨÐ°Ñħ": 1692,
      "ĠÐ¿ÑĢÐ¾ÑĤÑıÐ¶ÐµÐ½Ð¸Ð¸": 1693,
      "ĠÐ¿Ð¾ÑģÐµÑīÐ°ÑİÑĤ": 1694,
      "ĠÐºÐ¾Ð½ÑĤÐ°ÐºÑĤÑĳÑĢÐ¾Ð²": 1695,
      "ĠÑģÐ¾ÑħÑĢÐ°Ð½ÑıÐµÑĤÑģÑı": 1696,
      "ÑĥÑĤÐ¸Ð¼Ð¾": 1697,
      "ÑĩÑĪÐµ": 1698,
      "ÑĢÐ¸ÑıÑĤ": 1699,
      "ÑĢÐ¸Ð±Ð»Ð¸Ð¶Ð°": 1700,
      "Ð¶ÐµÑĤÑģÑı": 1701,
      "ĠÐ¿Ð¾Ñį": 1702,
      "ÑĤÐ¸Ð²ÐµÐ½": 1703,
      "ĠÑįÑĤÐ¾Ð¹": 1704,
      "ĠÐ³Ð¾ÑĢÐ¾": 1705,
      "ĠÐ¿ÑĢÐ¾ÑħÐ¾Ð´Ð¸ÑĤ": 1706,
      "ÑĩÐµÑģÐºÐ°Ñı": 1707,
      "ÑģÐºÐ¾Ð¿Ð°": 1708,
      "Ð¾Ð¿ÑĢÐ¸ÑıÑĤ": 1709,
      "ĠÐŁÑĢÐ¸Ð±Ð»Ð¸Ð¶Ð°": 1710,
      "ÑĤÐµÐ»ÑĮÐ½ÐµÐµ": 1711,
      "ÑĤÐ¾Ð¼Ñĥ": 1712,
      "ĠÑģÑĤÐ°ÑĤÑĮ": 1713,
      "ĠÐ½Ð¾ÑģÐ¸ÑĤÑĮ": 1714,
      "ĠÑĥÑģÐ¸Ð»Ð¸ÑĤ": 1715,
      "ĠÑģÐºÐ»Ð°Ð´ÑĭÐ²Ð°ÐµÑĤÑģÑı": 1716,
      "ĠÐ²Ð½Ð¸Ð¼Ð°ÑĤÐµÐ»ÑĮÐ½ÐµÐµ": 1717,
      "ĠÑĢÐµÑĪÐµÐ½Ð¸Ñı": 1718,
      "ĠÐ¾ÑīÑĥÑĤÐ¸Ð¼Ð¾": 1719,
      "ĠÐ¿ÑĢÐµÐ´ÑģÐºÐ°Ð·Ð°Ð½Ð½ÑĭÐµ": 1720,
      "ĠÐ¿Ð¾Ð»Ð¾Ð¶ÐµÐ½Ð¸Ðµ": 1721,
      "ÑģÑĤÑĢÐ¾Ð»Ð¾Ð³Ð¸ÑĩÐµÑģÐºÐ¸Ð¹": 1722,
      "ĠÐ½Ð°Ð±Ð»ÑİÐ´ÐµÐ½Ð¸Ð¹": 1723,
      "ĠÐĳÐ»Ð°Ð³": 1724,
      "ĠÐ½ÐµÐ´ÐµÐ»Ðµ": 1725,
      "ĠÐ²Ð°Ð¶Ð½ÑĭÐµ": 1726,
      "ĠÐ¿ÑĢÐ¾Ð³Ð½Ð¾Ð·": 1727,
      "ĠÐĲÑģÑĤÑĢÐ¾Ð»Ð¾Ð³Ð¸ÑĩÐµÑģÐºÐ°Ñı": 1728,
      "ĠÐ»ÑĥÑĩÑĪÐµ": 1729,
      "ĠÑĨÐ²ÐµÑĤÐ¾Ð¼": 1730,
      "ĠÑģÐºÐ°Ð¶ÐµÑĤÑģÑı": 1731,
      "ĠÑĪÐºÐ¾Ð»Ð°": 1732,
      "ĠÑĤÐ°Ð»Ð¸ÑģÐ¼Ð°Ð½Ð¾Ð¼": 1733,
      "ĠÑģÐµÑĢÐ´ÑĨÑĥ": 1734,
      "ÐĲÑģÑĤÑĢÐ¾Ð»Ð¾Ð³Ð¸ÑĩÐµÑģÐºÐ¸Ð¹": 1735,
      "ĠÐ¿ÑĢÐµÐ´ÑģÑĤÐ°Ð²Ð¸ÑĤÐµÐ»ÑıÑħ": 1736,
      "ĠÐ°ÐºÑĤÐ¸Ð²ÐµÐ½": 1737,
      "ĠÐ¿Ð¾ÑįÑĤÐ¾Ð¼Ñĥ": 1738,
      "ĠÐ³Ð¾ÑĢÐ¾ÑģÐºÐ¾Ð¿Ð°": 1739,
      "Ð¾Ð¿ÑĢÐ¸ÑıÑĤÐ½ÑĭÐ¼": 1740,
      "ĠÐŁÑĢÐ¸Ð±Ð»Ð¸Ð¶Ð°ÑİÑīÐµÐµÑģÑı": 1741,
      "ĠÐĳÐ»Ð°Ð³Ð¾Ð¿ÑĢÐ¸ÑıÑĤÐ½ÑĭÐ¼": 1742,
      "ÑĭÑģÑı": 1743,
      "ĠÑĤÑĭÑģÑı": 1744,
      "ĠÐ²Ð½ÑĥÑĤÑĢÐµÐ½Ð½Ð¸": 1745,
      "ÐŁÑĢÐµÐ´": 1746,
      "Ð¼Ñĭ": 1747,
      "ÑĢÐ¸ÑĨÐ°": 1748,
      "Ð¾Ð²Ð¾ÑĢ": 1749,
      "ĠÐ½Ð°ÑĢÐ¾Ð´": 1750,
      "ÑĦÐ¸": 1751,
      "ÑģÐ½Ð¾": 1752,
      "ÑĩÐµÐ²Ð¸Ð´ÐµÑĨ": 1753,
      "ÐŀÑĩÐµÐ²Ð¸Ð´ÐµÑĨ": 1754,
      "ĠÑģÑĥÑī": 1755,
      "Ð¡ÐºÐµÐ¿ÑĤÐ¸ÐºÐ¸": 1756,
      "ĠÐ²Ð½Ðµ": 1757,
      "Ð·Ð°Ð¿": 1758,
      "ĠÐ²Ð½ÐµÐ·Ð°Ð¿": 1759,
      "ÐŁÐ¾Ñģ": 1760,
      "ÐŁÐ¾ÑģÐ»Ðµ": 1761,
      "ÑĦÑĢÐ¾Ð²Ð°": 1762,
      "ĠÐ·Ð°ÑĪÐ¸": 1763,
      "ĠÐ·Ð°ÑĪÐ¸ÑĦÑĢÐ¾Ð²Ð°": 1764,
      "ÐĶÐ»Ñı": 1765,
      "Ð¾Ð»ÐºÐ¾Ð²Ð°ÑĤÐµÐ»Ð¸": 1766,
      "Ð¢Ð¾Ð»ÐºÐ¾Ð²Ð°ÑĤÐµÐ»Ð¸": 1767,
      "ĠÑģÐºÑĢÑĭÑĤÐ¾": 1768,
      "ÐĵÑĥÑīÐµ": 1769,
      "ĠÐ¡ÑĤ": 1770,
      "ĠÐ¿ÑĢÐ¸Ð·ÑĭÐ²Ð°ÑİÑĤ": 1771,
      "ÐŀÐ¿ÑĭÑĤÐ½ÑĭÐµ": 1772,
      "ÐĶÐ¾Ð¿Ð¾Ð»Ð½Ð¸ÑĤÐµÐ»ÑĮÐ½ÑĭÐ¼": 1773,
      "ĠÑģÐµÑĢÐ´ÑĨÐ°": 1774,
      "ÐŁÑĢÐ°ÐºÑĤÐ¸ÐºÑĥÑİÑīÐ¸Ðµ": 1775,
      "ĠÑĢÐµÐºÐ¾Ð¼ÐµÐ½Ð´ÑĥÑİÑĤ": 1776,
      "ĠÑĢÐµÑĪÐµÐ½Ð¸Ñİ": 1777,
      "ĠÑĦÐ¾ÑĢ": 1778,
      "ÑĤÐµÑĢÑı": 1779,
      "Ð¡ÐµÐ³Ð¾Ð´Ð½Ñı": 1780,
      "Ð²ÐµÑģÑĤ": 1781,
      "ĠÐ·Ð´Ð¾ÑĢÐ¾Ð²ÑĮÑı": 1782,
      "Ð´Ð½Ð¾": 1783,
      "ÐŀÐ´Ð½Ð¾": 1784,
      "Ð»Ð¾Ð²": 1785,
      "Ð¡ÑĤÐ¾ÑĢÐ¾Ð½Ð½Ð¸ÐºÐ¸": 1786,
      "Ð¡Ð¾Ð¾Ð±ÑīÐµÐ½Ð¸Ñı": 1787,
      "ÑģÑģÐ»ÐµÐ´Ð¾Ð²Ð°ÑĤÐµÐ»Ð¸": 1788,
      "ÐĺÑģÑģÐ»ÐµÐ´Ð¾Ð²Ð°ÑĤÐµÐ»Ð¸": 1789,
      "ĠÐ¸Ð·Ð¼ÐµÐ½Ð¸": 1790,
      "Ð¡ÑĢÐµÐ´Ð¸": 1791,
      "ÑģÑĤÐ°Ð²Ð¸ÑĤÐµÐ»ÑıÐ¼": 1792,
      "ÐŁÑĢÐµÐ´ÑģÑĤÐ°Ð²Ð¸ÑĤÐµÐ»ÑıÐ¼": 1793,
      "ĠÑĥÐ³Ð¾Ð²Ð°ÑĢÐ¸Ð²Ð°ÑİÑĤ": 1794,
      "ÑĳÐ½": 1795,
      "ĠÐ»Ñĳ": 1796,
      "ĠÑĥÐ±ÐµÐ¶Ð´Ð°ÑİÑĤ": 1797,
      "ĠÐ½Ð°ÑģÑĤÐ°Ð²Ð»ÑıÑİÑĤ": 1798,
      "ĠÐ¿ÑĢÐµÐ´Ð»Ð°Ð³Ð°ÑİÑĤ": 1799,
      "ĠÐ¿Ð¾Ð´ÑģÐºÐ°Ð·ÑĭÐ²Ð°ÑİÑĤ": 1800,
      "ĠÐºÐ°Ð¼": 1801,
      "ĠÑģÐ¸Ð¼Ð²Ð¾Ð»Ð¸": 1802,
      "ĠÐ³Ð¾Ð»": 1803,
      "Ð¡ÑĩÐ¸ÑĤÐ°": 1804,
      "Ð¡ÑĩÐ¸ÑĤÐ°ÐµÑĤÑģÑı": 1805,
      "ÑģÑıÑĤ": 1806,
      "ĠÐ¿ÑĢÐ¾ÑģÑıÑĤ": 1807,
      "ÑıÐ½ÑĥÑĤÐ°Ñı": 1808,
      "ÑĭÑĤÑıÐ½ÑĥÑĤÐ°Ñı": 1809,
      "ÐĴÑĭÑĤÑıÐ½ÑĥÑĤÐ°Ñı": 1810,
      "Ð¾Ð²ÑĤÐ¾ÑĢÑı": 1811,
      "ÐŁÐ¾Ð²ÑĤÐ¾ÑĢÑı": 1812,
      "ÐŁÐ¾Ð²ÑĤÐ¾ÑĢÑıÑİÑīÐ¸Ð¹ÑģÑı": 1813,
      "ÑĢÐ¸Ð¹": 1814,
      "ĠÐ¼Ð¾Ð¶Ð½Ð¾": 1815,
      "Ð¾Ð»Ð½": 1816,
      "ÑıÐµÑĤ": 1817,
      "ÑĪÑĮ": 1818,
      "ĠÐ»Ð¸ÑĪÑĮ": 1819,
      "ĠÐ³Ð¾ÑĢ": 1820,
      "ĠÑĥÑĤÐ²ÐµÑĢÐ¶Ð´Ð°ÐµÑĤ": 1821,
      "Ð¼ÐµÐ½": 1822,
      "ĠÐ¿ÐµÑĢÐµÐ¼ÐµÐ½": 1823,
      "ĠÐ½Ð¾Ð²Ñĭ": 1824,
      "ĠÑįÑĤÐ¾Ð¼": 1825,
      "ĠÐ·Ð°Ð±Ñĭ": 1826,
      "ÑĤÐ¾Ð³Ð¾": 1827,
      "ĠÐĸ": 1828,
      "ĠÐĿÐ°": 1829,
      "ĠÐ¸Ð½ÑĤÑĥÐ¸ÑĨÐ¸Ð¸": 1830,
      "Ð¸Ð¼Ð¾ÑģÑĤÐ¸": 1831,
      "ĠÐ½ÐµÐ¾Ð±ÑħÐ¾Ð´Ð¸Ð¼Ð¾ÑģÑĤÐ¸": 1832,
      "ÐµÑĢÐµÐ±": 1833,
      "Ð²Ð¾Ð²Ð°": 1834,
      "ĠÐ²Ð½ÑĥÑĤÑĢÐµÐ½Ð½Ð¸Ñħ": 1835,
      "ÑĩÐ½Ð¾": 1836,
      "Ð²Ð¾Ð¼": 1837,
      "Ð²ÑĢÐ°": 1838,
      "ĠÐ²Ð·": 1839,
      "ÑħÐ°ÑĢ": 1840,
      "ĠÑĤÐ¾Ð¼": 1841,
      "Ð»Ð¸ÑĨ": 1842,
      "ĠÐĵÐ¸": 1843,
      "ĠÑģÑĤÐ°ÑĢÐ¸": 1844,
      "ÑĢÐ¾Ð¹": 1845,
      "ÑĢÐ¾Ð²": 1846,
      "Ð³Ñĥ": 1847,
      "ĠÐ±ÐµÐ»": 1848,
      "ÑīÐ¸": 1849,
      "Ð²Ð¸Ð³Ð°": 1850,
      "Ð³Ð»Ð°": 1851,
      "ÐµÑĦ": 1852,
      "ĠÐ¼ÐµÐ¶Ð´Ñĥ": 1853,
      "ĠÐ»ÑĳÐ³": 1854,
      "ĠÐ²ÐµÑĢÐ¸ÑĤÑĮ": 1855,
      "ÐºÐ¾ÑĢ": 1856,
      "ĠÐ¶ÐµÐ»Ð°Ð½Ð¸Ñı": 1857,
      "ĠÐľÐ°ÑĢ": 1858,
      "ĠÐķ": 1859,
      "ĠÐ¿Ð¾ÐºÐ¾Ð»ÐµÐ½Ð¸Ðµ": 1860,
      "ÐµÑĢÑĭ": 1861,
      "ÐµÑĪ": 1862,
      "ĠÐ·Ð½Ð°Ðº": 1863,
      "ÐºÐ°Ð¼Ð¸": 1864,
      "ĠÐ²Ð¸Ð´Ðµ": 1865,
      "ÑģÑĤÑĢÐ¾Ð¹": 1866,
      "ÑĥÐ¼ÑĢÑĥÐ´": 1867,
      "ÑģÑĤÐ¾Ð¹": 1868,
      "ÑģÐ»Ð°": 1869,
      "ĠÐ¿ÐµÑĢÐµÐ¶Ð¸": 1870,
      "ĠÐ·Ð°Ð´": 1871,
      "Ð°Ð½ÑĨÑĭ": 1872,
      "ĠÐ¿ÑĢÐ¸ÑĢÐ¾Ð´": 1873,
      "ĠÑģÑĤÑĢÐ°Ð½": 1874,
      "ÑģÑĤÑĥÐ¿": 1875,
      "ĠÑĥÐ·": 1876,
      "ÑĩÑĥ": 1877,
      "ÑĤÐµÐ»ÑĮÐ½Ð¸ÑĨÐ°": 1878,
      "ÑĤÐµÐ»ÑĮÐ½Ð¸ÑĨÑĭ": 1879,
      "Ð¸Ð»Ð¾": 1880,
      "Ġ9": 1881,
      "19": 1882,
      "Ð²Ð½Ð°": 1883,
      "ÑĤÐ°Ðº": 1884,
      "ÑĮÐ¸": 1885,
      "ĠÐ³Ð¾Ð²Ð¾ÑĢ": 1886,
      "ĠÐ³Ð¾Ð²Ð¾ÑĢÑıÑĤ": 1887,
      "ÑĨÐ¾Ð²": 1888,
      "Ġ6": 1889,
      "ĠÐ³Ð¾ÑĢÐ¾Ð´": 1890,
      "ÐµÑĤÐ¸": 1891,
      "ÐµÑĤÐµ": 1892,
      "ĠÑģÐ¾Ð¿": 1893,
      "Ġ7": 1894,
      "ÐµÑĢÐµÐ½": 1895,
      "ĠÑģÑĤÐ°ÑĢ": 1896,
      "ĠÐ¿Ð»Ð°ÑĤÐ¾": 1897,
      "Ġ8": 1898,
      "Ġ3": 1899,
      "ÑģÑĤÐ²Ð°": 1900,
      "ĠÑģÑĥÑīÐµÑģÑĤ": 1901,
      "Ġ5": 1902,
      "Ġ4": 1903,
      "ĠÐ³Ð¾Ð´Ñĭ": 1904,
      "ĠÐ·Ð²ÐµÐ·": 1905,
      "ĠÐ½ÐµÐ¾Ð¶Ð¸Ð´Ð°Ð½": 1906,
      "ĠÐ²Ð½ÑĥÑĤÑĢÐµÐ½Ð½ÐµÐ³Ð¾": 1907,
      "ĠÑĤÐ²Ð¾ÑĢ": 1908,
      "ĠÑģÑĩÐ¸ÑĤÐ°ÐµÑĤÑģÑı": 1909,
      "ĠÐ¶ÑĢÐµ": 1910,
      "ÑģÑģÐ¾": 1911,
      "Ð´Ð°Ð²": 1912,
      "ĠÐ½ÐµÐ´Ð°Ð²": 1913,
      "Ð°Ð³Ð°": 1914,
      "ĠÐºÐ°Ð¶Ð´": 1915,
      "ĠÐºÐ°Ð¶Ð´Ð¾Ð³Ð¾": 1916,
      "ÑĤÐºÐ¾Ð²": 1917,
      "Ð¾Ð»Ð¾": 1918,
      "ĠÐ¾ÐºÐ¾Ð»Ð¾": 1919,
      "ĠÐ²Ð°Ð¶Ð½Ð¾Ð¼Ñĥ": 1920,
      "ĠÐ¡Ð¾Ð»Ð½": 1921,
      "ĠÐ½ÐµÑĢÐµ": 1922,
      "ĠÐ³Ð¾Ð²Ð¾ÑĢÐ¸ÑĤÑĮ": 1923,
      "ĠÐ½ÐµÐ¸Ð·": 1924,
      "ÑĢÐ°Ð±": 1925,
      "ĠÑĤÐµÐ»Ðµ": 1926,
      "ĠÐ²ÑģÑĳ": 1927,
      "ÐµÐ³Ð°": 1928,
      "ĠÑģÐ±": 1929,
      "ĠÑģÐ±ÑĭÐ²Ð°": 1930,
      "ĠÐĹÐ°": 1931,
      "ĠÐ½ÐµÑģÐºÐ¾Ð»ÑĮÐºÐ¸Ñħ": 1932,
      "ĠÐ¿Ð»Ð°Ð½ÐµÑĤ": 1933,
      "ĠÐ®": 1934,
      "ĠÐĲÐ½": 1935,
      "ĠÐ¿ÐµÑĢÐµÐ¼Ðµ": 1936,
      "ÑĢÐµÐ´ÐµÐ»": 1937,
      "ĠÐ¾Ð¿ÑĢÐµÐ´ÐµÐ»": 1938,
      "ĠÐ¡ÐºÐ¾ÑĢ": 1939,
      "ĠÐ¡ÐºÐ¾ÑĢÐ¿Ð¸": 1940,
      "ĠÑıÑģ": 1941,
      "ÑħÐ¾Ð²": 1942,
      "ÐŁÑĢÐ¸": 1943,
      "ÑīÐ°Ñı": 1944,
      "Ð¾ÑĢÐ°": 1945,
      "Ð¼ÐµÑĩÐ°ÐµÑĤ": 1946,
      "Ð½Ñģ": 1947,
      "Ð¸Ð½Ð°Ð½Ñģ": 1948,
      "ĠÑĦÐ¸Ð½Ð°Ð½Ñģ": 1949,
      "Ð°ÑĪ": 1950,
      "ĠÐ¼ÑĭÑģÐ»Ð¸": 1951,
      "ĠÐ°ÑĤ": 1952,
      "ĠÐ³Ð°ÑĢ": 1953,
      "ĠÐ³Ð°ÑĢÐ¼Ð¾": 1954,
      "ĠÐ¦": 1955,
      "ĠÑģÐºÐ¾": 1956,
      "ĠÐ±Ð»Ð¸Ð·ÐºÐ¸Ñħ": 1957,
      "ÑĢÐ°ÐºÐ°": 1958,
      "ĠÐ±ÑĢÐ°ÐºÐ°": 1959,
      "Ð¿Ð¿Ð°": 1960,
      "ĠÐĽÑĥ": 1961,
      "ĠÐ¾ÑģÑĤÐ°": 1962,
      "ÑĢÐ°ÑĤÐ¾Ð²": 1963,
      "ĠÐ°Ð¿Ð¿Ð°": 1964,
      "ĠÐ°Ð¿Ð¿Ð°ÑĢÐ°ÑĤÐ¾Ð²": 1965,
      "ĠÑģÐ¾ÑħÑĢÐ°Ð½Ð¸": 1966,
      "ĠÑģÐºÑĢÑĭÑĤÐ¾Ðµ": 1967,
      "ĠÐ¿ÑĢÐµÐ´Ð²ÐµÑģÑĤ": 1968,
      "ĠÐ±ÑĥÐ´ÑĥÑī": 1969,
      "ĠÐ¿ÑĢÐµÐ´Ð²ÐµÑģÑĤÐ¸Ðµ": 1970,
      "Ð²ÑĪÐ¸ÑħÑģÑı": 1971,
      "ĠÐ¿ÑĢÐ¾ÑĪ": 1972,
      "ĠÐ´ÐµÐ¹ÑģÑĤÐ²Ð¸ÑĤÐµÐ»ÑĮÐ½Ð¾": 1973,
      "ÑĢÐµÐ»ÑĮ": 1974,
      "ĠÐ¿ÐµÑĢÐµÐ»Ð¾Ð¼": 1975,
      "ĠÑģÐ¿Ð¾ÑģÐ¾Ð±Ð½Ð¾ÑģÑĤÑĮ": 1976,
      "ÑĢÐ°Ñģ": 1977,
      "ÑĩÐµÑģÐºÐ¾Ð¹": 1978,
      "Ðľ": 1979,
      "ĠÐ¶ÐµÐ»Ð°Ð½Ð¸Ðµ": 1980,
      "Ð¿ÐºÐ¸Ð¹": 1981,
      "ĠÐ¿Ð¾ÑĤ": 1982,
      "ĠÑĦÐ¾ÑĢÐ¼Ñĥ": 1983,
      "ĠÐ²ÑĭÑģÐ¾": 1984,
      "Ð²ÐµÑĤ": 1985,
      "ĠÑıÑĢÐºÐ¾": 1986,
      "Ð½Ð½ÑĭÑħ": 1987,
      "ÑĩÑĳÑĤ": 1988,
      "ĠÐºÑĢÑĥÐ³Ñĥ": 1989,
      "ÐµÐ¼Ñĭ": 1990,
      "Ð¾ÑĤÐ²ÑĢÐ°": 1991,
      "ĠÑĥÐ»Ñĭ": 1992,
      "ĠÑĥÐ»ÑĭÐ±": 1993,
      "ÑĢÐ¸Ð½Ð¸Ð¼Ð°": 1994,
      "Ð¿ÑĢÐ¸Ð½Ð¸Ð¼Ð°": 1995,
      "ĠÐ²Ð¾ÑģÐ¿ÑĢÐ¸Ð½Ð¸Ð¼Ð°": 1996,
      "ĠÐ²Ð¾ÑģÐ¿ÑĢÐ¸Ð½Ð¸Ð¼Ð°ÐµÑĤÑģÑı": 1997,
      "ĠÑĤÑĢÑĥÐ´": 1998,
      "ĠÑĥÐ¼Ð°": 1999,
      "Ð½Ð¸Ð²Ð°": 2000,
      "ĠÐ½ÐµÐ³Ð»Ð°": 2001,
      "ĠÐ¿ÑĢÐ¸ÑĢÐ°Ð²": 2002,
      "ĠÑĤÐ¾Ð¼Ñĥ": 2003,
      "Ð½Ð¸Ð²Ð°ÐµÑĤÑģÑı": 2004,
      "ĠÐ½ÐµÐ³Ð»Ð°ÑģÐ½Ð¾": 2005,
      "ĠÐ¿ÑĢÐ¸ÑĢÐ°Ð²Ð½Ð¸Ð²Ð°ÐµÑĤÑģÑı": 2006,
      "Ð°ÐµÑĤ": 2007,
      "ĠÐ½ÐµÑĤ": 2008,
      "ĠÐ¸Ð»Ð¸": 2009,
      "ĠÑħÐ¾ÑĤ": 2010,
      "ĠÑĢÐµÑĪÐ°ÐµÑĤ": 2011,
      "ĠÐºÐ°Ð¶Ð´ÑĭÐ¹": 2012,
      "ĠÑħÐ¾ÑĤÑı": 2013,
      "ÑĢÑĥÐµÑĤ": 2014,
      "Ð·Ð¸ÑĢÑĥÐµÑĤ": 2015,
      "ĠÑģÐ¸Ð¼Ð²Ð¾Ð»Ð¸Ð·Ð¸ÑĢÑĥÐµÑĤ": 2016,
      "ĠÑĤÑĢÐ°ÐºÑĤÑĥÐµÑĤÑģÑı": 2017,
      "ÑĢÑĥÐµÑĤÑģÑı": 2018,
      "ĠÐ°ÑģÑģÐ¾": 2019,
      "ĠÐ¸Ð·Ð´Ð°Ð²Ð½Ð°": 2020,
      "ÑĨÐ¸Ð¸ÑĢÑĥÐµÑĤÑģÑı": 2021,
      "ĠÐ°ÑģÑģÐ¾ÑĨÐ¸Ð¸ÑĢÑĥÐµÑĤÑģÑı": 2022,
      "Ð¶Ð¸ÑĤ": 2023,
      "ĠÐ·Ð½Ð°ÐºÐ¾Ð¼": 2024,
      "ĠÑģÐ»ÑĥÐ¶Ð¸ÑĤ": 2025,
      "Ð½Ð¸Ñħ": 2026,
      "ÑĢÐ¸Ð¾Ð½Ð°": 2027,
      "ÑĥÑīÐµÐµ": 2028,
      "ĠÐ¾Ð»Ð¸ÑĨ": 2029,
      "ÐµÑĤÐ²Ð¾ÑĢ": 2030,
      "ĠÐ¾Ð»Ð¸ÑĨÐµÑĤÐ²Ð¾ÑĢ": 2031,
      "ĠÐ¾Ð»Ð¸ÑĨÐµÑĤÐ²Ð¾ÑĢÑıÐµÑĤ": 2032,
      "Ð²ÑĥÐµÑĤ": 2033,
      "ĠÑģÐ»ÑĥÑĩÐ°Ðµ": 2034,
      "ĠÐ¸Ð¼ÐµÐ½Ð½Ð¾": 2035,
      "ĠÐ²ÑģÑıÐºÐ¾Ð¼": 2036,
      "ĠÑĥÐ´Ð°ÑĩÐ¸": 2037,
      "ĠÐ¿ÑĢÐ¾Ð²ÐµÑĢÐ¸ÑĤÑĮ": 2038,
      "ĠÐ¾Ð¿ÑĭÑĤÐµ": 2039,
      "ĠÑģÐ¾Ð±ÑģÑĤÐ²ÐµÐ½Ð½Ð¾Ð¼": 2040,
      "ĠÐ¸Ð·ÑĥÐ¼ÑĢÑĥÐ´": 2041,
      "ĠÑĤÐ¾Ð»ÑĮ": 2042,
      "Ð¸ÑĤÑģÑı": 2043,
      "ĠÑĤÐ°ÐºÐ¸Ñħ": 2044,
      "ĠÑģÑĤÐ°Ð½Ð¾Ð²": 2045,
      "ĠÐ³Ð¾Ð´Ð¾Ð¼": 2046,
      "ĠÐ¸ÑģÑĤÐ¾ÑĢÐ¸Ð¹": 2047,
      "ĠÐºÐ°Ð¶Ð´ÑĭÐ¼": 2048,
      "ĠÑĤÐ¾Ð»ÑĮÐºÐ¾": 2049,
      "ĠÑģÑĤÐ°Ð½Ð¾Ð²Ð¸ÑĤÑģÑı": 2050,
      "ĠÐºÐ¾ÑĢÐ°Ð±": 2051,
      "Ð¹Ð½ÐµÐ¹": 2052,
      "ĠÐºÑĢÐ°Ð¹Ð½ÐµÐ¹": 2053,
      "ĠÐ¿ÑĢÐ¾Ð±Ð¾Ð²Ð°Ð»": 2054,
      "ĠÐ¶ÑĢÐµÑĨÐ¾Ð²": 2055,
      "ĠÐļÑĢÐ°Ñģ": 2056,
      "ÑĨÐµÐ¼": 2057,
      "Ð°Ð»Ñĥ": 2058,
      "ĠÐ¿Ð¾Ð¶": 2059,
      "ĠÐµÑģÑĤÑĮ": 2060,
      "ĠÐ¿ÑĢÐ°Ð²Ð´Ð°": 2061,
      "ĠÑģÐ²Ð¾Ñı": 2062,
      "Ð°Ð»ÑĥÐ¹": 2063,
      "ĠÐ¿Ð¾Ð¶Ð°Ð»ÑĥÐ¹": 2064,
      "ÐºÐ°Ð½Ð°": 2065,
      "ĠÑĥÑĤÐ²ÐµÑĢÐ¶Ð´Ð°ÑİÑĤ": 2066,
      "Ð¸Ð´Ð¸": 2067,
      "ĠÐ´ÐµÑĢÐµ": 2068,
      "ĠÑĩÐµÑĤ": 2069,
      "ĠÐŀÑĢÐ¸Ð¾Ð½Ð°": 2070,
      "Ð´ÑĮ": 2071,
      "ĠÐĻ": 2072,
      "ÐºÐ¸Ð¼Ð¸": 2073,
      "Ð³Ð°Ð¼Ð¸": 2074,
      "ĠÐ¸ÑģÑħÐ¾Ð´": 2075,
      "Ð¸Ð½": 2076,
      "ÑĮÐµ": 2077,
      "ĠÑģÐ½Ðµ": 2078,
      "ĠÑĢÐµÐ´": 2079,
      "ĠÐ±ÐµÐ»Ð¾Ð¹": 2080,
      "ĠÐ»ÐµÑĤÐ°": 2081,
      "ĠÐ±Ð¾Ð»ÑĮÑĪ": 2082,
      "ĠÐ±ÐµÑģ": 2083,
      "ĠÐ·Ð°ÑĤÑı": 2084,
      "ĠÐ·Ð°ÑĤÑıÐ½Ñĥ": 2085,
      "ĠÐ²Ð¾Ð¿ÑĢÐ¾ÑģÐ¾Ð²": 2086,
      "ĠÐĴÐµÐ½": 2087,
      "ÑģÑĤÐµÐ¹": 2088,
      "Ð½Ð¾ÑģÑĤÐµÐ¹": 2089,
      "ÑĢÐ°ÑīÐµÐ½Ð¸Ñı": 2090,
      "ĠÐ²Ð¾Ð·Ð²ÑĢÐ°ÑīÐµÐ½Ð¸Ñı": 2091,
      "ĠÐºÑĢÐµ": 2092,
      "ĠÑĦÐ¸Ð½Ð°Ð½ÑģÐ¾Ð²Ñĭ": 2093,
      "Ð²Ð¾Ð³Ð¾": 2094,
      "ĠÐ³Ð»ÑĥÐ±Ð¾ÐºÐ¸Ð¹": 2095,
      "ÐºÐ¸Ð¼": 2096,
      "ÑıÑīÐ°Ñı": 2097,
      "ĠÐ´Ð¾Ð»Ð³Ð¾Ð¹": 2098,
      "Ð²Ð°Ð½Ð¸Ð¹": 2099,
      "ĠÐ¿ÐµÑĢÐµÐ¶Ð¸Ð²Ð°Ð½Ð¸Ð¹": 2100,
      "Ð´Ð°Ð»Ð¸": 2101,
      "ĠÐ½ÐµÐ¿": 2102,
      "ĠÑģÑĥÑīÐµÑģÑĤÐ²": 2103,
      "ĠÑģÐµÑĢÐµÐ±": 2104,
      "ĠÑģÐµÑĢÐµÐ±ÑĢÐ¸": 2105,
      "Ð¸ÑĢÐ¸": 2106,
      "ĠÐ¡ÑĤÑĢÐ°": 2107,
      "ÐµÑĢÐºÑĥ": 2108,
      "ĠÐľÐµÑĢÐºÑĥ": 2109,
      "ĠÐ»ÑİÐ´ÐµÐ¹": 2110,
      "ĠÐ¿ÐµÑĢÐµÐ¼ÐµÐ½Ð°": 2111,
      "ÑĢÐ¸Ð¸": 2112,
      "ÐµÐ³Ð´Ð°": 2113,
      "ĠÐ¿Ð°Ð»ÑĮ": 2114,
      "Ð¾Ð»Ð³Ð¾": 2115,
      "ÐµÑģÑĤÐ½Ð¾Ð¹": 2116,
      "ĠÐ¶Ð¸Ð²ÑĪÐ¸Ñħ": 2117,
      "ĠÐ¸Ð·Ð²ÐµÑģÑĤÐ½Ð¾Ð¹": 2118,
      "ĠÐ·Ð°Ð´Ð¾Ð»Ð³Ð¾": 2119,
      "ĠÐŁÐ°": 2120,
      "ĠÑĩÑĳÑĤ": 2121,
      "ĠÐ¾ÑģÑĤÐ¾ÑĢÐ¾Ð¶Ð½ÐµÐµ": 2122,
      "Ð»Ð¸Ð²Ð¾Ð¼": 2123,
      "ĠÐ¿Ð¾ÑģÑĤÑĢÐ¾Ð¹": 2124,
      "ĠÐ½ÐµÐ´Ð¾": 2125,
      "ĠÐ´Ð²Ð¸Ð¶ÐµÐ½Ð¸Ð¸": 2126,
      "ÑģÑĤÑĥÐ¿Ð½ÑĭÐ¼Ð¸": 2127,
      "ĠÐ¿Ð¾ÑģÑĤÑĢÐ¾Ð¹ÐºÐ¸": 2128,
      "ĠÐ½ÐµÐ´Ð¾ÑģÑĤÑĥÐ¿Ð½ÑĭÐ¼Ð¸": 2129,
      "ĠÐ¡Ð¾Ð»Ð½ÑĨÐ°": 2130,
      "ĠÐ³Ð°ÑĢÐ¼Ð¾Ð½Ð¸": 2131,
      "ĠÑģÐ¾ÑģÑĤÐ¾Ñı": 2132,
      "ĠÑģÐµÑĢÐµÐ´Ð¸": 2133,
      "ĠÑģÐµÑĢÐµÐ´Ð¸Ð½Ðµ": 2134,
      "ÑģÑĤÑĢÐ¾": 2135,
      "ĠÐ½ÐµÐ¾Ð±ÑħÐ¾Ð´Ð¸Ð¼Ð¾ÑģÑĤÑĮ": 2136,
      "ĠÐłÐ°": 2137,
      "ÑıÑī": 2138,
      "ĠÐ²Ð¾Ð»": 2139,
      "ÑĳÑĤÑģÑı": 2140,
      "Ð³Ðµ": 2141,
      "ĠÑĩÐ°ÑģÐ°": 2142,
      "ÑĪÐ¸Ð¼": 2143,
      "Ð°Ñħ": 2144,
      "Ð¿Ð¾ÑĢ": 2145,
      "ĠÐ·Ð½Ð°ÑħÐ°ÑĢ": 2146,
      "Ð¾Ñı": 2147,
      "ÐµÐ´ÑĥÐ½": 2148,
      "ĠÐ¼Ð°": 2149,
      "Ð³Ð¾Ð»": 2150,
      "ĠÐ±Ñĥ": 2151,
      "Ð½ÑĮÑı": 2152,
      "Ð½Ð¾Ð²Ð¸Ð´": 2153,
      "ĠÐ¿ÑĢÐµÐ´Ð°Ð½Ð¸ÑıÐ¼": 2154,
      "ĠÐĴÐµÐ»Ð¸": 2155,
      "Ð°Ð³": 2156,
      "Ð¾Ð·ÐµÑĢ": 2157,
      "Ð¾Ð»Ñĥ": 2158,
      "ĠÐ¿ÑĥÑĤÐ¸": 2159,
      "Ð¼ÐµÑĢÐµÐ½": 2160,
      "Ð»ÐµÐ½Ð¸ÐµÐ¼": 2161,
      "ĠÐ²Ð¾ÑģÑģÑĤÐ°": 2162,
      "ĠÐ¨": 2163,
      "ĠÐĴÐµÑģÑĤ": 2164,
      "ĠÐ²Ð½ÑĥÑĤÑĢÐµÐ½Ð½ÐµÐ¹": 2165,
      "ĠÑĥÐ²ÐµÑĢ": 2166,
      "ĠÑģÐ²Ð¸Ð´": 2167,
      "Ð»ÑĮÑģÑĤ": 2168,
      "ÐµÑĤÐµÐ»ÑĮÑģÑĤ": 2169,
      "ĠÑģÐ²Ð¸Ð´ÐµÑĤÐµÐ»ÑĮÑģÑĤ": 2170,
      "ĠÐ½Ð°Ð±Ð»ÑİÐ´ÐµÐ½Ð¸ÐµÐ¼": 2171,
      "ÐµÐ½Ð½ÑĭÐ¼": 2172,
      "ĠÐ¿Ð¾Ð»Ð°Ð³Ð°": 2173,
      "ÑĩÐ½Ñı": 2174,
      "ÑĤÐ¾ÑĩÐ½Ñı": 2175,
      "ĠÑĥÑĤÐ¾ÑĩÐ½Ñı": 2176,
      "ĠÐ²ÑģÐ¿Ð¾Ð¼Ð¸Ð½Ð°": 2177,
      "Ð¿Ñĭ": 2178,
      "Ð¾Ð´Ñĥ": 2179,
      "Ð¾Ð±Ð¾Ð´Ñĥ": 2180,
      "ĠÑģÐ²Ð¾Ð±Ð¾Ð´Ñĥ": 2181,
      "ÑĳÑĢÐºÐ°": 2182,
      "ÑĤÐ¾Ðº": 2183,
      "ÐµÐ½Ð½Ð¾Ð³Ð¾": 2184,
      "ĠÐļÐ°": 2185,
      "ĠÐ¿Ð¾ÑĤÐµÑĢÑı": 2186,
      "ĠÐŁÑĥ": 2187,
      "Ð±ÑĢÐ¾": 2188,
      "Ð±ÑĢÐ¾ÑĪ": 2189,
      "ĠÐĳÐ»Ð¸Ð·": 2190,
      "ĠÐĳÐ»Ð¸Ð·Ð½Ðµ": 2191,
      "ĠÐļÐ¾Ð·ÐµÑĢ": 2192,
      "ĠÐļÐ¾Ð·ÐµÑĢÐ¾Ð³": 2193,
      "Ð½Ð¸ÐºÐ¸": 2194,
      "ĠÐ¿ÐµÑĢ": 2195,
      "ÑĥÑĩ": 2196,
      "ÑįÐ½ÑĮ": 2197,
      "ĠÐ¨ÑįÐ½ÑĮ": 2198,
      "ĠÐ¨ÑįÐ½ÑĮÑģÐ¸": 2199,
      "ĠÐºÑĢÐ°Ñģ": 2200,
      "ĠÐ®Ð¿Ð¸": 2201,
      "ÐµÐ¿": 2202,
      "ÐµÐ³Ð¸": 2203,
      "ĠÐĴÐµÐ³Ð¸": 2204,
      "Ð°Ð½Ñģ": 2205,
      "ĠÐ²ÑĭÑģÐ¾Ðº": 2206,
      "ĠÑĤÑĳ": 2207,
      "ĠÐłÑĭ": 2208,
      "ĠÐ±Ð°Ð±Ñĥ": 2209,
      "ĠÐ¡ÐºÐ¾ÑĢÐ¿Ð¸Ð¾Ð½Ð°": 2210,
      "ĠÑģÐ¾Ð²ÐµÑĤÑĥÐµÑĤ": 2211,
      "Ð¾ÑĤÐ¸": 2212,
      "ÐºÐ°Ð½Ðµ": 2213,
      "ÑĥÐ°ÐºÐ°Ð½Ðµ": 2214,
      "ĠÐ¢ÐµÐ¾ÑĤÐ¸": 2215,
      "ĠÐ¢ÐµÐ¾ÑĤÐ¸ÑĥÐ°ÐºÐ°Ð½Ðµ": 2216,
      "ĠÐĴÐ¾Ð´Ð¾Ð»": 2217,
      "ĠÐ¯": 2218,
      "ĠÐ»Ð°Ð´Ð¾Ð½Ð¸": 2219,
      "ĠÑħÑĢÑĥ": 2220,
      "Ð±ÑĢÐ°": 2221,
      "ĠÐ¿Ð¾Ð´Ð²": 2222,
      "Ð¾Ð½Ð°Ð³Ñĥ": 2223,
      "ĠÐĻÐ¾Ð½Ð°Ð³Ñĥ": 2224,
      "ĠÐĻÐ¾Ð½Ð°Ð³ÑĥÐ½Ð¸": 2225,
      "ÑĥÐºÑĥ": 2226,
      "Ð»ÑĮÐºÐ°Ð½Ð°": 2227,
      "ĠÐļÑĥÐºÑĥ": 2228,
      "ĠÐļÑĥÐºÑĥÐ»ÑĮÐºÐ°Ð½Ð°": 2229,
      "ĠÐ¼Ð°ÑĤÐµÑĢÐ¸": 2230,
      "ÑĥÑĢÐµ": 2231,
      "ÑİÐ±": 2232,
      "ĠÐĶÐ°ÑĪ": 2233,
      "ĠÐĶÐ°ÑĪÑĥÑĢÐµ": 2234,
      "ĠÐ½Ð¾Ð²": 2235,
      "ĠÐĵÐ¸Ð·Ñĭ": 2236,
      "Ð²ÐµÐ·": 2237,
      "ĠÐ³Ð¾Ð»ÑĥÐ±": 2238,
      "Ð¾Ð¶Ð¸Ð»Ñĭ": 2239,
      "ÐµÐ¾Ð¿": 2240,
      "ĠÐ¥ÐµÐ¾Ð¿": 2241,
      "ĠÐ¥ÐµÐ¾Ð¿ÑģÐ°": 2242,
      "ÑĢÐµÐ½Ð°": 2243,
      "ĠÐ¥ÐµÑĦ": 2244,
      "ĠÐ¥ÐµÑĦÑĢÐµÐ½Ð°": 2245,
      "ÐµÐ·Ð»Ð¾Ð²": 2246,
      "ĠÐĸÐµÐ·Ð»Ð¾Ð²": 2247,
      "ĠÐ·Ð²ÑĳÐ·Ð´Ð½Ð¾Ð³Ð¾": 2248,
      "ĠÐ·Ð°Ð±ÑĢÐ¾ÑĪ": 2249,
      "Ð¶Ð¾Ñģ": 2250,
      "ĠÐĶÐ¶Ð¾Ñģ": 2251,
      "ĠÐĶÐ¶Ð¾ÑģÐµÑĢÐ°": 2252,
      "ĠÐļÑĥÐ±": 2253,
      "ĠÐļÑĥÐ±ÐºÐ¾Ð²": 2254,
      "Ð¾Ð´Ðµ": 2255,
      "ĠÐļÐ°Ðº": 2256,
      "ĠÐ·Ð°ÑĤÐµÑĢÑı": 2257,
      "ĠÐĿÐ°ÑģÐºÐ°": 2258,
      "ÑĨÐ°Ð¼Ð¸": 2259,
      "ÑģÑĤÐ°Ð»ÑĮ": 2260,
      "ĠÐ½Ð°Ð±Ð»ÑİÐ´Ð°Ð»Ð¸ÑģÑĮ": 2261,
      "ÑĢÐµÐ¼Ð¸": 2262,
      "ĠÑģÑĤÑĢÐµÐ¼Ð¸": 2263,
      "ĠÐĲÐ»ÑĮ": 2264,
      "Ð´Ð¸": 2265,
      "ĠÐ½Ð°Ð±Ð»ÑİÐ´Ð°Ð»Ð°ÑģÑĮ": 2266,
      "ÐµÑĩÐµ": 2267,
      "Ð½Ð¸ÑĨÐ°": 2268,
      "ĠÐľÐµÑĩÐµ": 2269,
      "ĠÐľÐµÑĩÐµÐ¹": 2270,
      "Ð¾Ñĥ": 2271,
      "ÑĩÐµÑģÐº": 2272,
      "ÑĪÐºÐ°": 2273,
      "ÐºÑĥÑİ": 2274,
      "ÐµÐ½ÑĤÐ°Ðº": 2275,
      "ĠÐŁÐµÐ½ÑĤÐ°Ðº": 2276,
      "ĠÐŁÐµÐ½ÑĤÐ°ÐºÐ»ÐµÐ¹": 2277,
      "ĠÐ¿ÑĤÐ¸": 2278,
      "Ð½ÐµÐ¼": 2279,
      "ĠÐ¤Ðµ": 2280,
      "ĠÐ£ÑģÑĤÐ¸": 2281,
      "Ð¸Ð»Ð°": 2282,
      "ĠÑģÐºÐ»Ð¾": 2283,
      "ÑĥÑħÐ¾Ð²": 2284,
      "ĠÐ´ÑĥÑħÐ¾Ð²": 2285,
      "Ð²Ð°Ð·": 2286,
      "ĠÐĲÑĢ": 2287,
      "ĠÐ±Ð°Ð±ÑĥÑĪÐºÐ¸": 2288,
      "ÑĥÑĤ": 2289,
      "ÑģÑĤÐ²": 2290,
      "ÑĤÐ°ÑĢÐ¸Ð¸": 2291,
      "ĠÐ½Ð°Ð²Ð¸Ð³Ð°": 2292,
      "Ð°ÑĢÑĤÐ°ÑĢÐ¸Ð¸": 2293,
      "ĠÐ¢Ð°ÑĢÑĤÐ°ÑĢÐ¸Ð¸": 2294,
      "ÑģÐºÐ¾Ð³Ð¾": 2295,
      "ÑģÐºÐ¸Ð¼": 2296,
      "Ð½ÑĮÐ¸": 2297,
      "ÑĩÐ¸Ð²Ð¾": 2298,
      "ĠÑĥÐµÐ´": 2299,
      "ÑĥÑİ": 2300,
      "ĠÐ²Ð¿": 2301,
      "ĠÐ²Ð¿Ðµ": 2302,
      "ĠÐ´Ð¾Ð¿": 2303,
      "Ð¾Ð¿Ð½Ð¾Ð¹": 2304,
      "Ð¾ÑĤÐ¾Ð¿Ð½Ð¾Ð¹": 2305,
      "ĠÐ´Ð¾Ð¿Ð¾ÑĤÐ¾Ð¿Ð½Ð¾Ð¹": 2306,
      "ĠÐ·Ð²ÐµÐ·Ð´Ñĭ": 2307,
      "ĠÐ¸ÑģÐ¿Ñĭ": 2308,
      "ĠÐ¸ÑģÐ¿ÑĭÑĤÐ°": 2309,
      "ĠÐľÑĥ": 2310,
      "ÐµÑĢÑĮÑı": 2311,
      "ĠÐ¢ÐµÐ»ÑĮÑĨÐ°": 2312,
      "ĠÐ»ÐµÐ¼Ñĥ": 2313,
      "ĠÐ»ÐµÐ¼ÑĥÑĢÐ¸Ð¹": 2314,
      "Ð»Ð¸ÑĤÐ¾Ð²": 2315,
      "ÑĢÐ¾Ð¸": 2316,
      "ĠÐ¼ÐµÐ³Ð°": 2317,
      "ĠÑģÑĤÑĢÐ¾Ð¸": 2318,
      "ĠÐ¼ÐµÐ³Ð°Ð»Ð¸ÑĤÐ¾Ð²": 2319,
      "Ð²ÐµÑĢÑĤÑĮ": 2320,
      "ĠÑĩÐµÑĤÐ²ÐµÑĢÑĤÑĮ": 2321,
      "ĠÐ¡ÑĤÐ°": 2322,
      "Ð¿ÐµÑĢ": 2323,
      "Ð±Ð¾ÑĢÐµÐ¸": 2324,
      "ĠÐĵÐ¸Ð¿ÐµÑĢ": 2325,
      "ĠÐĵÐ¸Ð¿ÐµÑĢÐ±Ð¾ÑĢÐµÐ¸": 2326,
      "ÑīÐµÐ½Ð¸Ð¸": 2327,
      "ĠÐ·Ð½Ð°ÑħÐ°ÑĢÐºÐ¸": 2328,
      "ĠÐ¡ÑĤÑĢÐ°Ð½Ð½Ð¸ÐºÐ¸": 2329,
      "ĠÐ°ÑĤÐ»Ð°Ð½": 2330,
      "ĠÐ²ÑģÑĤÑĢÐµÑĩÑĥ": 2331,
      "ÑĨÐµ": 2332,
      "ĠÐ·Ð°ÑĪÐ¸ÑĦÑĢÐ¾Ð²Ð°Ð½Ð½ÑĭÐµ": 2333,
      "Ð»Ð¸Ð½Ñı": 2334,
      "ĠÐ³Ð»Ð¸Ð½Ñı": 2335,
      "ĠÐ³Ð»Ð¸Ð½ÑıÐ½Ð¾Ð¹": 2336,
      "Ð´Ð½Ð¸Ðµ": 2337,
      "ĠÐ²Ð½Ð¾Ð²": 2338,
      "ĠÐ¿Ð¾ÑģÐ»ÐµÐ´Ð½Ð¸Ðµ": 2339,
      "ĠÑĥÑģÐ¸Ð»Ð¸Ð»ÑģÑı": 2340,
      "ĠÐ²Ð½Ð¾Ð²ÑĮ": 2341,
      "ĠÐ¿Ð»Ðµ": 2342,
      "ÑĩÐ¾": 2343,
      "ĠÐ¿Ð»ÐµÑĩÐ¾": 2344,
      "ĠÐ½Ð°Ð·ÑĭÐ²Ð°": 2345,
      "ÑĤÑĮÐµÐ³Ð¾": 2346,
      "ĠÑįÑĦ": 2347,
      "ÑĦÐµÐº": 2348,
      "ĠÑĢÐ¾Ð´Ð°": 2349,
      "ĠÐºÐ¾Ð½ÑĤÐ°Ðº": 2350,
      "ĠÑĤÑĢÐµÑĤÑĮÐµÐ³Ð¾": 2351,
      "ÐµÐ¼ÑĭÐ¼": 2352,
      "ĠÐ½Ð°Ð·ÑĭÐ²Ð°ÐµÐ¼ÑĭÐ¼": 2353,
      "ĠÑįÑĦÑĦÐµÐº": 2354,
      "ĠÐºÐ¾Ð½ÑĤÐ°ÐºÑĤÐ°": 2355,
      "ĠÑįÑĦÑĦÐµÐºÑĤÐ¾Ð¼": 2356,
      "ÑĤÐ½ÑĭÐ¼": 2357,
      "Ð´ÐµÐ¹ÑģÑĤÐ²Ð¸": 2358,
      "Ð½Ð¸ÑĤÐ½ÑĭÐ¼": 2359,
      "ĠÑįÐ»Ðµ": 2360,
      "ÑĢÐµÐ¼ÐµÐ½Ð½ÑĭÐ¼": 2361,
      "ÑĢÐ¾Ð¼Ð°Ð³": 2362,
      "ÐºÑĤÑĢÐ¾Ð¼Ð°Ð³": 2363,
      "ĠÐºÑĢÐ°ÑĤÐºÐ¾Ð²": 2364,
      "ĠÐ²Ð¾Ð·Ð´ÐµÐ¹ÑģÑĤÐ²Ð¸": 2365,
      "ĠÑįÐ»ÐµÐºÑĤÑĢÐ¾Ð¼Ð°Ð³": 2366,
      "ĠÐºÑĢÐ°ÑĤÐºÐ¾Ð²ÑĢÐµÐ¼ÐµÐ½Ð½ÑĭÐ¼": 2367,
      "ĠÐ²Ð¾Ð·Ð´ÐµÐ¹ÑģÑĤÐ²Ð¸ÐµÐ¼": 2368,
      "ĠÑįÐ»ÐµÐºÑĤÑĢÐ¾Ð¼Ð°Ð³Ð½Ð¸ÑĤÐ½ÑĭÐ¼": 2369,
      "ĠÐ¿Ð°ÑĢÑĭ": 2370,
      "ĠÐ¼Ð¸Ð½ÑĥÑĤ": 2371,
      "ĠÑĢÐ¾": 2372,
      "ĠÐĴÐµÐ½ÐµÑĢÑĭ": 2373,
      "ĠÐ¼ÐµÑĤÐ°": 2374,
      "ÑĦÐ¾ÑĢÑĥ": 2375,
      "ĠÐ¼ÐµÑĤÐ°ÑĦÐ¾ÑĢÑĥ": 2376,
      "Ð½Ð¸Ð»Ð¾ÑģÑĮ": 2377,
      "ĠÐ·Ð°Ð¿Ð¾Ð¼": 2378,
      "ĠÐ´Ð¾Ð»Ð³Ð¸Ðµ": 2379,
      "ĠÐ·Ð°Ð¿Ð¾Ð¼Ð½Ð¸Ð»Ð¾ÑģÑĮ": 2380,
      "ĠÐ¡ÑĤÑĢÐµ": 2381,
      "ĠÐĽÑĥÐ½Ñĭ": 2382,
      "Ð»Ð¾Ð³Ð¾": 2383,
      "ĠÐ¾ÑĤÐ³Ð¾Ð»": 2384,
      "Ð¾ÑģÐ¾Ðº": 2385,
      "ĠÐ½ÐµÐ´Ð°Ð²Ð½ÐµÐ³Ð¾": 2386,
      "ĠÐ¿ÑĢÐ¾ÑĪÐ»Ð¾Ð³Ð¾": 2387,
      "ĠÐ¾ÑĤÐ³Ð¾Ð»Ð¾ÑģÐ¾Ðº": 2388,
      "ĠÐ²ÑģÑĤÑĢÐµÑĩÐ°": 2389,
      "ĠÑģÐ»ÑĥÑĩÐ¸Ð»Ð°ÑģÑĮ": 2390,
      "ĠÐ½ÐµÐ¾Ð¶Ð¸Ð´Ð°Ð½Ð½Ð°Ñı": 2391,
      "ĠÐ¿Ð°ÑĢÑĥ": 2392,
      "ĠÐ´ÐµÑģÑıÑĤÐ¸Ð»ÐµÑĤÐ¸Ð¹": 2393,
      "Ð¾Ð¹ÑģÑĤÐ²Ð¸": 2394,
      "Ð¾ÐºÐ¾Ð¹ÑģÑĤÐ²Ð¸": 2395,
      "ĠÑģÐ¿Ð¾ÐºÐ¾Ð¹ÑģÑĤÐ²Ð¸": 2396,
      "ĠÐ¿Ð¾ÑıÐ²Ð¸Ð»Ð¾ÑģÑĮ": 2397,
      "ĠÑģÐ¿Ð¾ÐºÐ¾Ð¹ÑģÑĤÐ²Ð¸Ñı": 2398,
      "ÑĦÐ¾ÑĢÐ¾Ð²": 2399,
      "Ð°ÑĢÑĦÐ¾ÑĢÐ¾Ð²": 2400,
      "ĠÑĦÐ°ÑĢÑĦÐ¾ÑĢÐ¾Ð²": 2401,
      "ĠÑĦÐ°ÑĢÑĦÐ¾ÑĢÐ¾Ð²Ð¾Ð¹": 2402,
      "ĠÐ´Ð¸Ñģ": 2403,
      "Ð»ÑıÐ¼Ð¸": 2404,
      "ĠÑĦÐ¾ÑĢÐ¼Ðµ": 2405,
      "ĠÐºÐ¾ÑĢÐ°Ð±Ð»ÑıÐ¼Ð¸": 2406,
      "ĠÐ´Ð¸ÑģÐºÐ°": 2407,
      "ÑģÑĤÐ¸ÑĩÐ½Ð¾": 2408,
      "Ð¶ÐµÐ½Ð¾": 2409,
      "ĠÑĩÐ°ÑģÑĤÐ¸ÑĩÐ½Ð¾": 2410,
      "ĠÐ¾ÑĤÑĢÐ°Ð¶ÐµÐ½Ð¾": 2411,
      "ĠÐ±Ð°ÑĢÐµÐ»ÑĮ": 2412,
      "ÐµÑĦÐ°Ñħ": 2413,
      "ĠÐ¾ÑģÑĤÐ°Ð²ÑĪÐ¸ÑħÑģÑı": 2414,
      "ĠÐ±Ð°ÑĢÐµÐ»ÑĮÐµÑĦÐ°Ñħ": 2415,
      "ĠÐ¿ÑĢÐµÐ´ÑĪÐµÑģÑĤ": 2416,
      "Ð²Ð¾Ð²Ð°Ð»Ð¾": 2417,
      "ĠÐ¿ÑĢÐµÐ´ÑĪÐµÑģÑĤÐ²Ð¾Ð²Ð°Ð»Ð¾": 2418,
      "ÐºÐ»Ð°": 2419,
      "Ð¶Ð½Ð¾ÑģÑĤÑĮ": 2420,
      "Ð±ÐµÐ¶Ð½Ð¾ÑģÑĤÑĮ": 2421,
      "ĠÐ±Ð»Ð¸Ð¶Ð°Ð¹ÑĪÐµÐ³Ð¾": 2422,
      "ĠÐ½ÐµÐ¸Ð·Ð±ÐµÐ¶Ð½Ð¾ÑģÑĤÑĮ": 2423,
      "ĠÐ±ÑĥÐ´ÑĥÑīÐµÐ³Ð¾": 2424,
      "ĠÐ¿ÑĢÐ¾ÑĢÐ¸ÑĨÐ°": 2425,
      "ĠÑģÑĤÑĢÐµÐ¼Ð¸ÑĤÐµÐ»ÑĮÐ½Ð¾": 2426,
      "ÑĥÐ»Ðµ": 2427,
      "Ð¿Ð¾Ð´": 2428,
      "ĠÐ·ÐµÐ¼": 2429,
      "ĠÐ³ÑĥÐ»Ðµ": 2430,
      "ÑĥÑīÐµÐ¼": 2431,
      "ĠÐ¸Ð´ÑĥÑīÐµÐ¼": 2432,
      "ĠÐ±ÑĥÐ´ÑĤÐ¾": 2433,
      "ĠÑģÑĤÑĢÐ°Ð½Ð½Ð¾Ð¼": 2434,
      "ĠÐ·ÐµÐ¼Ð»Ð¸": 2435,
      "Ð½Ð¸Ð¼Ð¸": 2436,
      "ĠÑģÐ¾Ð±ÑĭÑĤÐ¸ÑıÐ¼Ð¸": 2437,
      "ĠÐ½ÐµÐ´Ð°Ð²Ð½Ð¸Ð¼Ð¸": 2438,
      "Ð½Ð½Ð¾Ð¼": 2439,
      "Ð¾Ð²Ð°Ð½Ð½Ð¾Ð¼": 2440,
      "ĠÑĤÐ°Ð»Ð°Ð½": 2441,
      "ĠÐ²Ð°Ð¶Ð½Ð¾Ð¼": 2442,
      "Ð°Ð»Ð¸Ð·Ð¾Ð²Ð°Ð½Ð½Ð¾Ð¼": 2443,
      "ĠÐ½ÐµÑĢÐµÐ°Ð»Ð¸Ð·Ð¾Ð²Ð°Ð½Ð½Ð¾Ð¼": 2444,
      "ĠÑĤÐ°Ð»Ð°Ð½ÑĤÐµ": 2445,
      "ÐµÑĢÐµÐ±ÑĢÑı": 2446,
      "ÑĢÑıÑģ": 2447,
      "ĠÐ¿ÑģÐ¸": 2448,
      "ÑħÐ¾Ð»Ð¾Ð³Ð¸": 2449,
      "ĠÑĥÐ²Ð¸Ð´": 2450,
      "ÑĩÐµÑģÐºÐ¸Ð¼": 2451,
      "ĠÐ¿Ð¾ÑĤÑĢÑıÑģ": 2452,
      "ĠÐ¿ÑģÐ¸ÑħÐ¾Ð»Ð¾Ð³Ð¸": 2453,
      "ĠÑĥÐ²Ð¸Ð´ÐµÐ½Ð½Ð¾Ð³Ð¾": 2454,
      "ĠÐ¿Ð¾ÑĤÑĢÑıÑģÐµÐ½Ð¸ÐµÐ¼": 2455,
      "ĠÐ¿ÑģÐ¸ÑħÐ¾Ð»Ð¾Ð³Ð¸ÑĩÐµÑģÐºÐ¸Ð¼": 2456,
      "Ð¾Ð½Ð¸": 2457,
      "ĠÐ½ÐµÐ±Ð°": 2458,
      "Ð¾ÑĢÑĨÐ¸ÑıÑħ": 2459,
      "Ð¾Ð¿Ð¾ÑĢÑĨÐ¸ÑıÑħ": 2460,
      "ĠÐ¿ÑĢÐ¾Ð¿Ð¾ÑĢÑĨÐ¸ÑıÑħ": 2461,
      "ĠÐ·Ð°ÑĪÐ¸ÑĦÑĢÐ¾Ð²Ð°Ð½Ð½Ð¾Ð¹": 2462,
      "ĠÐ¿ÑĢÐ¾ÑģÑĮ": 2463,
      "Ð½ÑıÑĤÑĮ": 2464,
      "ĠÐ¸ÑģÐ¿Ð¾Ð»Ð½ÑıÑĤÑĮ": 2465,
      "ĠÐ¿ÑĢÐ¾ÑģÑĮÐ±Ñĭ": 2466,
      "ĠÐ½Ð°Ð¼ÐµÑĢÐµÐ½": 2467,
      "ĠÐ¿Ð¾ÑģÐ»ÐµÐ´Ñĥ": 2468,
      "ĠÐ¿Ð¾ÐºÐ¾Ð»ÐµÐ½Ð¸Ð¹": 2469,
      "ĠÑģÐµÐ¼ÑĮÐ¸": 2470,
      "ĠÐ½Ð°Ð¼ÐµÑĢÐµÐ½Ð½Ð¾": 2471,
      "ĠÐ¿Ð¾ÑģÐ»ÐµÐ´ÑĥÑİÑīÐ¸Ñħ": 2472,
      "ĠÐ¿ÐµÑĢÐµÐ»Ð¾Ð¼Ð½ÑĭÐµ": 2473,
      "ĠÐ¿ÑĢÐ¾ÑıÐ²Ð»ÑıÑİÑĤÑģÑı": 2474,
      "ĠÐ¾Ð±ÑĢÐ°Ð·Ð¾Ð¼": 2475,
      "ĠÐ½ÐµÐ¾Ð¶Ð¸Ð´Ð°Ð½Ð½ÑĭÐ¼": 2476,
      "ÑĭÐ½Ðµ": 2477,
      "ĠÐ½ÑĭÐ½Ðµ": 2478,
      "ĠÐ´ÑĢÐµÐ²Ð½ÐµÐ¹": 2479,
      "ĠÐ·Ð°Ð±ÑĭÑĤÐ¾Ð¹": 2480,
      "ĠÑģÐ¾ÑħÑĢÐ°Ð½Ð¸Ð»Ð¸ÑģÑĮ": 2481,
      "Ð»ÐµÑĨ": 2482,
      "ĠÑĤÐ°Ð¹": 2483,
      "ĠÐ¿ÑĢÐ°Ð²Ð´Ñĥ": 2484,
      "ĠÐ²ÑģÑıÐºÑĥÑİ": 2485,
      "ĠÑĥÐ³Ð°": 2486,
      "ĠÐ¼Ð½Ð¾Ð³Ð¾": 2487,
      "ÑģÐ°ÐµÑĤ": 2488,
      "ĠÐ²ÐµÐºÐ¾Ð²": 2489,
      "ĠÑĥÐ³Ð°ÑģÐ°ÐµÑĤ": 2490,
      "ÐºÐ²Ð°": 2491,
      "Ð»ÑĮÐ½Ð¾": 2492,
      "ĠÑģÐ¸Ð¼Ð²Ð¾Ð»Ð¸ÑĩÐµÑģÐºÐ¸": 2493,
      "ĠÐ±ÑĥÐºÐ²Ð°": 2494,
      "ĠÐ±ÑĥÐºÐ²Ð°Ð»ÑĮÐ½Ð¾": 2495,
      "ĠÐºÐ¾ÑĤÐ¾ÑĢÐ¾Ð¹": 2496,
      "ĠÑıÑģÐ½Ð¾ÑģÑĤÐ¸": 2497,
      "ÐĴÐ¼ÐµÑģÑĤ": 2498,
      "ÐĴÐ¼ÐµÑģÑĤÐµ": 2499,
      "Ð»ÑĮÐ½Ð¾Ð³Ð¾": 2500,
      "ĠÐ¾ÑĤÐ´Ðµ": 2501,
      "ĠÐ²Ð¾Ð»Ð¸": 2502,
      "ĠÐ¾ÑĤÐ´ÐµÐ»ÑĮÐ½Ð¾Ð³Ð¾": 2503,
      "ÑĪÑĳÐ½": 2504,
      "ĠÐ²Ð¾Ð¿ÑĢÐ¾ÑģÐµ": 2505,
      "ĠÐ²Ð½ÑĥÑĤÑĢÐµÐ½Ð½ÐµÐ¼": 2506,
      "ĠÐ½ÐµÑĢÐµÑĪÑĳÐ½": 2507,
      "ĠÐ½ÐµÑĢÐµÑĪÑĳÐ½Ð½Ð¾Ð¼": 2508,
      "ĠÑĩÐµÐ»Ð¾Ð²ÐµÑĩÐµÑģÐºÐ¾Ð¹": 2509,
      "Ð¾Ð¼Ð¸Ð¼Ð¾": 2510,
      "ĠÑįÑĤÐ¾Ð³Ð¾": 2511,
      "ÐŁÐ¾Ð¼Ð¸Ð¼Ð¾": 2512,
      "ĠÐ²ÑģÐµÐ³Ð´Ð°": 2513,
      "ĠÐ¾ÑĤÐ½Ð¾ÑĪÐµÐ½Ð¸Ðµ": 2514,
      "ĠÐ¸Ð·Ð¼ÐµÐ½Ð¸Ð»Ð¾ÑģÑĮ": 2515,
      "ĠÑģÐ±ÑĭÐ²Ð°Ð»Ð¾ÑģÑĮ": 2516,
      "Ð²Ð½Ñı": 2517,
      "ĠÐ´ÐµÑĢÐµÐ²Ð½Ñı": 2518,
      "ĠÐ´ÐµÑĢÐµÐ²Ð½ÑıÐ¼": 2519,
      "ÐµÑĢÐµÐ¶Ð°": 2520,
      "ĠÐ¾Ð¿ÐµÑĢÐµÐ¶Ð°": 2521,
      "ĠÑģÐ²Ð¾Ñĳ": 2522,
      "ĠÑĤÑĭÑģÑıÑĩÐ¸": 2523,
      "ĠÐ¾Ð¿ÐµÑĢÐµÐ¶Ð°Ð»Ð¸": 2524,
      "ÐºÐ°Ð¼": 2525,
      "ĠÐ´ÐµÑģÑıÑĤÐºÐ¾Ð²": 2526,
      "ĠÐ¿Ð¾ÑģÑĳÐ»ÐºÐ°Ð¼": 2527,
      "ĠÑĤÑĭÑģÑıÑĩ": 2528,
      "ĠÐ³Ð¾ÑĢÐ¾Ð´ÐºÐ°Ð¼": 2529,
      "Ð¾Ð¹ÑģÑĤÐ²Ð°": 2530,
      "ĠÑģÐ²Ð¾Ð¹ÑģÑĤÐ²Ð°": 2531,
      "Ð¾Ð±ÑĭÐ¼Ð¸": 2532,
      "ĠÐ¾ÑģÐ¾Ð±ÑĭÐ¼Ð¸": 2533,
      "ĠÐĴÐµÑģ": 2534,
      "ÑĩÐµÑģÐºÐ¸Ð¼Ð¸": 2535,
      "ĠÐ°ÐºÑĥÑģÑĤÐ¸ÑĩÐµÑģÐºÐ¸Ð¼Ð¸": 2536,
      "ĠÐºÐ°Ð¼ÐµÑĢ": 2537,
      "ĠÑģÐ²Ð¾Ð¹ÑģÑĤÐ²Ð°Ð¼Ð¸": 2538,
      "Ð»Ð¸Ð±Ð¾": 2539,
      "ÑĤÐ°ÑĨÐ¸": 2540,
      "ĠÐºÐ°ÐºÐ¸Ñħ": 2541,
      "ĠÐ¼ÑĭÑģÐ»ÐµÐ½Ð½Ð¾Ð¹": 2542,
      "ĠÑĤÐµÐ»ÐµÐ¿Ð¾ÑĢ": 2543,
      "ÑĤÐ°ÑĨÐ¸ÐµÐ¹": 2544,
      "ĠÑĤÐµÐ»ÐµÐ¿Ð¾ÑĢÑĤÐ°ÑĨÐ¸ÐµÐ¹": 2545,
      "ĠÑģÐ»Ð¾": 2546,
      "ĠÑģÐ¼Ñĭ": 2547,
      "ĠÐ½Ð¾Ð²ÑĭÐµ": 2548,
      "ĠÑģÐ»Ð¾Ð¸": 2549,
      "ĠÑģÐ¼ÑĭÑģÐ»Ð°": 2550,
      "ÑĢÐµÐºÐ¸": 2551,
      "ĠÐ»Ð¾Ð³Ð¸": 2552,
      "ĠÐ²Ð¾Ð¿ÑĢÐµÐºÐ¸": 2553,
      "ĠÐ²ÑģÑıÐºÐ¾Ð¹": 2554,
      "ĠÐ»Ð¾Ð³Ð¸ÐºÐµ": 2555,
      "ĠÐ¶Ðµ": 2556,
      "ĠÑģÐ»ÑĥÑĩÐ°ÑİÑĤÑģÑı": 2557,
      "Ð»Ð°Ð´ÑĭÐ²Ð°ÑİÑĤÑģÑı": 2558,
      "ĠÐ¾ÑĤÐºÐ»Ð°Ð´ÑĭÐ²Ð°ÑİÑĤÑģÑı": 2559,
      "ĠÐ¼Ð¸ÑĢÐ°Ð¼Ð¸": 2560,
      "ĠÐ±Ð°Ð»Ð°Ð½": 2561,
      "ĠÑħÑĢÑĥÐ¿ÐºÐ¸Ð¹": 2562,
      "ĠÐ±Ð°Ð»Ð°Ð½Ñģ": 2563,
      "Ð¾Ð²Ð¾Ðº": 2564,
      "ÑĳÐ½Ð½Ð¾Ð¹": 2565,
      "ÑĢÑĥÐ¶ÐµÐ½Ð¸Ð¸": 2566,
      "ĠÐºÐ°Ð¼ÐµÑĢÑĭ": 2567,
      "ĠÐ³Ð¾Ð»Ð¾Ð²Ð¾Ðº": 2568,
      "ĠÐ»ÑĳÐ³ÐºÐ¾Ð¼": 2569,
      "ĠÐ¾Ð¿ÑĢÐµÐ´ÐµÐ»ÑĳÐ½Ð½Ð¾Ð¹": 2570,
      "ĠÐ²ÑĭÑģÐ¾ÑĤÐµ": 2571,
      "ĠÐ³Ð¾Ð»Ð¾Ð²Ð¾ÐºÑĢÑĥÐ¶ÐµÐ½Ð¸Ð¸": 2572,
      "Ð¾Ð¿ÑĭÑĤ": 2573,
      "ÐĽÑİÐ±": 2574,
      "Ð¾Ð¿ÑĭÑĤÐ½Ð¾": 2575,
      "ÐĽÑİÐ±Ð¾Ð¿ÑĭÑĤÐ½Ð¾": 2576,
      "ĠÐłÑĭÐ±Ñĭ": 2577,
      "Ð¸ÑīÑĳ": 2578,
      "ĠÐ¿Ð¾ÐºÐ¾Ñı": 2579,
      "ĠÐ·Ð°ÑīÐ¸ÑīÑĳ": 2580,
      "ĠÐ³Ð»ÑĥÐ±Ð¾ÐºÐ¾Ð³Ð¾": 2581,
      "ĠÐ·Ð°ÑīÐ¸ÑīÑĳÐ½Ð½Ð¾ÑģÑĤÐ¸": 2582,
      "Ð¾Ð³Ð»Ð¸": 2583,
      "ĠÐ¼Ð¾Ð³Ð»Ð¸": 2584,
      "ĠÐ¿ÐµÑĢÐµÐ´Ð°Ð½Ñĭ": 2585,
      "ĠÐ¸Ð·Ð²Ð½Ðµ": 2586,
      "Ð²Ð½Ð¾": 2587,
      "ĠÐ½ÐµÐ¾ÑĤÐ²ÑĢÐ°": 2588,
      "ĠÐ¿Ð»Ð°Ð²Ð½Ð¾": 2589,
      "ĠÐ²Ð¸Ð±ÑĢÐ°": 2590,
      "ĠÐ»ÑĳÐ³ÐºÐ¾Ð¹": 2591,
      "ĠÐ²ÑģÑĳÐ¼": 2592,
      "ĠÐ½ÐµÐ¾ÑĤÐ²ÑĢÐ°ÑĤÐ¸Ð¼Ð¾": 2593,
      "ĠÐ²Ð¸Ð±ÑĢÐ°ÑĨÐ¸Ð¸": 2594,
      "ĠÐ¸Ð½Ð°": 2595,
      "ĠÑĤÐµÑĩÑĳÑĤ": 2596,
      "ĠÐ¾ÑīÑĥÑīÐµÐ½Ð¸Ð¸": 2597,
      "ĠÐ¸Ð½Ð°ÑĩÐµ": 2598,
      "ĠÑĢÐ°Ð·ÑĥÐ¼": 2599,
      "ĠÑħÐ¾Ð´": 2600,
      "ÑģÑĤÐµÑģÑĤ": 2601,
      "ÑĢÐ¸ÑĢÐ¾Ð²Ð°": 2602,
      "ÑĨÐµÐ½ÑĤ": 2603,
      "ĠÐµÑģÑĤÐµÑģÑĤ": 2604,
      "Ð²ÐµÐ½Ð½ÑĭÐ¹": 2605,
      "ĠÐºÐ¾Ð½ÑĨÐµÐ½ÑĤ": 2606,
      "ĠÑĢÐ°Ð·Ð²Ð¸ÑĤÐ¸Ñı": 2607,
      "Ð²ÐµÑģÑĤÐ½ÑĥÑİ": 2608,
      "ĠÐ½ÐµÐ¸Ð·Ð²ÐµÑģÑĤÐ½ÑĥÑİ": 2609,
      "ĠÑģÐ¿Ð¾ÑģÐ¾Ð±Ð½Ð¾ÑģÑĤÑĮÑİ": 2610,
      "ÑĢÐ¸ÑĢÐ¾Ð²Ð°ÑĤÑĮ": 2611,
      "ĠÐµÑģÑĤÐµÑģÑĤÐ²ÐµÐ½Ð½ÑĭÐ¹": 2612,
      "ĠÐºÐ¾Ð½ÑĨÐµÐ½ÑĤÑĢÐ¸ÑĢÐ¾Ð²Ð°ÑĤÑĮ": 2613,
      "Ð½Ð´": 2614,
      "ÐºÑĥÐ½Ð´": 2615,
      "ĠÑģÐµÐºÑĥÐ½Ð´": 2616,
      "ĠÑģÐµÐ¼ÐµÐ¹Ð½Ð¾Ð¹": 2617,
      "ĠÑģÑĤÐ°ÑĢÐ¸Ð½Ð½Ð¾Ð¹": 2618,
      "ÑģÐ¾Ð·": 2619,
      "Ð½Ð°Ð½Ð¸Ñı": 2620,
      "ÑĩÐµÐ»ÐµÑĤ": 2621,
      "ÑĩÐ¸Ð¼Ñĭ": 2622,
      "ĠÐ·Ð½Ð°ÑĩÐ¸Ð¼Ñĭ": 2623,
      "ĠÐ¿Ð¾Ð´ÑģÐ¾Ð·": 2624,
      "ĠÐ¿Ð¾ÑģÐ»Ð°Ð½Ð¸ÐµÐ¼": 2625,
      "ĠÑĤÑĭÑģÑıÑĩÐµÐ»ÐµÑĤ": 2626,
      "ĠÐ·Ð½Ð°ÑĩÐ¸Ð¼ÑĭÐ¼": 2627,
      "ĠÐ¿Ð¾Ð´ÑģÐ¾Ð·Ð½Ð°Ð½Ð¸Ñı": 2628,
      "ĠÑĤÑĭÑģÑıÑĩÐµÐ»ÐµÑĤÐ¸Ð¹": 2629,
      "Ð»Ð¾Ð²Ð°": 2630,
      "Ð¶Ð½Ð¾": 2631,
      "ĠÐ½ÐµÐ¼Ð°": 2632,
      "Ð§ÑĤÐ¾": 2633,
      "Ð»Ð¾Ð²Ð°Ð¶Ð½Ð¾": 2634,
      "ĠÐ½ÐµÐ¼Ð°Ð»Ð¾Ð²Ð°Ð¶Ð½Ð¾": 2635,
      "ĠÐ²Ð¾Ð²": 2636,
      "ĠÐ´Ð¾Ñģ": 2637,
      "ĠÐ·Ð½Ð°ÑĤÑĮ": 2638,
      "ÑĢÐµÐ¼Ñı": 2639,
      "ĠÐ±ÑĥÐ´ÑĥÑīÐµÐµ": 2640,
      "Ð»Ð¾Ð²Ð½Ð¾": 2641,
      "ĠÐ¸Ð·Ð¼ÐµÐ½Ð¸ÑĤÑĮ": 2642,
      "ĠÑģÐ±ÑĭÐ²Ð°ÑİÑĤÑģÑı": 2643,
      "ĠÐ²Ð¾Ð²ÑĢÐµÐ¼Ñı": 2644,
      "ĠÐ´Ð¾ÑģÐ»Ð¾Ð²Ð½Ð¾": 2645,
      "Ð¼ÐµÑĩÐ°ÑĤÐµÐ»ÑĮÐ½Ð¾": 2646,
      "ÐŁÑĢÐ¸Ð¼ÐµÑĩÐ°ÑĤÐµÐ»ÑĮÐ½Ð¾": 2647,
      "Ð·ÑĢÐµ": 2648,
      "ĠÐ½Ð°Ð·ÑĢÐµ": 2649,
      "Ð²ÑĪÐµÐ¼": 2650,
      "ĠÑĢÐµÑĪÐµÐ½Ð¸Ð¸": 2651,
      "ĠÐ½Ð°Ð·ÑĢÐµÐ²ÑĪÐµÐ¼": 2652,
      "ĠÐ²ÐµÐ´ÑĥÐ½": 2653,
      "ĠÑģÑĤÑĢÐ°Ð½Ð½Ð¾": 2654,
      "Ð¼ÐµÑĤ": 2655,
      "ĠÐ·Ð°Ð¼ÐµÑĤ": 2656,
      "Ð¡ÑĤÐ¾Ð¸ÑĤ": 2657,
      "ĠÐ·Ð°Ð¼ÐµÑĤÐ¸ÑĤÑĮ": 2658,
      "ÑıÑīÑĳ": 2659,
      "Ð²ÑıÑīÑĳ": 2660,
      "ĠÐ¿Ð¾ÑģÐ²ÑıÑīÑĳ": 2661,
      "ÐºÐ¾Ð¼Ñĥ": 2662,
      "ĠÐ¿ÐµÑĢÐµÐ´Ð°Ð²Ð°Ð»Ð¾ÑģÑĮ": 2663,
      "ĠÑĥÐ·ÐºÐ¾Ð¼Ñĥ": 2664,
      "ĠÐ¿Ð¾ÑģÐ²ÑıÑīÑĳÐ½Ð½ÑĭÑħ": 2665,
      "Ð¸Ð¼Ð¸": 2666,
      "ÑĢÑĭÐ²Ð°": 2667,
      "ÑĤÐ°Ð»Ð°": 2668,
      "ÑİÑīÐ¸Ð¼Ð¸": 2669,
      "ĠÑĤÐ¾ÑĩÐºÐ°Ñħ": 2670,
      "ĠÐ¾ÑĤÐºÑĢÑĭÐ²Ð°": 2671,
      "ĠÐ¿Ð¾ÑĢÑĤÐ°Ð»Ð°": 2672,
      "ÑĳÐ½Ð½ÑĭÑħ": 2673,
      "ĠÐ¿Ð»Ð°Ð½ÐµÑĤÑĭ": 2674,
      "ĠÐ¾Ð¿ÑĢÐµÐ´ÐµÐ»ÑĳÐ½Ð½ÑĭÑħ": 2675,
      "ÑİÑīÐ¸Ð¼Ð¸ÑģÑı": 2676,
      "ĠÐ¾ÑĤÐºÑĢÑĭÐ²Ð°ÑİÑīÐ¸Ð¼Ð¸ÑģÑı": 2677,
      "ĠÐ¿Ð¾ÑĢÑĤÐ°Ð»Ð°Ð¼Ð¸": 2678,
      "ĠÑĢÐ°ÑģÑģÐºÐ°Ð·ÑĭÐ²Ð°ÐµÑĤ": 2679,
      "ÑĢÐ¾Ð¼Ðµ": 2680,
      "ÐļÑĢÐ¾Ð¼Ðµ": 2681,
      "ÐµÐ¶Ð´Ñĥ": 2682,
      "ÐľÐµÐ¶Ð´Ñĥ": 2683,
      "ĠÑĨÐµÐ»Ð¸": 2684,
      "ĠÑĤÐ¸": 2685,
      "ĠÐ·Ð°Ð¼ÐµÑĩÐ°ÐµÑĤ": 2686,
      "Ð´Ð¾ÑħÐ¾Ð¼": 2687,
      "ĠÐ²Ð·Ð´Ð¾ÑħÐ¾Ð¼": 2688,
      "ĠÐ¿Ð¾Ð»Ð°Ð³Ð°ÐµÑĤ": 2689,
      "ĠÑģÑĩÐ¸ÑĤÐ°ÐµÑĤ": 2690,
      "ĠÐ´ÐµÐ»Ð¸": 2691,
      "ĠÑıÑģÐ½Ð¾Ð²Ð¸Ð´": 2692,
      "ĠÐ´ÐµÐ»Ð¸ÑĤÑģÑı": 2693,
      "ĠÑĥÐ²ÐµÑĢÑıÐµÑĤ": 2694,
      "ĠÐ¿ÑĢÐ¸Ð·Ð½Ð°ÑĳÑĤÑģÑı": 2695,
      "ĠÑģÐ²Ð¸Ð´ÐµÑĤÐµÐ»ÑĮÑģÑĤÐ²ÑĥÐµÑĤ": 2696,
      "ĠÐ¾ÑĤÐ¼ÐµÑĩÐ°ÐµÑĤ": 2697,
      "ĠÑĥÐ»ÑĭÐ±ÐºÐ¾Ð¹": 2698,
      "ĠÐ¿Ð¾Ð´Ð¼ÐµÑĩÐ°ÐµÑĤ": 2699,
      "ĠÐ·Ð½Ð°ÑĤÐ¾Ðº": 2700,
      "ÐĹ": 2701,
      "ĠÐĲÐ½Ð´": 2702,
      "ĠÐ²Ð²ÐµÑĢ": 2703,
      "ĠÐ²Ð²ÐµÑĢÑħ": 2704,
      "ĠÐ¤Ñĳ": 2705,
      "ĠÐ¡ÐµÑĢÐ°": 2706,
      "ĠÐ²ÑģÐ¿Ð¾Ð¼Ð¸Ð½Ð°ÐµÑĤ": 2707,
      "ÐºÐ¾Ð³Ð¾": 2708,
      "ĠÑĥÑĤÐ¾ÑĩÐ½ÑıÐµÑĤ": 2709,
      "ĠÑģÑĤÐ°ÑĢÐ¾Ð¶Ð¸Ð»Ñĭ": 2710,
      "ÐµÐ»Ñı": 2711,
      "ĠÐ´ÐµÐ»Ñı": 2712,
      "ĠÐ´ÐµÐ»ÑıÑĤÑģÑı": 2713,
      "ĠÐ½Ð°ÑĩÐ°": 2714,
      "ĠÐ½Ð¾Ð²Ð¾Ð³Ð¾": 2715,
      "ĠÐ¿ÑĢÐ¾Ð²Ð¸Ð´Ð¸": 2716,
      "Ð¾Ð´Ð½Ð¾Ð¹": 2717,
      "ĠÐ¿Ð¾Ð´Ð²Ð¾Ð´Ð½Ð¾Ð¹": 2718,
      "ÑĤÐ¸Ð¹": 2719,
      "ĠÐļÑĢÐ°ÑģÐ½Ð¾Ð¹": 2720,
      "Ð¼ÐµÑĩÐ°ÑİÑĤ": 2721,
      "ĠÐ±Ð»Ð°Ð³": 2722,
      "ĠÐ±Ð»Ð°Ð³Ð¾Ð¿Ð¾Ð»": 2723,
      "ĠÐĴÐµÐ»Ð¸ÐºÐ¾Ð¹": 2724,
      "ÑĢÐ°Ð»ÑĮ": 2725,
      "ĠÐ¥ÑĢÐ°Ð½Ð¸": 2726,
      "ÑĢÑĭÐ¼": 2727,
      "ĠÑģÑĤÐ°ÑĢÑĭÐ¼": 2728,
      "ĠÑįÐ¼Ð¾": 2729,
      "ĠÐĲÐ²": 2730,
      "Ð´Ð¸Ñı": 2731,
      "ÑĢÐ°ÑģÑĤÑĮ": 2732,
      "ĠÑģÑĤÑĢÐ°ÑģÑĤÑĮ": 2733,
      "ĠÑĢÐµÐ·": 2734,
      "ĠÑĥÑģÑĤÐ°": 2735,
      "Ð·ÑĮ": 2736,
      "ĠÑģÐ²ÑıÐ·ÑĮ": 2737,
      "Ð¿Ñĥ": 2738,
      "ĠÑĢÐ°Ð·ÑĥÐ¼Ð¾Ð¼": 2739,
      "ĠÐ·Ð°ÑĤÐµÑĢÑıÐ½Ð½Ð¾Ð¹": 2740,
      "ÑĢÐ¸Ð½Ð°": 2741,
      "Ð»ÑĮÐ½ÑĥÑİ": 2742,
      "ÑĤÐ¾ÑĢÑĭ": 2743,
      "ÑģÑĤÐ°Ð»ÑĮÐ½ÑĭÐµ": 2744,
      "ĠÐ±ÐµÑĢÐµ": 2745,
      "Ð¿Ð»Ñĭ": 2746,
      "ĠÐĹÐ²": 2747,
      "ĠÐ¡ÐµÑĢÐµÐ±ÑĢÑı": 2748,
      "Ð½Ð½ÑĭÐ¹": 2749,
      "ÑģÑĤÐ¾Ð¼": 2750,
      "ĠÐ¦ÐµÐ»Ð¸": 2751,
      "20": 2752,
      "Ð°Ð½Ð°": 2753,
      "Ġ208": 2754,
      "ÐµÐ²Ð°": 2755,
      "ĠÐŁÑĢÐ¾Ð²": 2756,
      "Ġ206": 2757,
      "Ġ209": 2758,
      "ĠÐ¢ÑĥÐ¼Ð°": 2759,
      "Ġ204": 2760,
      "ĠÑĤÑĥÐ¼Ð°": 2761,
      "ĠÑĤÑĥÐ¼Ð°Ð½Ð½Ð¾ÑģÑĤÐ¸": 2762,
      "ÑĢÐ°Ð½Ð°": 2763,
      "ÑĤÐ¾Ðµ": 2764,
      "ĠÐĺÐ·": 2765,
      "Ð³Ð¾ÑĢ": 2766,
      "Ġ205": 2767,
      "Ġ203": 2768,
      "ÑģÑĤÑĢÐ°": 2769,
      "ĠÐ¼ÑĥÐ´": 2770,
      "ĠÐ¿ÑĢÐ¾ÑĢÑĭ": 2771,
      "Ð¾Ð»Ð¾Ð³Ð¸ÑĩÐµÑģÐº": 2772,
      "ĠÑĤÐµÑħÐ½Ð¾Ð»Ð¾Ð³Ð¸ÑĩÐµÑģÐº": 2773,
      "ĠÐ¿ÑĢÐ¾ÑĢÑĭÐ²Ðµ": 2774,
      "ĠÑĤÐµÑħÐ½Ð¾Ð»Ð¾Ð³Ð¸ÑĩÐµÑģÐºÐ¾Ð¼": 2775,
      "ĠÐļÐ»Ñİ": 2776,
      "Ġ207": 2777,
      "Ð¸Ð³": 2778,
      "Ð²Ð¾Ð·": 2779,
      "ÑĭÑĩÐ½ÑĭÑħ": 2780,
      "Ð¼Ð¾Ð¶": 2781,
      "ĠÐ·Ð¸Ð³": 2782,
      "ĠÐ½ÐµÐ²Ð¾Ð·": 2783,
      "ĠÐ¾Ð±ÑĭÑĩÐ½ÑĭÑħ": 2784,
      "Ð·Ð°Ð³Ð°Ð¼Ð¸": 2785,
      "ÑĤÐµÐ»ÑĮÐ½ÑĭÑħ": 2786,
      "ĠÐ»ÐµÑĤÐ°ÑĤÐµÐ»ÑĮÐ½ÑĭÑħ": 2787,
      "Ð¼Ð¾Ð¶Ð½ÑĭÐ¼Ð¸": 2788,
      "ĠÐ·Ð¸Ð³Ð·Ð°Ð³Ð°Ð¼Ð¸": 2789,
      "ĠÐ½ÐµÐ²Ð¾Ð·Ð¼Ð¾Ð¶Ð½ÑĭÐ¼Ð¸": 2790,
      "ĠÐŁÐ°Ð´ÑĮ": 2791,
      "ÐºÑĤÑĥ": 2792,
      "Ð½Ð¸ÑıÐ¼Ð¸": 2793,
      "ĠÐ²Ð¾ÐµÐ½Ð½Ð¾Ð¹": 2794,
      "ĠÑĤÐµÑħÐ½Ð¸ÐºÐ¸": 2795,
      "ĠÐ¸ÑģÐ¿ÑĭÑĤÐ°Ð½Ð¸ÑıÐ¼Ð¸": 2796,
      "ÑģÐ¾Ð»": 2797,
      "Ð±ÑģÐ¾Ð»": 2798,
      "ÑĪÑĥÐ¼": 2799,
      "ÑİÑĤÐ½Ð¾": 2800,
      "ĠÐ°Ð±ÑģÐ¾Ð»": 2801,
      "ĠÐ±ÐµÑģÑĪÑĥÐ¼": 2802,
      "ĠÐ°Ð±ÑģÐ¾Ð»ÑİÑĤÐ½Ð¾": 2803,
      "ĠÐ±ÐµÑģÑĪÑĥÐ¼Ð½Ð¾": 2804,
      "ÑĩÐ°ÑĤ": 2805,
      "Ð²Ð¾ÑĤ": 2806,
      "ĠÐ²Ð¾ÑĤ": 2807,
      "ĠÐ¸ÑģÐ¿Ð¾Ð»Ð½Ð¸ÑĤÑģÑı": 2808,
      "ĠÐ·Ð°Ð±ÑĭÑĤÐ¾Ð³Ð¾": 2809,
      "ĠÐ»ÐµÑģ": 2810,
      "ĠÐ¡Ð¾ÑĢÐ¾": 2811,
      "Ð¡ÑĥÐ´": 2812,
      "Ð¾Ð²Ð°ÑĤÑĮÑģÑı": 2813,
      "ĠÑģÐ¾Ð²ÐµÑĤÐ¾Ð²Ð°ÑĤÑĮÑģÑı": 2814,
      "ĠÐ±Ð»Ð¸Ð·ÐºÐ¸Ð¼Ð¸": 2815,
      "ĠÐ¾ÑĢÐ°Ð½": 2816,
      "Ð¶ÐµÐ²Ð¾Ð³Ð¾": 2817,
      "ĠÐ¾ÑĢÐ°Ð½Ð¶ÐµÐ²Ð¾Ð³Ð¾": 2818,
      "ĠÐ¼Ð°Ð»": 2819,
      "ÐµÐ½ÑĮÐºÐ¸Ð¹": 2820,
      "ĠÐ½Ð°ÑħÐ¾Ð´ÐºÑĥ": 2821,
      "ĠÑĤÐ°Ð»Ð¸ÑģÐ¼Ð°Ð½": 2822,
      "ĠÑģÐ¾ÑħÑĢÐ°Ð½Ð¸ÑĤÑĮ": 2823,
      "ĠÐ¼Ð°Ð»ÐµÐ½ÑĮÐºÐ¸Ð¹": 2824,
      "ĠÐ¼Ð½Ð¾Ð³Ð¸Ðµ": 2825,
      "ĠÐ¸Ð·ÑĥÐ¼ÑĢÑĥÐ´Ð½Ð¾Ð³Ð¾": 2826,
      "ĠÑĦÐ¸Ð½Ð°Ð½ÑģÐ¾Ð²ÑĭÑħ": 2827,
      "Ð½ÐµÐ½Ð¸Ðµ": 2828,
      "ÑģÑĤÐ²Ðµ": 2829,
      "ĠÑĥÑģÑĤÑĢÐ¾Ð¹": 2830,
      "ĠÐ¼Ð¸ÑĢÐ°": 2831,
      "ĠÐ¸ÑģÐ¿Ð¾Ð»Ð½ÐµÐ½Ð¸Ðµ": 2832,
      "ĠÐ´Ð°Ð²Ð½ÐµÐ³Ð¾": 2833,
      "ĠÐ¿ÑĢÐ¸Ð²ÑĭÑĩÐ½Ð¾Ð³Ð¾": 2834,
      "ĠÐ±Ð¾Ð»ÑĮÑĪÐ¸Ñħ": 2835,
      "ĠÑĥÑģÑĤÑĢÐ¾Ð¹ÑģÑĤÐ²Ðµ": 2836,
      "ĠÐ·Ð°ÑģÑĤÐ¾": 2837,
      "ĠÐ²Ð¾Ð¿ÑĢÐ¾ÑģÐ°": 2838,
      "ĠÐ·Ð°ÑĤÑıÐ½ÑĥÐ²ÑĪÐµÐ³Ð¾ÑģÑı": 2839,
      "ÑĥÑĩÐ½ÑĭÐ¹": 2840,
      "ĠÐ±Ð»Ð°Ð³Ð¾Ð¿Ð¾Ð»ÑĥÑĩÐ½ÑĭÐ¹": 2841,
      "ĠÐ·Ð°ÑģÑĤÐ¾Ðµ": 2842,
      "ÑĤÐ°ÑĤÐµÐ»ÑĮ": 2843,
      "ĠÐ¼ÐµÑĩ": 2844,
      "ĠÑģÐºÐ»Ð¾Ð½Ð½Ð¾ÑģÑĤÐ¸": 2845,
      "ÑĤÐ°ÑĤÐµÐ»ÑĮÐ½Ð¾ÑģÑĤÐ¸": 2846,
      "ĠÐ¼ÐµÑĩÑĤÐ°ÑĤÐµÐ»ÑĮÐ½Ð¾ÑģÑĤÐ¸": 2847,
      "ĠÑĥÑģÑĤÐ½Ð¾": 2848,
      "ĠÐ¿Ð¾ÐºÐ¾Ð»ÐµÐ½Ð¸Ñı": 2849,
      "Ð»ÐµÑı": 2850,
      "ÑĢÐ¾ÑĤÐ¸Ð²": 2851,
      "ÑĩÐ¸Ð¹": 2852,
      "ĠÑģÐ¾Ð¿ÑĢÐ¾ÑĤÐ¸Ð²": 2853,
      "ĠÐ¿ÐµÑĢÐµÐ¼ÐµÐ½Ð°Ð¼": 2854,
      "ĠÑģÐ¾Ð¿ÑĢÐ¾ÑĤÐ¸Ð²Ð»ÐµÐ½Ð¸Ðµ": 2855,
      "Ð²Ð»ÐµÐ½Ð¸ÐµÐ¼": 2856,
      "Ð¼Ð¾Ñģ": 2857,
      "ÑĦÐµÑĢ": 2858,
      "ĠÑıÐ²Ð»ÐµÐ½Ð¸ÐµÐ¼": 2859,
      "ĠÐ°ÑĤÐ¼Ð¾Ñģ": 2860,
      "ĠÑĢÐµÐ´ÐºÐ¸Ð¼": 2861,
      "ÑĦÐµÑĢÐ½ÑĭÐ¼": 2862,
      "ĠÐ°ÑĤÐ¼Ð¾ÑģÑĦÐµÑĢÐ½ÑĭÐ¼": 2863,
      "Ð²Ð»Ð¸": 2864,
      "Ð½Ð°Ð²Ð»Ð¸": 2865,
      "ĠÑĤÑĢÑĥÐ´Ð½Ð¾ÑģÑĤÐµÐ¹": 2866,
      "ĠÑĩÑĳÑĤÐºÐ¸Ð¹": 2867,
      "ĠÐ²Ð¾ÑģÑģÑĤÐ°Ð½Ð°Ð²Ð»Ð¸": 2868,
      "ĠÐ²Ð¾ÑģÑģÑĤÐ°Ð½Ð°Ð²Ð»Ð¸Ð²Ð°ÑĤÑĮÑģÑı": 2869,
      "Ð¾ÑīÐ¸": 2870,
      "ÑĥÐºÐ°": 2871,
      "ĠÐ¿Ð¾Ð¼": 2872,
      "ÑĨÐµÐ»": 2873,
      "ĠÑģÐ²ÐµÑĤÐ°": 2874,
      "ĠÐ¸ÑģÑĨÐµÐ»": 2875,
      "ĠÐ·Ð²ÑĥÐºÐ°": 2876,
      "ĠÐ¿Ð¾Ð¼Ð¾ÑīÐ¸": 2877,
      "ĠÐ¸ÑģÑĨÐµÐ»ÐµÐ½Ð¸Ð¸": 2878,
      "ĠÐ¿Ð¾Ð±": 2879,
      "ĠÑģÑĥÐ´ÑĮÐ±Ñĥ": 2880,
      "Ð¾Ð´Ð°ÑĢÐ¸ÑĤÑĮ": 2881,
      "Ð»Ð°Ð³Ð¾Ð´Ð°ÑĢÐ¸ÑĤÑĮ": 2882,
      "ĠÐ¿Ð¾Ð±Ð»Ð°Ð³Ð¾Ð´Ð°ÑĢÐ¸ÑĤÑĮ": 2883,
      "ÐµÑĤÐ¸Ðµ": 2884,
      "Ð¾Ð»ÐµÑĤÐ¸Ðµ": 2885,
      "Ð¿ÐºÐ¾": 2886,
      "ĠÐ·Ð½Ð°Ð½Ð¸Ð¹": 2887,
      "ĠÐ´Ð¾Ð»Ð³Ð¾Ð»ÐµÑĤÐ¸Ðµ": 2888,
      "ĠÐ·Ð´Ð¾ÑĢÐ¾Ð²ÑĮÐµ": 2889,
      "ĠÐ·Ð°Ð±ÑĭÑĤÑĭÑħ": 2890,
      "ĠÐºÑĢÐµÐ¿ÐºÐ¾": 2891,
      "ĠÐºÑĢÐµÐ¿ÐºÐ¾Ðµ": 2892,
      "ÑĤÐ°Ð²ÑĢÐ°": 2893,
      "ÐµÐ½ÑĤÐ°Ð²ÑĢÐ°": 2894,
      "ĠÐ¦ÐµÐ½ÑĤÐ°Ð²ÑĢÐ°": 2895,
      "ĠÑĤÑĢÐµÐ²": 2896,
      "ĠÑĤÑĢÐµÐ²Ð¾Ð¶": 2897,
      "ĠÑģÑĢÐ°": 2898,
      "Ð±Ð¾Ð»ÑĮ": 2899,
      "ÑĢÐ¸ÑģÐ°": 2900,
      "ÑĤÐµÐ¼": 2901,
      "ÑĪÐ¾Ð¹": 2902,
      "ĠÐ½ÐµÐ±Ð¾Ð»ÑĮ": 2903,
      "ĠÐ·Ð°ÑĤÐµÐ¼": 2904,
      "ÑĢÑĭÐ²": 2905,
      "ÑģÑĤÐ°ÐµÑĤÑģÑı": 2906,
      "ĠÑĢÐ°Ð·ÑĢÑĭÐ²": 2907,
      "ĠÑģÑĢÐ°ÑģÑĤÐ°ÐµÑĤÑģÑı": 2908,
      "ĠÐ½ÐµÐ±Ð¾Ð»ÑĮÑĪÐ¾Ð¹": 2909,
      "ĠÐķÑĦÐ¸": 2910,
      "ĠÐ¸Ð·ÑĥÐ¼ÑĢÑĥÐ´Ð½ÑĭÐ¹": 2911,
      "ĠÐľÐ°": 2912,
      "ĠÑģÐ²Ð°": 2913,
      "Ð¾ÑĢÐ¾Ð¹": 2914,
      "ĠÑģÐºÐ¾ÑĢÐ¾Ð¹": 2915,
      "ĠÑģÐ¾ÑģÐµÐ´ÐµÐ¹": 2916,
      "ĠÑģÐµÐ¼ÑĮÐµ": 2917,
      "Ð´ÑĮÐ±Ñĭ": 2918,
      "ĠÑģÐ²Ð°Ð´ÑĮÐ±Ñĭ": 2919,
      "Ð½Ð¾Ð²ÐºÐ°Ð¼Ð¸": 2920,
      "Ð´ÑĥÑħÐµ": 2921,
      "ĠÐ²Ð°Ð¶Ð½Ð¾Ð³Ð¾": 2922,
      "ĠÐ²Ð¾Ð·Ð´ÑĥÑħÐµ": 2923,
      "ĠÐ¾ÑģÑĤÐ°Ð½Ð¾Ð²ÐºÐ°Ð¼Ð¸": 2924,
      "ĠÐ¸ÑģÑħÐ¾Ð´Ðµ": 2925,
      "ĠÑĢÐµÐ·ÐºÐ¸Ð¼Ð¸": 2926,
      "ÑģÑĤÐ¾Ð³Ð¾": 2927,
      "ÑĢÑĭÐ±Ð°": 2928,
      "ĠÑģÐµÑĢÐµÐ±ÑĢÐ¸ÑģÑĤÐ¾Ð³Ð¾": 2929,
      "ÑıÑģÑĮ": 2930,
      "Ð¶Ð¸ÑĤÑĮ": 2931,
      "Ð²Ð°ÑıÑģÑĮ": 2932,
      "ĠÐ¾Ð±Ð¾ÑĢÐ°": 2933,
      "Ð½ÑĥÑĤÑĮÑģÑı": 2934,
      "ÑĩÐ¸Ð²Ð°ÑıÑģÑĮ": 2935,
      "ĠÐ¿ÑĢÐ¾Ð´Ð¾Ð»Ð¶Ð¸ÑĤÑĮ": 2936,
      "ĠÐ¿ÑĥÑĤÑĮ": 2937,
      "ĠÑĥÐ»ÑĭÐ±Ð½ÑĥÑĤÑĮÑģÑı": 2938,
      "ĠÐ¾Ð±Ð¾ÑĢÐ°ÑĩÐ¸Ð²Ð°ÑıÑģÑĮ": 2939,
      "ÑģÐµÐ¼": 2940,
      "Ð¾Ð²Ð°ÑĤÐ¾Ð³Ð¾": 2941,
      "ĠÐĴÑģÐµÐ¼": 2942,
      "ĠÐ³Ð¾Ð»ÑĥÐ±Ð¾Ð²Ð°ÑĤÐ¾Ð³Ð¾": 2943,
      "Ð´Ð°Ð¼Ð¸": 2944,
      "ĠÐ¼ÐµÑĤÐµ": 2945,
      "Ð¾Ð·Ð¾Ð½": 2946,
      "ĠÐ¼ÐµÑĤÐµÐ¾Ð·Ð¾Ð½": 2947,
      "ĠÐ¼ÐµÑĤÐµÐ¾Ð·Ð¾Ð½Ð´Ð°Ð¼Ð¸": 2948,
      "ÑıÑģÑĤÑĮ": 2949,
      "ĠÐ·Ð°Ð¿ÑıÑģÑĤÑĮ": 2950,
      "ĠÐ·Ð°Ð¿ÑıÑģÑĤÑĮÑı": 2951,
      "ÐµÐ¹Ð½ÑĭÑħ": 2952,
      "ĠÐ¿ÑĢÐµÐ´ÑģÐºÐ°Ð·Ð°ÑĤÐµÐ»ÑĮÐ½Ð¸": 2953,
      "ĠÑģÐµÐ¼ÐµÐ¹Ð½ÑĭÑħ": 2954,
      "ĠÐ¿ÑĢÐµÐ´ÑģÐºÐ°Ð·Ð°ÑĤÐµÐ»ÑĮÐ½Ð¸ÑĨ": 2955,
      "Ð½ÑĨÐµÐ¼": 2956,
      "Ð·Ð¸Ð½ÑĨÐµÐ¼": 2957,
      "ĠÐ¼Ð¸Ð·Ð¸Ð½ÑĨÐµÐ¼": 2958,
      "ĠÐľÐµÑĢÐºÑĥÑĢÐ¸Ñı": 2959,
      "ÑĥÐµÐ¼": 2960,
      "ÑĮÐ¼Ð¸": 2961,
      "Ð·ÑĥÐµÐ¼": 2962,
      "Ð¾Ð²Ð½Ð¾": 2963,
      "ĠÐ¿ÑĢÐµÐ´ÑģÐºÐ°": 2964,
      "ĠÐ»ÑİÐ´ÑĮÐ¼Ð¸": 2965,
      "ĠÑĢÐ¾Ð²Ð½Ð¾": 2966,
      "ĠÐ²ÑģÑĤÑĢÐµÑĩ": 2967,
      "ĠÐ½Ð¾Ð²ÑĭÐ¼Ð¸": 2968,
      "Ð·ÑĥÐµÐ¼Ð¾": 2969,
      "ĠÐ¿ÑĢÐµÐ´ÑģÐºÐ°Ð·ÑĥÐµÐ¼Ð¾": 2970,
      "ÑĩÐ½Ð¾Ð¹": 2971,
      "ÑĢÑĭÑħ": 2972,
      "ĠÐ»Ð¸ÑĩÐ½Ð¾Ð¹": 2973,
      "ĠÑģÐºÐ¾ÑĢÑĭÑħ": 2974,
      "ÑĢÑģÑĤ": 2975,
      "ĠÑģÐ½Ð¾Ð¼": 2976,
      "Ð»Ð¸ÑĤÑĮ": 2977,
      "Ð¾Ð´ÑĢÑģÑĤ": 2978,
      "ĠÑĥÐ´Ðµ": 2979,
      "ĠÐ±Ð¾Ð´ÑĢÑģÑĤ": 2980,
      "ĠÐ±Ð»Ð¸ÐºÐ°Ð¼Ð¸": 2981,
      "ĠÑģÐ¿ÑĥÑĤ": 2982,
      "ĠÑģÐ²Ð¾Ð¸Ð¼": 2983,
      "Ð²Ð¾Ð²Ð°Ð½Ð¸ÐµÐ¼": 2984,
      "ĠÐ¶ÐµÐ»Ð°Ð½Ð¸ÑıÐ¼": 2985,
      "ĠÑģÐ¾ÑģÑĤÐ¾ÑıÐ½Ð¸Ñı": 2986,
      "ĠÑĥÐ´ÐµÐ»Ð¸ÑĤÑĮ": 2987,
      "ĠÐ±Ð¾Ð´ÑĢÑģÑĤÐ²Ð¾Ð²Ð°Ð½Ð¸ÐµÐ¼": 2988,
      "ĠÑģÐ¿ÑĥÑĤÐ½Ð¸ÐºÐ¾Ð²": 2989,
      "Ð¹Ð½ÑĥÑİ": 2990,
      "ĠÑĥÐ»Ð¸ÑĨ": 2991,
      "ĠÑģÐ»ÑĥÑĩÐ°Ð¹Ð½ÑĥÑİ": 2992,
      "ĠÑĥÐ»Ð¸ÑĨÐµ": 2993,
      "ĠÑĢÐµÐ´ÐºÐ¸Ð¹": 2994,
      "ÑĢÑĥÑİ": 2995,
      "ĠÑĥÐ´Ð°ÑĩÑĥ": 2996,
      "ĠÑģÐºÐ¾ÑĢÑĥÑİ": 2997,
      "ĠÐĽÑĥÐº": 2998,
      "ÑĤÑĢÐµ": 2999
    },
    "merges": [
      [
        "Ġ",
        "Ð"
      ],
      [
        "Ð",
        "¾"
      ],
      [
        "Ð",
        "µ"
      ],
      [
        "Ð",
        "°"
      ],
      [
        "Ð",
        "¸"
      ],
      [
        "Ñ",
        "Ĥ"
      ],
      [
        "Ð",
        "½"
      ],
      [
        "Ñ",
        "ģ"
      ],
      [
        "Ð¾",
        "Ð"
      ],
      [
        "Ñ",
        "Ģ"
      ],
      [
        "Ð",
        "»"
      ],
      [
        "Ñ",
        "ı"
      ],
      [
        "Ñ",
        "ĥ"
      ],
      [
        "Ð",
        "º"
      ],
      [
        "ĠÐ",
        "¿"
      ],
      [
        "Ð",
        "´"
      ],
      [
        "Ð",
        "²"
      ],
      [
        "Ñ",
        "ĭ"
      ],
      [
        "Ñ",
        "ĩ"
      ],
      [
        "Ð½",
        "Ð¸"
      ],
      [
        "Ġ",
        "Ñģ"
      ],
      [
        "Ð",
        "¼"
      ],
      [
        "Ñ",
        "Į"
      ],
      [
        "ĠÐ",
        "²"
      ],
      [
        "Ð",
        "·"
      ],
      [
        "ĠÐ",
        "¾"
      ],
      [
        "Ñ",
        "ħ"
      ],
      [
        "Ñģ",
        "ÑĤ"
      ],
      [
        "ĠÐ",
        "½"
      ],
      [
        "ÑĢ",
        "Ðµ"
      ],
      [
        "ÑĢ",
        "Ð°"
      ],
      [
        "ÑĤ",
        "Ð¾"
      ],
      [
        "Ð¾Ð",
        "²"
      ],
      [
        "Ñ",
        "İ"
      ],
      [
        "Ðµ",
        "ÑĤ"
      ],
      [
        "Ġ",
        "Ñĩ"
      ],
      [
        "Ð¾Ð",
        "»"
      ],
      [
        "ĠÐ",
        "¸"
      ],
      [
        "ĠÐ",
        "º"
      ],
      [
        "Ð",
        "±"
      ],
      [
        "Ð",
        "¹"
      ],
      [
        "Ðµ",
        "Ð½Ð¸"
      ],
      [
        "ĠÐ",
        "´"
      ],
      [
        "Ð»",
        "Ð¸"
      ],
      [
        "ÑĢ",
        "Ð¸"
      ],
      [
        "Ð",
        "¶"
      ],
      [
        "Ð¾Ð",
        "¼"
      ],
      [
        "Ñģ",
        "Ñı"
      ],
      [
        "Ð½",
        "Ð°"
      ],
      [
        "Ð½",
        "Ñĭ"
      ],
      [
        "Ð¾Ð",
        "´"
      ],
      [
        "Ð",
        "¿"
      ],
      [
        "Ð",
        "³"
      ],
      [
        "ÑĤ",
        "Ð°"
      ],
      [
        "ĠÐ½",
        "Ð°"
      ],
      [
        "ÑĤ",
        "ÑĮ"
      ],
      [
        "Ñ",
        "ī"
      ],
      [
        "ÑĤ",
        "Ðµ"
      ],
      [
        "Ð´",
        "Ð°"
      ],
      [
        "Ñ",
        "Ī"
      ],
      [
        "Ð¾Ð",
        "³"
      ],
      [
        "Ð½",
        "Ð¾"
      ],
      [
        "ĠÐ¿",
        "Ð¾"
      ],
      [
        "Ðº",
        "Ð°"
      ],
      [
        "Ð»",
        "Ð°"
      ],
      [
        "Ñ",
        "Ĩ"
      ],
      [
        "ÑĢ",
        "Ð¾"
      ],
      [
        "Ð¾Ð",
        "±"
      ],
      [
        "Ġ",
        "Ñĥ"
      ],
      [
        "Ð²",
        "Ð°"
      ],
      [
        "Ñİ",
        "ÑĤ"
      ],
      [
        "Ð¾Ð",
        "¹"
      ],
      [
        "ĠÐ",
        "·"
      ],
      [
        "Ðº",
        "Ð¸"
      ],
      [
        "Ðµ",
        "Ð½"
      ],
      [
        "ĠÐ",
        "¼"
      ],
      [
        "ĠÐ½",
        "Ðµ"
      ],
      [
        "ĠÑĩ",
        "ÑĤÐ¾"
      ],
      [
        "Ñ",
        "ĳ"
      ],
      [
        "Ñ",
        "į"
      ],
      [
        "ÑĤ",
        "Ð¸"
      ],
      [
        "ĠÐ",
        "±"
      ],
      [
        "ĠÐ¾",
        "Ð±"
      ],
      [
        "Ġ",
        "Ñį"
      ],
      [
        "ĠÐ¿",
        "ÑĢÐ¸"
      ],
      [
        "ÐµÐ½Ð¸",
        "Ñı"
      ],
      [
        "Ð»",
        "Ðµ"
      ],
      [
        "Ð½",
        "Ðµ"
      ],
      [
        "Ð²",
        "Ð¸"
      ],
      [
        "Ðµ",
        "ÑģÑĤ"
      ],
      [
        "ĠÐ",
        "³"
      ],
      [
        "ĠÐ",
        "»"
      ],
      [
        "ĠÐ¸",
        "Ð·"
      ],
      [
        "ĠÐº",
        "Ð°"
      ],
      [
        "ÑĢÐµ",
        "Ð´"
      ],
      [
        "ÑĢ",
        "Ñĥ"
      ],
      [
        "Ð»",
        "ÑĮ"
      ],
      [
        "Ñ",
        "Ħ"
      ],
      [
        "Ðµ",
        "Ð¼"
      ],
      [
        "Ð¾Ð",
        "¶"
      ],
      [
        "Ðµ",
        "ÑĢ"
      ],
      [
        "Ð¼",
        "Ð¸"
      ],
      [
        "Ġ",
        "ÑĢÐ°"
      ],
      [
        "ĠÐ",
        "°"
      ],
      [
        "Ð¾Ð²",
        "Ð°"
      ],
      [
        "Ðµ",
        "ÑĢÐµ"
      ],
      [
        "Ġ",
        "ÑĤ"
      ],
      [
        "Ð¾Ð³",
        "Ð¾"
      ],
      [
        "ÐµÐ½Ð¸",
        "Ðµ"
      ],
      [
        "Ñģ",
        "Ð¸"
      ],
      [
        "Ñĭ",
        "Ð²Ð°"
      ],
      [
        "ÐµÑĤ",
        "ÑģÑı"
      ],
      [
        "Ð¸",
        "Ñģ"
      ],
      [
        "ĠÐ·",
        "Ð°"
      ],
      [
        "ĠÐ",
        "¶"
      ],
      [
        "Ð½",
        "Ð¾Ð¹"
      ],
      [
        "ĠÐ¿",
        "ÑĢÐ¾"
      ],
      [
        "Ñĩ",
        "Ð°"
      ],
      [
        "Ð½Ð¸",
        "Ñı"
      ],
      [
        "ĠÐº",
        "Ð¾"
      ],
      [
        "ĠÐ",
        "µ"
      ],
      [
        "Ð»",
        "Ð¾"
      ],
      [
        "Ð½Ñĭ",
        "Ñħ"
      ],
      [
        "Ñĩ",
        "Ðµ"
      ],
      [
        "Ð¼",
        "Ð°"
      ],
      [
        "ÑĨ",
        "Ð¸"
      ],
      [
        "ĠÐ¾",
        "ÑĤ"
      ],
      [
        "Ð¾Ð³",
        "Ð¸"
      ],
      [
        "Ð·",
        "Ð°"
      ],
      [
        "ĠÐ¿Ð¾",
        "Ñģ"
      ],
      [
        "ÑĢ",
        "Ñĭ"
      ],
      [
        "ĠÐ¿",
        "ÑĢÐµÐ´"
      ],
      [
        "ĠÑģ",
        "Ð¾"
      ],
      [
        "Ð»",
        "Ñı"
      ],
      [
        "Ñģ",
        "ÐºÐ°"
      ],
      [
        "Ð½",
        "Ñĥ"
      ],
      [
        "ĠÑį",
        "ÑĤÐ¾"
      ],
      [
        "Ð½Ñĭ",
        "Ðµ"
      ],
      [
        "Ñĩ",
        "Ð¸"
      ],
      [
        "Ð¾",
        "ÑĢ"
      ],
      [
        "ĠÐ¶",
        "Ð¸"
      ],
      [
        "Ð½Ð¸",
        "Ðµ"
      ],
      [
        "ĠÐ·",
        "Ð½Ð°"
      ],
      [
        "Ð¶",
        "Ð°"
      ],
      [
        "â",
        "Ģ"
      ],
      [
        "Ġ",
        "âĢ"
      ],
      [
        "ĠâĢ",
        "Ķ"
      ],
      [
        "Ð¸",
        "Ð¼"
      ],
      [
        "Ñģ",
        "ÑĮ"
      ],
      [
        "Ñħ",
        "Ð¾Ð´"
      ],
      [
        "Ñģ",
        "Ðº"
      ],
      [
        "ĠÐ¿",
        "Ð¾Ð´"
      ],
      [
        "Ñİ",
        "Ñī"
      ],
      [
        "ĠÑģ",
        "Ð²"
      ],
      [
        "Ð¾Ð»",
        "Ð¾Ð³Ð¸"
      ],
      [
        "Ðµ",
        "Ð»"
      ],
      [
        "Ð¾Ð",
        "¿"
      ],
      [
        "Ðµ",
        "Ð³"
      ],
      [
        "ĠÐ¿",
        "ÑĢ"
      ],
      [
        "ÑģÑĤ",
        "Ð¸"
      ],
      [
        "Ð¸",
        "ÑĤ"
      ],
      [
        "Ð»",
        "Ñĥ"
      ],
      [
        "Ġ",
        "ÑĤÐ°"
      ],
      [
        "Ð",
        "¡"
      ],
      [
        "Ð¾Ð",
        "º"
      ],
      [
        "Ð",
        "Ł"
      ],
      [
        "Ð¶",
        "Ð´"
      ],
      [
        "Ðº",
        "Ñĥ"
      ],
      [
        "Ð½",
        "Ñı"
      ],
      [
        "Ð·",
        "ÑĭÐ²Ð°"
      ],
      [
        "Ġ",
        "ÑĤÐµ"
      ],
      [
        "Ñĥ",
        "Ñī"
      ],
      [
        "Ñĥ",
        "Ð´"
      ],
      [
        "ĠÐ¿",
        "ÐµÑĢÐµ"
      ],
      [
        "Ð°",
        "ÑĢ"
      ],
      [
        "ÑĢÐ°",
        "Ðº"
      ],
      [
        "Ð¾Ð²",
        "Ðµ"
      ],
      [
        "Ð¸",
        "Ðµ"
      ],
      [
        "Ñİ",
        "Ð´"
      ],
      [
        "Ð½Ð¸",
        "Ð¼Ð°"
      ],
      [
        "Ðº",
        "Ð¾"
      ],
      [
        "ĠÐ¿Ð¾Ñģ",
        "Ð»Ðµ"
      ],
      [
        "Ġ",
        "Ñħ"
      ],
      [
        "ÑģÑĤ",
        "ÑĮ"
      ],
      [
        "Ð¶",
        "Ðµ"
      ],
      [
        "Ð¾Ð±",
        "Ñĭ"
      ],
      [
        "Ðµ",
        "Ð¹"
      ],
      [
        "Ð±",
        "Ñĭ"
      ],
      [
        "ĠÐºÐ°",
        "Ðº"
      ],
      [
        "ĠÐ",
        "Ł"
      ],
      [
        "Ñ",
        "Ĭ"
      ],
      [
        "ĠÑĩ",
        "Ð°"
      ],
      [
        "ÑĤ",
        "Ñĥ"
      ],
      [
        "Ġ",
        "ÑĢÐµ"
      ],
      [
        "ÑģÑĤ",
        "Ð°"
      ],
      [
        "Ñģ",
        "Ð»Ð¸"
      ],
      [
        "ÑĨ",
        "Ð°"
      ],
      [
        "ÐµÑĤ",
        "Ð°"
      ],
      [
        "ĠÐ¿",
        "Ð¾Ð»"
      ],
      [
        "Ñı",
        "ÑĤ"
      ],
      [
        "ĠÐ",
        "¡"
      ],
      [
        "ĠÐ¿Ð¾Ð´",
        "Ð¾Ð±"
      ],
      [
        "ÑĤÐµ",
        "Ð»ÑĮ"
      ],
      [
        "ĠÐºÐ¾",
        "ÑĤÐ¾"
      ],
      [
        "Ð¿",
        "Ð°"
      ],
      [
        "ĠÐ¾",
        "Ð´"
      ],
      [
        "ĠÐ¶Ð¸",
        "Ð·"
      ],
      [
        "Ð¾Ð",
        "·"
      ],
      [
        "ÑĤ",
        "Ð¾Ð¼"
      ],
      [
        "Â",
        "«"
      ],
      [
        "Â",
        "»"
      ],
      [
        "Ġ",
        "Â«"
      ],
      [
        "Ġ",
        "ÑĢÑĥ"
      ],
      [
        "ĠÑĢÐ°",
        "Ñģ"
      ],
      [
        "ĠÐ¾Ð±",
        "ÑĢÐ°"
      ],
      [
        "ĠÑĩ",
        "ÐµÐ»"
      ],
      [
        "ĠÑĩÐµÐ»",
        "Ð¾Ð²Ðµ"
      ],
      [
        "Ðµ",
        "Ð·"
      ],
      [
        "ĠÑĩ",
        "Ð¸Ñģ"
      ],
      [
        "ĠÐ¾Ð±",
        "ÑĬ"
      ],
      [
        "Ñģ",
        "ÐºÐ¸"
      ],
      [
        "ĠÐºÐ°",
        "ÑĢ"
      ],
      [
        "Ð½",
        "Ð¾Ð³Ð¾"
      ],
      [
        "Ð´",
        "Ðµ"
      ],
      [
        "ĠÑģ",
        "ÑĥÐ´"
      ],
      [
        "ĠÑģÑĥÐ´",
        "ÑĮ"
      ],
      [
        "Ð³",
        "Ð°"
      ],
      [
        "Ð½Ñĭ",
        "Ð¼"
      ],
      [
        "Ð¾Ð»",
        "ÑĮ"
      ],
      [
        "ÑĤ",
        "Ñĭ"
      ],
      [
        "ÐµÐ½Ð¸",
        "Ð¸"
      ],
      [
        "Ðµ",
        "Ð´"
      ],
      [
        "ĠÐ±",
        "Ð»Ð¸"
      ],
      [
        "ĠÐ¾",
        "Ñģ"
      ],
      [
        "Ð½",
        "Ð¾Ð¼"
      ],
      [
        "ĠÐ´",
        "Ð°"
      ],
      [
        "ĠÐ¶Ð¸Ð·",
        "Ð½Ð¸"
      ],
      [
        "Ð¸",
        "ÑĢÐ°"
      ],
      [
        "ÑģÑĤ",
        "Ð¾"
      ],
      [
        "ÐµÐ½",
        "Ð½Ð¾"
      ],
      [
        "Ðº",
        "Ðµ"
      ],
      [
        "Ð¼",
        "Ðµ"
      ],
      [
        "ĠÑģ",
        "ÑĤÐ°"
      ],
      [
        "Ð¾",
        "Ñģ"
      ],
      [
        "Ð¸",
        "Ñħ"
      ],
      [
        "ĠÐ²",
        "Ñģ"
      ],
      [
        "ĠÑģÑĥÐ´ÑĮ",
        "Ð±Ñĭ"
      ],
      [
        "Ð½Ð°",
        "Ñı"
      ],
      [
        "ĠÐ¾",
        "Ð¿"
      ],
      [
        "Ð½",
        "Ð½Ð¸"
      ],
      [
        "Ðµ",
        "Ð»Ð°"
      ],
      [
        "ĠÐ»",
        "Ð¸"
      ],
      [
        "ĠÐ",
        "ļ"
      ],
      [
        "Ð¸",
        "ÑĨÐ¸"
      ],
      [
        "ĠÐ",
        "Ĵ"
      ],
      [
        "Ñĩ",
        "ÐµÑģÑĤ"
      ],
      [
        "ĠÑĤÐ°",
        "Ðº"
      ],
      [
        "Ñĥ",
        "Ð¼"
      ],
      [
        "ĠÑģ",
        "Ð¾Ð²"
      ],
      [
        "ÑĢÐµ",
        "Ð¼"
      ],
      [
        "Ð½",
        "Ð¾Ð²"
      ],
      [
        "ĠÑģÐ²",
        "Ñı"
      ],
      [
        "ĠÐ½",
        "Ð¾"
      ],
      [
        "Ñĳ",
        "ÑĢ"
      ],
      [
        "Ð²",
        "Ð»Ñı"
      ],
      [
        "ĠÐ¿",
        "Ð¾Ð²"
      ],
      [
        "ĠÐ²",
        "Ñĭ"
      ],
      [
        "Ð°",
        "Ð½"
      ],
      [
        "ÑĪ",
        "Ðµ"
      ],
      [
        "Ð²Ð¸",
        "Ð´"
      ],
      [
        "ĠÑģ",
        "Ð»Ñĥ"
      ],
      [
        "Ð²",
        "ÐµÐ½"
      ],
      [
        "ĠÑģ",
        "ÑĤÐ¾"
      ],
      [
        "ĠÐ´",
        "Ð½Ðµ"
      ],
      [
        "Ð·",
        "Ð½Ð°"
      ],
      [
        "ÑģÐºÐ°",
        "Ð·Ð°"
      ],
      [
        "Ð·ÑĭÐ²Ð°",
        "ÑİÑĤ"
      ],
      [
        "ĠÐ¼",
        "Ð½"
      ],
      [
        "ĠÐ",
        "Ĳ"
      ],
      [
        "Ð»Ð¾",
        "ÑģÑĮ"
      ],
      [
        "Ð¸",
        "ÑĤÑĮ"
      ],
      [
        "ÑĪ",
        "ÐºÐ¸"
      ],
      [
        "Ð",
        "Ŀ"
      ],
      [
        "Ðµ",
        "Ðº"
      ],
      [
        "ÑģÐ¸",
        "Ð»Ð¸"
      ],
      [
        "ÑĤÐµ",
        "Ð»Ð¸"
      ],
      [
        "Ġ",
        "ÑĤÐ¾"
      ],
      [
        "ĠÐ",
        "ľ"
      ],
      [
        "ÑĢÑĥ",
        "Ð³"
      ],
      [
        "Ð½Ñĭ",
        "Ð¹"
      ],
      [
        "Ñĩ",
        "ÐµÐ½Ð¸Ðµ"
      ],
      [
        "ĠÑĥ",
        "ÑģÐ¸Ð»Ð¸"
      ],
      [
        "ĠÐ±",
        "Ñĭ"
      ],
      [
        "Ð½Ñĥ",
        "ÑĤ"
      ],
      [
        "Ð´",
        "Ð¾"
      ],
      [
        "Ñı",
        "Ñģ"
      ],
      [
        "ÐµÐ³",
        "Ð¾"
      ],
      [
        "Ð±",
        "Ð»"
      ],
      [
        "ÑĢÐ°Ðº",
        "ÑĤÐ¸"
      ],
      [
        "ĠÐ",
        "Ľ"
      ],
      [
        "Ð°",
        "Ð´Ð°"
      ],
      [
        "Ðº",
        "Ð¾Ð²Ð°"
      ],
      [
        "ĠÐµ",
        "Ñĳ"
      ],
      [
        "Ðº",
        "Ð¾Ð¼"
      ],
      [
        "ĠÑģ",
        "Ð»"
      ],
      [
        "Ð»",
        "ÑģÑı"
      ],
      [
        "ÑĩÐµ",
        "ÑģÐºÐ¸"
      ],
      [
        "Ð³",
        "Ð¾"
      ],
      [
        "ĠÐ",
        "Ŀ"
      ],
      [
        "ĠÑģ",
        "Ð¸Ð¼"
      ],
      [
        "ÑĤÐµ",
        "ÑĢ"
      ],
      [
        "Ð½Ð¸",
        "Ðº"
      ],
      [
        "Ð¾Ð»",
        "ÐºÐ¾Ð²Ð°"
      ],
      [
        "Ð²",
        "ÑĪ"
      ],
      [
        "ÑĢÐ¸",
        "ÑĤÑĮ"
      ],
      [
        "Ð¸ÑĢÐ°",
        "Ð¼Ð¸"
      ],
      [
        "Ð²",
        "Ð¾Ð»"
      ],
      [
        "ÑĢ",
        "Ð¾Ð¼"
      ],
      [
        "ÑĩÐ¸",
        "ÑĤÐ°"
      ],
      [
        "ÐµÐ½Ð¸",
        "Ñİ"
      ],
      [
        "Ñĳ",
        "ÑĤ"
      ],
      [
        "ĠÑģ",
        "Ðº"
      ],
      [
        "ĠÐ²",
        "Ð½Ð¸Ð¼Ð°"
      ],
      [
        "Ñĥ",
        "Ð½"
      ],
      [
        "ĠÐ²",
        "Ð¾"
      ],
      [
        "ĠÑģÐ¸Ð¼",
        "Ð²Ð¾Ð»"
      ],
      [
        "ÑĢÑĭ",
        "Ð¹"
      ],
      [
        "ķ",
        "ÑģÐ»Ð¸"
      ],
      [
        "ĠÑģ",
        "Ð°"
      ],
      [
        "ĠÐ²",
        "Ð½ÑĥÑĤ"
      ],
      [
        "Ð»",
        "Ð¾Ð¼"
      ],
      [
        "ĠÑĩÐ°",
        "ÑĪÐºÐ¸"
      ],
      [
        "ĠÐ¿",
        "ÑĢÐµ"
      ],
      [
        "ĠÑĢÐµ",
        "ÑĪ"
      ],
      [
        "ÑĢÐ¾",
        "ÑĩÐµÑģÑĤ"
      ],
      [
        "ĠÐ»Ð¸",
        "Ð½Ð¸Ñı"
      ],
      [
        "ÐµÑģÑĤ",
        "Ð½ÑĭÑħ"
      ],
      [
        "ÑģÐº",
        "Ð»Ð°"
      ],
      [
        "ÑĤ",
        "Ð¾Ð±Ñĭ"
      ],
      [
        "ĠÑĩ",
        "ÑĤÐ¾Ð±Ñĭ"
      ],
      [
        "ÑħÐ¾Ð´",
        "ÑıÑĤ"
      ],
      [
        "ĠÐ¿",
        "Ð¸ÑĢÐ°Ð¼Ð¸"
      ],
      [
        "ĠÑĢÐ°",
        "Ð·"
      ],
      [
        "Ð",
        "ŀ"
      ],
      [
        "Ðµ",
        "ÑģÑı"
      ],
      [
        "Ð²",
        "Ðµ"
      ],
      [
        "Ð",
        "ķÑģÐ»Ð¸"
      ],
      [
        "ĠÑģÑĤÐ¾",
        "Ð¸ÑĤ"
      ],
      [
        "Ñĥ",
        "Ð¿"
      ],
      [
        "Ð¼Ðµ",
        "ÑĩÐ°"
      ],
      [
        "Ð¸",
        "Ð¹"
      ],
      [
        "ĠÐ»",
        "ÑİÐ´"
      ],
      [
        "ĠÐ",
        "¢"
      ],
      [
        "ĠÐ¿ÐµÑĢÐµ",
        "Ð´Ð°"
      ],
      [
        "Ð¸",
        "Ð½Ð°"
      ],
      [
        "Ð½Ð¾",
        "ÑģÑĤÐ¸"
      ],
      [
        "ÑģÑĤ",
        "ÑĢ"
      ],
      [
        "Ð¸Ð¼",
        "Ð¾"
      ],
      [
        "Ð»",
        "ÐµÑĤ"
      ],
      [
        "ÑģÑĤ",
        "ÑĢÐµ"
      ],
      [
        "Ð¾Ð´",
        "Ð¾Ð»"
      ],
      [
        "ÑĤÐ¸",
        "Ñı"
      ],
      [
        "ĠÑģ",
        "Ð¿"
      ],
      [
        "ĠÐ²",
        "ÑĢÐµÐ¼"
      ],
      [
        "ÑģÑĤ",
        "Ñĭ"
      ],
      [
        "ĠÐºÐ¾ÑĤÐ¾",
        "ÑĢÑĭÐ¹"
      ],
      [
        "ÑĤÐ¾",
        "ÑĢ"
      ],
      [
        "Ñī",
        "Ð°"
      ],
      [
        "ĠÐ¾",
        "Ñī"
      ],
      [
        "ĠÐ¾Ñģ",
        "Ð¾Ð±"
      ],
      [
        "ÐºÐ°",
        "Ñħ"
      ],
      [
        "ĠÐ¿ÑĢÐµÐ´",
        "ÑģÐºÐ°Ð·Ð°"
      ],
      [
        "Ð´",
        "Ñĭ"
      ],
      [
        "Ð½Ð¸Ð¼Ð°",
        "ÑĤÑĮ"
      ],
      [
        "Ð¶",
        "Ð´Ð°"
      ],
      [
        "Ð¾Ð²Ð°",
        "Ð¼"
      ],
      [
        "ĠÑģÐ»",
        "Ð¾Ð²Ð°Ð¼"
      ],
      [
        "Ðµ",
        "ÑĢÐ°"
      ],
      [
        "ĠÐ³",
        "Ð¾Ð´"
      ],
      [
        "Ðµ",
        "Ð²"
      ],
      [
        "Ñī",
        "ÐµÐ½Ð¸Ñı"
      ],
      [
        "ĠÐ¾Ð±ÑĬ",
        "ÑıÑģ"
      ],
      [
        "ĠÐ½Ð°",
        "Ð±Ð»"
      ],
      [
        "ĠÑĢÐ°Ñģ",
        "ÑģÐºÐ°"
      ],
      [
        "Ð½Ð½Ð¸",
        "ÐºÐ¸"
      ],
      [
        "Ð·",
        "Ñĭ"
      ],
      [
        "ÑİÑĤ",
        "ÑģÑı"
      ],
      [
        "Ð±",
        "Ð¾"
      ],
      [
        "ĠÑĤ",
        "Ð¾Ð»ÐºÐ¾Ð²Ð°"
      ],
      [
        "ĠÐ¸",
        "Ð½"
      ],
      [
        "Ñĭ",
        "ÑĤ"
      ],
      [
        "ĠÑģ",
        "ÑĩÐ¸ÑĤÐ°"
      ],
      [
        "ÑĢÐ°",
        "Ð·"
      ],
      [
        "ĠÐ³",
        "Ð°Ð´Ð°"
      ],
      [
        "ĠÐ¼",
        "Ñĭ"
      ],
      [
        "Ðº",
        "ÑĤ"
      ],
      [
        "Ð¶",
        "ÐµÐ½Ð¸Ñı"
      ],
      [
        "Ð´",
        "Ñĥ"
      ],
      [
        "ÑİÑī",
        "Ð¸Ðµ"
      ],
      [
        "Ñģ",
        "ÐµÐ´"
      ],
      [
        "ĠÐ¿ÑĢ",
        "Ð¾Ð´Ð¾Ð»"
      ],
      [
        "ĠÑĩ",
        "ÐµÐ¼"
      ],
      [
        "ĠÐ¼Ð½",
        "ÐµÐ½Ð¸Ñİ"
      ],
      [
        "Ð¸Ñģ",
        "ÑĭÐ²Ð°"
      ],
      [
        "Ð¾",
        "ÑĤ"
      ],
      [
        "ÐµÐ³",
        "ÐµÐ½"
      ],
      [
        "Ð¿",
        "Ð¾Ð»"
      ],
      [
        "ĠÐ¼",
        "Ð¾Ð¶"
      ],
      [
        "Ð²",
        "ÐµÑĢ"
      ],
      [
        "Ñģ",
        "Ð°"
      ],
      [
        "ÑĢÐ°ÐºÑĤÐ¸",
        "ÐºÑĥ"
      ],
      [
        "ĠÑģÐ»Ñĥ",
        "ÑĩÐ°"
      ],
      [
        "ÑĤ",
        "ÑģÑı"
      ],
      [
        "ÐºÐ¸",
        "Ñħ"
      ],
      [
        "Ð¾",
        "Ð½"
      ],
      [
        "ĠÐ¾Ð±ÑĬ",
        "ÐµÐº"
      ],
      [
        "ĠÐ¸",
        "Ñģ"
      ],
      [
        "Ð±",
        "Ðµ"
      ],
      [
        "Ġ",
        "ÑĨ"
      ],
      [
        "ĠÐ¿ÑĢÐ¸",
        "Ð¼"
      ],
      [
        "ĠÐ¿Ð¾Ð´Ð¾Ð±",
        "Ð½ÑĭÐµ"
      ],
      [
        "Ð¾Ð»Ð¾Ð³Ð¸",
        "Ð¸"
      ],
      [
        "ÑĦ",
        "Ðµ"
      ],
      [
        "Ġ",
        "2"
      ],
      [
        "ĠÐ¿ÑĢÐ¾Ð´Ð¾Ð»",
        "Ð¶Ð°"
      ],
      [
        "ÑĢÐ¾ÑĩÐµÑģÑĤ",
        "Ð²Ð°"
      ],
      [
        "Ð¸",
        "ÑĢÐ¾Ð¼"
      ],
      [
        "Ð¸ÑĢÐ¾Ð¼",
        "Ð°Ð½"
      ],
      [
        "ĠÐ¼",
        "ÐµÑģÑĤÐ½ÑĭÑħ"
      ],
      [
        "ĠÑģ",
        "ÑĤ"
      ],
      [
        "ĠÐ½Ðµ",
        "ÑģÐº"
      ],
      [
        "ĠÐ½ÐµÑģÐº",
        "Ð¾Ð»ÑĮ"
      ],
      [
        "ĠÑĤÐ°Ðº",
        "Ð¾Ð¹"
      ],
      [
        "ĠÑĢÐ°",
        "ÑģÐºÐ»Ð°"
      ],
      [
        "ĠÑģÐ²Ñı",
        "Ð·ÑĭÐ²Ð°ÑİÑĤ"
      ],
      [
        "Ð²",
        "Ñĭ"
      ],
      [
        "ÑĥÐ¼",
        "ÐµÑĢ"
      ],
      [
        "ĠÐ¿",
        "Ðµ"
      ],
      [
        "ĠÐ²Ð½Ð¸Ð¼Ð°",
        "Ð½Ð¸Ðµ"
      ],
      [
        "ÑģÑĤÐ°",
        "Ð²Ð¸"
      ],
      [
        "ÐµÑģÑĤ",
        "Ð¸"
      ],
      [
        "ĠÐºÐ°ÑĢ",
        "ÑĤÐ°"
      ],
      [
        "ĠÑĢÑĥ",
        "Ð½Ð°"
      ],
      [
        "ĠÐ¿Ð¸ÑĢÐ°Ð¼Ð¸",
        "Ð´Ñĭ"
      ],
      [
        "ĠÐ½Ðµ",
        "Ð¹"
      ],
      [
        "ĠÐ¿Ð¾Ð»",
        "Ð¾Ð¶"
      ],
      [
        "ĠÐ·Ð½Ð°",
        "Ð½Ð¸Ñı"
      ],
      [
        "ÐµÐ³ÐµÐ½",
        "Ð´Ð°"
      ],
      [
        "ĠÐ¾Ð±",
        "Ð»Ð°"
      ],
      [
        "Ð»Ðµ",
        "Ð¹"
      ],
      [
        "ĠÐ´",
        "Ð½Ð¸"
      ],
      [
        "ÑģÑĤÑĢ",
        "Ð¾Ð»Ð¾Ð³Ð¸"
      ],
      [
        "Ð¾Ð²",
        "Ð¾"
      ],
      [
        "ĠÐ·",
        "Ð²"
      ],
      [
        "Ġ",
        "Ñı"
      ],
      [
        "ĠÑģÐ°",
        "Ð¼"
      ],
      [
        "Ġ",
        "ÑĦ"
      ],
      [
        "ĠÐ",
        "ŀ"
      ],
      [
        "ÑĢÐ¾",
        "Ðµ"
      ],
      [
        "ÐĿ",
        "Ð°"
      ],
      [
        "Ð·",
        "Ð¸"
      ],
      [
        "ĠÐ¿ÑĢÐµÐ´",
        "ÑĥÐ¿"
      ],
      [
        "ĠÐ¿ÑĢÐµÐ´ÑĥÐ¿",
        "ÑĢÐµ"
      ],
      [
        "Ð½Ð¸",
        "ÐµÐ¼"
      ],
      [
        "ĠÐ´",
        "Ð»Ñı"
      ],
      [
        "ĠÐ´",
        "Ð¾"
      ],
      [
        "ÑĢÐ°",
        "Ð²"
      ],
      [
        "Ð¿",
        "Ð¾Ð¼"
      ],
      [
        "ĠÐ",
        "¥"
      ],
      [
        "Ð°",
        "Ð»ÑĮ"
      ],
      [
        "Ð",
        "ļ"
      ],
      [
        "ÑĤÐ¸",
        "Ð²"
      ],
      [
        "Ġ",
        "ÑĢ"
      ],
      [
        "ĠÐ²Ð½ÑĥÑĤ",
        "ÑĢÐµ"
      ],
      [
        "ĠÐµ",
        "ÑģÐ»Ð¸"
      ],
      [
        "Ð·ÑĭÐ²Ð°",
        "ÐµÑĤ"
      ],
      [
        "ÑĨ",
        "Ñĭ"
      ],
      [
        "ĠÐ¿ÑĢÐµ",
        "Ð´Ð°"
      ],
      [
        "ÑģÑĤ",
        "Ð²Ð¸"
      ],
      [
        "Ð´",
        "ÐµÐ½Ð¸Ñı"
      ],
      [
        "ĠÐ",
        "ł"
      ],
      [
        "ÑĤ",
        "Ð¾Ð¹"
      ],
      [
        "Ð¼",
        "Ñĥ"
      ],
      [
        "ĠÐºÐ¾",
        "Ð½"
      ],
      [
        "ĠÑģÐ¾Ð²",
        "ÐµÑĤ"
      ],
      [
        "ĠÐ¿",
        "Ð¾Ðº"
      ],
      [
        "ÑĮ",
        "Ñı"
      ],
      [
        "Ð»",
        "Ñİ"
      ],
      [
        "ĠÐ¾Ñī",
        "ÑĥÑī"
      ],
      [
        "ĠÐ",
        "Ķ"
      ],
      [
        "Ð½Ñĭ",
        "Ð¼Ð¸"
      ],
      [
        "ĠÐ¾ÑģÐ¾Ð±",
        "ÐµÐ½Ð½Ð¾"
      ],
      [
        "Ð¼",
        "Ð¾"
      ],
      [
        "Ñī",
        "Ñĳ"
      ],
      [
        "ĠÐºÐ¾ÑĤÐ¾",
        "ÑĢÐ¾Ðµ"
      ],
      [
        "ĠÐ¸",
        "ÑģÑĤÐ¾"
      ],
      [
        "ĠÐ¾ÑĤ",
        "Ð¼ÐµÑĩÐ°"
      ],
      [
        "ÑĤÐµ",
        "Ð»ÐµÐ¹"
      ],
      [
        "ĠÐ¾ÑĤ",
        "ÑĢÐ°"
      ],
      [
        "ÑģÐ¸",
        "ÑĤ"
      ],
      [
        "Ð½Ðµ",
        "Ð¹"
      ],
      [
        "ÑĥÑī",
        "Ðµ"
      ],
      [
        "Ð¹",
        "ÑĪ"
      ],
      [
        "Ð¶Ð°",
        "Ð¹ÑĪ"
      ],
      [
        "ĠÐ±Ð»Ð¸",
        "Ð¶Ð°Ð¹ÑĪ"
      ],
      [
        "ĠÑģ",
        "Ð¾Ð±"
      ],
      [
        "ĠÑģ",
        "Ð¾Ð±Ñĭ"
      ],
      [
        "ĠÐ¸",
        "Ð¼"
      ],
      [
        "ĠÑĥ",
        "ÑĤ"
      ],
      [
        "ÑģÑĤ",
        "Ð²ÐµÐ½"
      ],
      [
        "ĠÐ¾",
        "Ð·Ð½Ð°"
      ],
      [
        "ĠÐ¾Ð·Ð½Ð°",
        "ÑĩÐ°"
      ],
      [
        "Ð°",
        "Ðº"
      ],
      [
        "ĠÐ´",
        "Ð²Ð¸"
      ],
      [
        "ĠÐ¸Ð·",
        "Ð´Ð°"
      ],
      [
        "ĠÐº",
        "ÑĤÐ¾"
      ],
      [
        "ĠÐ¾",
        "ÑģÑĤ"
      ],
      [
        "ĠÑģÐº",
        "ÑĢÑĭ"
      ],
      [
        "ĠÑĤÐµ",
        "Ñħ"
      ],
      [
        "ÐµÐ½Ð¸Ñı",
        "Ñħ"
      ],
      [
        "ĠÐ´",
        "ÐµÐ»Ð°"
      ],
      [
        "ĠÐ´",
        "Ð¾Ð¼"
      ],
      [
        "Ð",
        "Ĵ"
      ],
      [
        "Ð¾Ð¿",
        "Ð¾Ð»"
      ],
      [
        "Ð¾ÑĢ",
        "Ð¾Ð¶"
      ],
      [
        "ĠÐ¾ÑģÑĤ",
        "Ð¾ÑĢÐ¾Ð¶"
      ],
      [
        "ĠÑĨ",
        "Ð²"
      ],
      [
        "Ð¾",
        "ÑĢÐ¾"
      ],
      [
        "ĠÐ",
        "Ĺ"
      ],
      [
        "Ð¸Ð¼Ð¾",
        "ÑģÑĤÑĮ"
      ],
      [
        "ĠÑģÐ¾Ð²",
        "Ð¿Ð°"
      ],
      [
        "ĠÐº",
        "ÑĢÐ°"
      ],
      [
        "Ð½Ð¾",
        "Ðµ"
      ],
      [
        "ĠÐ¾Ð±ÑĬÑıÑģ",
        "Ð½Ñı"
      ],
      [
        "ĠÐ½Ð°Ð±Ð»",
        "ÑİÐ´"
      ],
      [
        "Ð¿Ð¾Ð¼",
        "Ð¸Ð½Ð°"
      ],
      [
        "ÑĤÐµÐ»ÑĮ",
        "Ð½Ð¾"
      ],
      [
        "ÑĨÐ¸",
        "Ð¸"
      ],
      [
        "ĠÐ½Ðµ",
        "Ð¾Ð±"
      ],
      [
        "ĠÐ²",
        "ÑģÑĤÑĢÐµ"
      ],
      [
        "ÑĢÐ°",
        "Ð´"
      ],
      [
        "ĠÐ²",
        "Ð¾Ð¿"
      ],
      [
        "Ð»Ð°",
        "Ð´"
      ],
      [
        "Ðµ",
        "Ñĩ"
      ],
      [
        "ĠÑģ",
        "Ð¸"
      ],
      [
        "ĠÐ",
        "ĳ"
      ],
      [
        "Ð¸",
        "ÑĤÐ°"
      ],
      [
        "ÐŁ",
        "Ð¾"
      ],
      [
        "ĠÐ¸ÑģÑĤÐ¾",
        "ÑĢÐ¸"
      ],
      [
        "ĠÐ³Ð°Ð´Ð°",
        "Ð»"
      ],
      [
        "ĠÐ¿Ð¾",
        "Ñı"
      ],
      [
        "Ð°",
        "Ð¶"
      ],
      [
        "Ð¶Ð´",
        "Ñĭ"
      ],
      [
        "ĠÐ¼",
        "Ð¾Ð»"
      ],
      [
        "ĠÐ½ÐµÑģÐºÐ¾Ð»ÑĮ",
        "ÐºÐ¾"
      ],
      [
        "ĠÑħ",
        "Ð°"
      ],
      [
        "Ð",
        "Ķ"
      ],
      [
        "Ð",
        "§"
      ],
      [
        "ÐµÐ½",
        "Ð½ÑĭÐ¹"
      ],
      [
        "ĠÐ·Ð½Ð°",
        "ÑĩÐµÐ½Ð¸Ðµ"
      ],
      [
        "ĠÑģ",
        "ÑĢÐ°Ð·"
      ],
      [
        "ĠÑģÑĢÐ°Ð·",
        "Ñĥ"
      ],
      [
        "Ð»Ð°Ð´",
        "ÑĭÐ²Ð°"
      ],
      [
        "ĠÐ",
        "ĵ"
      ],
      [
        "ÑĢÐ¸",
        "Ñģ"
      ],
      [
        "ÑĢÐ°",
        "Ð½Ð¸"
      ],
      [
        "ĠÑĤÐ¾",
        "Ñĩ"
      ],
      [
        "ĠÐ½ÐµÐ¾Ð±",
        "ÑħÐ¾Ð´"
      ],
      [
        "ĠÑģÐ¾Ð±Ñĭ",
        "ÑĤÐ¸Ñı"
      ],
      [
        "Ð¼",
        "ÐµÑģÑĤ"
      ],
      [
        "ĠÐ¼Ð¾Ð¶",
        "ÐµÑĤ"
      ],
      [
        "ĠÑĥ",
        "Ð¶Ðµ"
      ],
      [
        "ÑĢ",
        "Ð¾Ð²Ð°"
      ],
      [
        "ĠÐ½Ðµ",
        "Ð´Ðµ"
      ],
      [
        "ĠÐ¾ÑĤÐ¼ÐµÑĩÐ°",
        "ÑİÑĤ"
      ],
      [
        "ĠÐ¿ÑĢ",
        "Ð¾Ð±"
      ],
      [
        "ĠÐ±",
        "Ð¾Ð»ÑĮ"
      ],
      [
        "ĠÑħÐ°",
        "ÑĢÐ°Ðº"
      ],
      [
        "Ġ",
        "ÑĨÐ¸"
      ],
      [
        "Ġ",
        "ÑĢÐ¸Ñģ"
      ],
      [
        "ÑĥÐ½",
        "Ð¾Ðº"
      ],
      [
        "ĠÑĢÐ¸Ñģ",
        "ÑĥÐ½Ð¾Ðº"
      ],
      [
        "Ð½Ð¸Ðº",
        "Ð¾Ð²"
      ],
      [
        "ĠÐ³Ð°Ð´Ð°Ð»",
        "ÐºÐ¸"
      ],
      [
        "Ð",
        "¢"
      ],
      [
        "ĠÑĥ",
        "ÐºÐ°"
      ],
      [
        "ĠÐ²",
        "Ð°Ð¶"
      ],
      [
        "ĠÑģ",
        "Ð½Ð¾Ð²"
      ],
      [
        "ÐµÐ½",
        "ÑĮ"
      ],
      [
        "ĠÑĤ",
        "ÑĢÐ°Ð´"
      ],
      [
        "ĠÑĤÑĢÐ°Ð´",
        "Ð¸ÑĨÐ¸"
      ],
      [
        "ĠÐ±Ð»Ð¸",
        "Ð¶Ðµ"
      ],
      [
        "ĠÐµ",
        "Ð³Ð¾"
      ],
      [
        "Ñģ",
        "ÑģÐ¸"
      ],
      [
        "ĠÑģ",
        "Ðµ"
      ],
      [
        "ÑĤÐ¸",
        "ÑĤÑĮ"
      ],
      [
        "ĠÐ¾Ð±ÑĢÐ°",
        "ÑĤÐ¸ÑĤÑĮ"
      ],
      [
        "ĠÐ¿ÑĢÐ¾",
        "Ð¸Ñģ"
      ],
      [
        "ĠÐ´",
        "Ð°ÑĢ"
      ],
      [
        "ÑĩÐµÑģÐºÐ¸",
        "Ð¹"
      ],
      [
        "ÑĢ",
        "Ð¾Ð´"
      ],
      [
        "Ð±",
        "Ñĥ"
      ],
      [
        "ĠÑģÐ¾Ð²ÐµÑĤ",
        "Ñĥ"
      ],
      [
        "ÑĭÑĤ",
        "Ð½ÑĭÐµ"
      ],
      [
        "ĠÑį",
        "ÑĤÐ°"
      ],
      [
        "Ð»Ð¸",
        "Ñı"
      ],
      [
        "ÑĤ",
        "Ð¾Ð²"
      ],
      [
        "ÑĢÐ°ÐºÑĤÐ¸ÐºÑĥ",
        "ÑİÑīÐ¸Ðµ"
      ],
      [
        "ĠÐ",
        "ĺ"
      ],
      [
        "ĠÐ²ÑĢÐµÐ¼",
        "Ñı"
      ],
      [
        "ÐµÑĢ",
        "Ð´"
      ],
      [
        "Ñĩ",
        "ÑĮ"
      ],
      [
        "ÑĤÐµ",
        "Ð»Ñı"
      ],
      [
        "ĠÐ¾",
        "ÑĩÐµ"
      ],
      [
        "ÑĤÐ¾ÑĢ",
        "Ñı"
      ],
      [
        "ĠÐ½Ð°",
        "ÑģÑĤÐ°"
      ],
      [
        "Ð½Ð¸",
        "Ð¹"
      ],
      [
        "Ð",
        "ł"
      ],
      [
        "ĠÐ²",
        "Ð¾Ð·"
      ],
      [
        "ĠÐ»ÑİÐ´",
        "Ð¸"
      ],
      [
        "Ð²",
        "ÑĳÑĢ"
      ],
      [
        "ĠÐ²Ð¾Ð¿",
        "ÑĢÐ¾"
      ],
      [
        "Ð²Ð°",
        "ÑİÑĤ"
      ],
      [
        "ĠÑĩÐ¸Ñģ",
        "Ð»Ð¾"
      ],
      [
        "ÐŁ",
        "ÑĢÐ¾"
      ],
      [
        "ĠÑĤÐ¾Ð»ÐºÐ¾Ð²Ð°",
        "ÑĤÐµÐ»Ð¸"
      ],
      [
        "ĠÑģ",
        "ÐµÑĢÐ´"
      ],
      [
        "Ð·",
        "Ð´"
      ],
      [
        "Ñĳ",
        "Ð·Ð´"
      ],
      [
        "Ð¾Ñģ",
        "Ð¾Ð±"
      ],
      [
        "ĠÑģÐ¿",
        "Ð¾ÑģÐ¾Ð±"
      ],
      [
        "Ġ2",
        "0"
      ],
      [
        "Ð¶Ð´Ð°",
        "ÐµÑĤ"
      ],
      [
        "Ñı",
        "Ð¼Ð¸"
      ],
      [
        "ĠÑĥ",
        "ÑĦ"
      ],
      [
        "ĠÐ¾Ð±ÑĬÐµÐº",
        "ÑĤÐ°"
      ],
      [
        "ĠÐ¾ÑĩÐµ",
        "Ð²Ð¸Ð´"
      ],
      [
        "ĠÑĥÑĦ",
        "Ð¾Ð»Ð¾Ð³Ð¸Ð¸"
      ],
      [
        "Ð¾Ð³",
        "Ð´Ð°"
      ],
      [
        "Ð½Ðµ",
        "Ð²"
      ],
      [
        "ĠÐ¿Ð¾Ð²",
        "ÑģÐµÐ´"
      ],
      [
        "ĠÐ¿Ð¾Ð²ÑģÐµÐ´",
        "Ð½ÐµÐ²"
      ],
      [
        "ĠÐ¿ÑĢÐ¾Ð´Ð¾Ð»Ð¶Ð°",
        "ÑİÑĤ"
      ],
      [
        "ĠÐ¾Ð´",
        "Ð½Ð°"
      ],
      [
        "ĠÐºÐ¾",
        "ÑĦÐµ"
      ],
      [
        "ĠÐ¿ÑĢÐ¾",
        "ÑĢÐ¾ÑĩÐµÑģÑĤÐ²Ð°"
      ],
      [
        "ĠÑĤÐµ",
        "Ðº"
      ],
      [
        "Ð¿Ð°",
        "Ð»Ð°"
      ],
      [
        "ĠÐ¿ÑĢÐ¸Ð¼",
        "ÐµÑĤÐ°"
      ],
      [
        "ĠÑĩ",
        "Ð¸ÑĤÐ°"
      ],
      [
        "ÑĤÐµ",
        "Ð½"
      ],
      [
        "ĠÑĩÐµÐ»Ð¾Ð²Ðµ",
        "ÐºÑĥ"
      ],
      [
        "Ð°",
        "ÑģÑĤÑĭ"
      ],
      [
        "Ð½",
        "ÑĤÑĥ"
      ],
      [
        "ÑĢÐ¾",
        "Ð½Ð½Ð¸ÐºÐ¸"
      ],
      [
        "ĠÑĢÐ°ÑģÑģÐºÐ°",
        "Ð·Ñĭ"
      ],
      [
        "Ð·Ð¸",
        "Ð°ÑģÑĤÑĭ"
      ],
      [
        "Ð½ÑĤÑĥ",
        "Ð·Ð¸Ð°ÑģÑĤÑĭ"
      ],
      [
        "Ð½Ð¸",
        "Ð¼"
      ],
      [
        "ĠÐ¶Ð¸",
        "ÑĤÐµÐ»ÐµÐ¹"
      ],
      [
        "Ð",
        "ĵ"
      ],
      [
        "ĠÐ´Ð½Ðµ",
        "Ð¹"
      ],
      [
        "Ð»Ð°Ð´ÑĭÐ²Ð°",
        "ÐµÑĤÑģÑı"
      ],
      [
        "ĠÐ½Ð°",
        "Ð¿Ð¾Ð¼Ð¸Ð½Ð°"
      ],
      [
        "ĠÑĢÑĥ",
        "ÐºÐµ"
      ],
      [
        "ÑİÑī",
        "Ð¸Ð¹"
      ],
      [
        "ĠÑĢÐ°ÑģÐºÐ»Ð°",
        "Ð´Ð°"
      ],
      [
        "ĠÐ´",
        "ÑĢÑĥÐ³"
      ],
      [
        "ĠÐ¿",
        "ÑĢÐ°Ð²"
      ],
      [
        "Ð¾Ð´",
        "Ð°"
      ],
      [
        "Ð¶Ð°",
        "ÐµÑĤÑģÑı"
      ],
      [
        "ĠÑĢ",
        "Ð¾Ð¶"
      ],
      [
        "ĠÐ¾ÑĤÑĢÐ°",
        "Ð¶Ð°ÐµÑĤÑģÑı"
      ],
      [
        "ĠÐ¿Ð¾Ð´Ð¾Ð±",
        "Ð½Ð¾Ð³Ð¾"
      ],
      [
        "ĠÑĥÐºÐ°",
        "Ð·ÑĭÐ²Ð°ÐµÑĤ"
      ],
      [
        "Ð¾Ð´",
        "Ð½Ð°Ñı"
      ],
      [
        "ĠÐ½",
        "Ð¾Ð¼"
      ],
      [
        "ĠÐ½",
        "ÑĥÐ¼ÐµÑĢ"
      ],
      [
        "ÐºÐ¸",
        "Ðµ"
      ],
      [
        "ĠÑĤÐ°",
        "ÐºÐ¸Ðµ"
      ],
      [
        "ĠÑĩÐ¸Ñģ",
        "Ð»Ð¾Ð¼"
      ],
      [
        "ÐµÑĢÐ°",
        "Ñħ"
      ],
      [
        "ĠÐ½Ð¾Ð¼",
        "ÐµÑĢÐ°Ñħ"
      ],
      [
        "ĠÐ²",
        "Ð»Ð¸Ñı"
      ],
      [
        "ĠÐ²Ð»Ð¸Ñı",
        "Ð½Ð¸Ðµ"
      ],
      [
        "ĠÐ´",
        "ÐµÑĤÐ°"
      ],
      [
        "ĠÐ´ÐµÑĤÐ°",
        "Ð»Ð¸"
      ],
      [
        "ÑĪ",
        "Ð¾"
      ],
      [
        "Ð¹",
        "Ð½Ñĭ"
      ],
      [
        "ĠÐ´Ð°",
        "Ð¶Ðµ"
      ],
      [
        "ĠÐ´",
        "ÐµÐ½ÑĮ"
      ],
      [
        "Ð½Ñĥ",
        "ÑĤÐ¾Ð¼"
      ],
      [
        "ĠÐ¿ÐµÑĢÐµ",
        "Ð²ÑĳÑĢ"
      ],
      [
        "ĠÐ²Ñĭ",
        "Ð¿Ð°Ð»Ð°"
      ],
      [
        "ĠÐ¿Ð¾Ð»Ð¾Ð¶",
        "ÐµÐ½Ð¸Ð¸"
      ],
      [
        "ĠÐ¿ÐµÑĢÐµÐ²ÑĳÑĢ",
        "Ð½ÑĥÑĤÐ¾Ð¼"
      ],
      [
        "Ðµ",
        "ÐµÑģÑı"
      ],
      [
        "Ð½",
        "Ð¾Ð·"
      ],
      [
        "ĠÐ¸",
        "Ñħ"
      ],
      [
        "ÑİÑī",
        "ÐµÐµÑģÑı"
      ],
      [
        "ÑĦ",
        "Ð¸ÑĨÐ¸"
      ],
      [
        "ÑĦÐ¸ÑĨÐ¸",
        "Ð°Ð»ÑĮ"
      ],
      [
        "ĠÐµ",
        "ÑīÑĳ"
      ],
      [
        "ĠÐ¾Ð±Ð»Ð°",
        "Ð´Ð°"
      ],
      [
        "Ð»Ðµ",
        "ÐºÐ°"
      ],
      [
        "ÐµÐ·",
        "Ð¶Ð°"
      ],
      [
        "ĠÐ¸Ð·Ð´Ð°",
        "Ð»ÐµÐºÐ°"
      ],
      [
        "Ð²",
        "Ð½Ð¸Ðº"
      ],
      [
        "ĠÐ²",
        "ÐµÑģÑĤÐ¸"
      ],
      [
        "ĠÐ´Ð½Ðµ",
        "Ð²Ð½Ð¸Ðº"
      ],
      [
        "ĠÐ¿ÑĢÐ¸",
        "Ð½Ð¸Ð¼Ð°ÑĤÑĮ"
      ],
      [
        "ĠÐ¿ÑĢ",
        "Ð¾Ð³"
      ],
      [
        "ĠÐ±Ð»Ð¸Ð¶Ð°Ð¹ÑĪ",
        "Ð¸Ðµ"
      ],
      [
        "Ð¼ÐµÑģÑĤ",
        "Ð¸Ð¼Ð¾ÑģÑĤÑĮ"
      ],
      [
        "ĠÐº",
        "Ð¾Ð³Ð´Ð°"
      ],
      [
        "ĠÐ»",
        "ÐµÐ³ÐµÐ½Ð´Ð°"
      ],
      [
        "ÑģÐ¸",
        "ÑĤÑĮ"
      ],
      [
        "ĠÑįÑĤÐ¾",
        "ÑĤ"
      ],
      [
        "ÑħÐ¾Ð´",
        "Ð¸ÑĤ"
      ],
      [
        "ÑĤÐ°",
        "ÐºÑĤ"
      ],
      [
        "ĠÐ¾Ð¿",
        "Ð¸ÑģÑĭÐ²Ð°"
      ],
      [
        "ĠÐ¿ÑĢÐ¾Ð¸Ñģ",
        "ÑħÐ¾Ð´ÑıÑĤ"
      ],
      [
        "ĠÐ¾Ð¿Ð¸ÑģÑĭÐ²Ð°",
        "ÑİÑĤ"
      ],
      [
        "ĠÐ·Ð½Ð°",
        "ÐºÐ°"
      ],
      [
        "ĠÐĲ",
        "ÑģÑĤÑĢÐ¾Ð»Ð¾Ð³Ð¸"
      ],
      [
        "ÑģÑĤÐ°Ð²Ð¸",
        "ÑĤÐµÐ»Ñı"
      ],
      [
        "ĠÐ³",
        "Ð¾Ð²Ð¾"
      ],
      [
        "ÐµÐ¹",
        "ÑģÑĤÐ²Ð¸"
      ],
      [
        "ÑĢÐµ",
        "Ð²"
      ],
      [
        "Ðļ",
        "Ð°Ðº"
      ],
      [
        "Ð²",
        "Ð¾"
      ],
      [
        "ĠÐ¾",
        "Ðº"
      ],
      [
        "ĠÐ¼",
        "Ðµ"
      ],
      [
        "ĠÐ¿",
        "Ð°"
      ],
      [
        "Ð½Ñĥ",
        "Ñİ"
      ],
      [
        "ĠÑĩÐµÐ»Ð¾Ð²Ðµ",
        "ÐºÐ°"
      ],
      [
        "ĠÐ·Ð°",
        "Ð¿"
      ],
      [
        "Ð½Ð¾Ð¼",
        "Ñĥ"
      ],
      [
        "Ð¸Ñģ",
        "Ð»Ð¾"
      ],
      [
        "Ð§",
        "Ð¸ÑģÐ»Ð¾"
      ],
      [
        "Ð¡",
        "Ð¾"
      ],
      [
        "ÑĢÐµÐ´",
        "Ð¸"
      ],
      [
        "Ð°ÑĢ",
        "Ð¾Ð´Ð½Ð°Ñı"
      ],
      [
        "ÐĿ",
        "Ð°ÑĢÐ¾Ð´Ð½Ð°Ñı"
      ],
      [
        "ĠÐ·Ð²",
        "ÑĳÐ·Ð´"
      ],
      [
        "ĠÐ¸Ñģ",
        "Ð¿Ð¾Ð»"
      ],
      [
        "ĠÐ¼Ð¾Ð»",
        "Ð²Ð°"
      ],
      [
        "Ð½",
        "ÑĮ"
      ],
      [
        "Ð²",
        "Ñĥ"
      ],
      [
        "ĠÐ²Ð¾Ð¿ÑĢÐ¾",
        "Ñģ"
      ],
      [
        "Ð¶Ð´",
        "ÐµÐ½Ð¸Ðµ"
      ],
      [
        "ĠÐ¿ÑĢÐµÐ´ÑĥÐ¿ÑĢÐµ",
        "Ð¶Ð´ÐµÐ½Ð¸Ðµ"
      ],
      [
        "ĠÐ¸ÑģÑĤÐ¾ÑĢÐ¸",
        "Ð¸"
      ],
      [
        "ÑİÑī",
        "Ð¸Ñħ"
      ],
      [
        "Ð¾Ð²",
        "Ð¼ÐµÑģÑĤÐ¸Ð¼Ð¾ÑģÑĤÑĮ"
      ],
      [
        "Ð¡",
        "Ð¾Ð²Ð¼ÐµÑģÑĤÐ¸Ð¼Ð¾ÑģÑĤÑĮ"
      ],
      [
        "ÑģÑĤÐ¾",
        "Ñı"
      ],
      [
        "ĠÐ¸Ð·",
        "Ð²"
      ],
      [
        "ĠÐ±Ñĭ",
        "ÑĤÑĮ"
      ],
      [
        "Ð¶",
        "ÐµÐ½Ð¸Ð¸"
      ],
      [
        "Ð½Ð¾",
        "ÑģÑĤÑĮ"
      ],
      [
        "Ð»",
        "Ñĭ"
      ],
      [
        "ĠÐ¿",
        "Ñĥ"
      ],
      [
        "ĠÐ¿ÑĢ",
        "Ð¾Ð²"
      ],
      [
        "Ñĥ",
        "Ð¶Ð´"
      ],
      [
        "Ð¶",
        "Ð¸"
      ],
      [
        "Ð¾ÑĢ",
        "Ð¾Ð²"
      ],
      [
        "ĠÑģÐ¾Ð²ÐµÑĤÑĥ",
        "ÑİÑĤ"
      ],
      [
        "ĠÐ±Ð¾Ð»ÑĮ",
        "ÑĪÐµ"
      ],
      [
        "Ð»Ð¸",
        "Ð·"
      ],
      [
        "ÐµÐ½Ð¸",
        "Ð¹"
      ],
      [
        "ĠÐ±",
        "ÐµÐ·"
      ],
      [
        "ĠÐ¿ÑĢÐ¸",
        "Ð½Ñı"
      ],
      [
        "ĠÐ¿ÑĢÐ¸Ð½Ñı",
        "ÑĤÐ¾"
      ],
      [
        "ÑĤÑĮ",
        "ÑģÑı"
      ],
      [
        "ĠÐ²Ð½ÑĥÑĤÑĢÐµ",
        "Ð½"
      ],
      [
        "ĠÐ±",
        "Ð¾Ð»"
      ],
      [
        "Ð¾",
        "Ð½Ð°"
      ],
      [
        "ĠÐ´Ð°",
        "Ð²"
      ],
      [
        "ĠÐ¿ÑĢÐ¾Ð±",
        "ÑĥÐ¶Ð´"
      ],
      [
        "ĠÐ¾ÑĤ",
        "Ðº"
      ],
      [
        "Ð»Ð¸",
        "ÑģÑĮ"
      ],
      [
        "ĠÐ¼Ñĭ",
        "Ñģ"
      ],
      [
        "Ð»Ð°",
        "ÑģÑĮ"
      ],
      [
        "ÑĤÐµÐ»ÑĮ",
        "Ð½Ð¸"
      ],
      [
        "ĠÐ¿ÑĢÐµÐ´Ð°",
        "Ð½Ð¸Ñı"
      ],
      [
        "ĠÐ´",
        "ÑĢÐµÐ²"
      ],
      [
        "Ñĩ",
        "ÑĤÐ¸"
      ],
      [
        "ĠÐ¿Ð¾",
        "ÑĩÑĤÐ¸"
      ],
      [
        "ÐµÐ½",
        "Ð½Ð¾Ð¹"
      ],
      [
        "ĠÐ¿",
        "Ð»Ð°"
      ],
      [
        "ĠÐ±Ñĭ",
        "Ð»Ð¾"
      ],
      [
        "Ð¾Ð²",
        "Ñĭ"
      ],
      [
        "Ð°",
        "Ñı"
      ],
      [
        "Ð¾",
        "ÑĢÑĥ"
      ],
      [
        "Ñı",
        "Ð²Ð»Ñı"
      ],
      [
        "ĠÐ¿ÑĢÐ¾",
        "ÑıÐ²Ð»Ñı"
      ],
      [
        "Ð½",
        "ÐµÑĤ"
      ],
      [
        "ĠÐ´",
        "ÐµÑģÑı"
      ],
      [
        "Ð½Ðµ",
        "Ðµ"
      ],
      [
        "Ð²",
        "ÐµÑĢÐµ"
      ],
      [
        "ĠÑĩ",
        "ÐµÑĢÐµ"
      ],
      [
        "ĠÑĩÐµÑĢÐµ",
        "Ð·"
      ],
      [
        "ĠÐ³",
        "Ð»Ð°"
      ],
      [
        "ĠÑĤ",
        "ÑĢÐµ"
      ],
      [
        "ĠÐ´",
        "ÐµÐ¹ÑģÑĤÐ²Ð¸"
      ],
      [
        "Ð½Ð¾",
        "ÑĪ"
      ],
      [
        "ĠÐ¾ÑĤ",
        "Ð½Ð¾ÑĪ"
      ],
      [
        "ĠÐ¾Ð¿",
        "Ñĭ"
      ],
      [
        "Ñħ",
        "Ðµ"
      ],
      [
        "ĠÐ»",
        "Ð°"
      ],
      [
        "Ð¾Ð²Ðµ",
        "ÑĢÐ¸ÑĤÑĮ"
      ],
      [
        "ÑĤ",
        "Ñı"
      ],
      [
        "Ð½Ð¸",
        "Ñİ"
      ],
      [
        "Ð½",
        "Ð½ÑĭÐµ"
      ],
      [
        "Ð»",
        "ÐºÐ°"
      ],
      [
        "ĠÐ¶",
        "ÐµÐ»Ð°"
      ],
      [
        "ÐµÐ¼",
        "Ñĥ"
      ],
      [
        "ĠÐ¿Ð¾",
        "ÑĢ"
      ],
      [
        "ÐµÐ½",
        "ÑĤ"
      ],
      [
        "Ñģ",
        "Ñģ"
      ],
      [
        "ĠÐ¾Ð´",
        "Ð½Ð¾"
      ],
      [
        "ÑĢÐ¸",
        "Ñı"
      ],
      [
        "ĠÐ",
        "Ń"
      ],
      [
        "ĠÑģÐ¾",
        "Ñħ"
      ],
      [
        "ĠÐ²Ñģ",
        "Ðµ"
      ],
      [
        "Ð¸",
        "Ð´"
      ],
      [
        "ĠÐº",
        "ÑĢÑĥÐ³"
      ],
      [
        "ĠÐ¼ÑĭÑģ",
        "Ð»"
      ],
      [
        "ĠÐ¾Ð·Ð½Ð°ÑĩÐ°",
        "ÐµÑĤ"
      ],
      [
        "ĠÐ¿Ð¾",
        "Ð½Ð¸Ð¼Ð°ÑĤÑĮ"
      ],
      [
        "Ð±",
        "Ð°"
      ],
      [
        "ĠÐ¼",
        "ÐµÑĢÐµ"
      ],
      [
        "ĠÑĤ",
        "ÑĢÐ°Ðº"
      ],
      [
        "ĠÑĤÑĢÐ°Ðº",
        "ÑĤÑĥ"
      ],
      [
        "ĠÑģÐ¾Ð±",
        "ÑģÑĤÐ²ÐµÐ½"
      ],
      [
        "Ð¾Ð²Ð°",
        "Ð»"
      ],
      [
        "Ð»Ð°",
        "Ð³"
      ],
      [
        "ĠÐ±",
        "Ð°"
      ],
      [
        "Ð²Ð°",
        "ÐµÑĤ"
      ],
      [
        "ÑģÐº",
        "Ð¾Ð¹"
      ],
      [
        "ĠÑĥ",
        "ÑģÑĤ"
      ],
      [
        "ĠÐ·Ð°",
        "Ñī"
      ],
      [
        "Ð²Ð»Ñı",
        "ÐµÑĤ"
      ],
      [
        "Ð½",
        "ÐµÐ½Ð¸Ñı"
      ],
      [
        "Ðµ",
        "Ð»Ð¸"
      ],
      [
        "Ð",
        "Ľ"
      ],
      [
        "ÑĢ",
        "Ð³"
      ],
      [
        "ĠÐ½Ð°",
        "ÑħÐ¾Ð´"
      ],
      [
        "Ð»ÑĮ",
        "ÑĨÐ°"
      ],
      [
        "ĠÐ´",
        "Ð¾Ð»"
      ],
      [
        "Ñı",
        "ÑĤÑĮ"
      ],
      [
        "ĠÐ½",
        "Ð¸"
      ],
      [
        "ĠÑģÐ¾",
        "Ð½"
      ],
      [
        "ĠÐ»",
        "Ñĥ"
      ],
      [
        "ÑĤÑĭ",
        "Ñħ"
      ],
      [
        "ĠÐ²Ð¾Ð·",
        "Ð²"
      ],
      [
        "Ð»",
        "ÐµÐ½Ð¸Ðµ"
      ],
      [
        "ÐµÐ½Ð¸",
        "ÐµÐ¼"
      ],
      [
        "ÑĨ",
        "ÐµÐ²"
      ],
      [
        "ĠÑĨÐ²",
        "ÐµÑĤ"
      ],
      [
        "Ð½Ðµ",
        "Ð³Ð¾"
      ],
      [
        "ĠÑĩÐ¸Ñģ",
        "Ð»Ð°"
      ],
      [
        "ÐºÐ¸",
        "Ð¹"
      ],
      [
        "ÑĢÐ¸",
        "ÑĤ"
      ],
      [
        "ĠÑģÐ¾Ð²Ð¿Ð°",
        "Ð´ÐµÐ½Ð¸Ñı"
      ],
      [
        "Ð¶Ð´",
        "Ðµ"
      ],
      [
        "ĠÐ´",
        "Ð¾Ð±"
      ],
      [
        "ĠÐ´Ð¾Ð±",
        "Ð°"
      ],
      [
        "ĠÐ¿ÑĢÐ¸",
        "Ð·Ð½Ð°"
      ],
      [
        "ĠÐ¿Ðµ",
        "ÑĢÐ¸"
      ],
      [
        "Ð¾Ð¿",
        "Ð°"
      ],
      [
        "ĠÐ¿",
        "ÑĢÐ°ÐºÑĤÐ¸"
      ],
      [
        "Ð¶Ð´Ð°",
        "ÑİÑĤ"
      ],
      [
        "Ð¾Ð¶",
        "Ð¸"
      ],
      [
        "ĠÑĥ",
        "Ð²ÐµÑĢÐµ"
      ],
      [
        "ĠÐ»Ð°",
        "Ð´Ð¾"
      ],
      [
        "ÑĤÐµ",
        "ÑĢÐ¸"
      ],
      [
        "Ñĥ",
        "Ð°"
      ],
      [
        "Ñĥ",
        "Ð¼Ð°"
      ],
      [
        "Ðµ",
        "Ñģ"
      ],
      [
        "ÑģÐºÐ°",
        "Ñı"
      ],
      [
        "ĠÐ½Ð°",
        "Ð´"
      ],
      [
        "ĠÑĥÑĤ",
        "Ð²ÐµÑĢ"
      ],
      [
        "ĠÑģ",
        "ÐºÐ°"
      ],
      [
        "ĠÐº",
        "Ð¾Ð»"
      ],
      [
        "Ð°",
        "Ð»"
      ],
      [
        "Ġ",
        "ÑĪ"
      ],
      [
        "Ñģ",
        "Ñĥ"
      ],
      [
        "ĠÐ¸Ð½",
        "ÑĤÑĥ"
      ],
      [
        "ĠÑģÐ»Ñĥ",
        "ÑĩÐ¸"
      ],
      [
        "ĠÐ¿Ð¾Ñı",
        "Ð²Ð¸"
      ],
      [
        "ĠÑį",
        "Ð½Ðµ"
      ],
      [
        "ĠÑįÐ½Ðµ",
        "ÑĢÐ³"
      ],
      [
        "ĠÐ¿Ð¾Ðº",
        "Ð¾Ð»"
      ],
      [
        "ĠÐ²Ñģ",
        "ÐµÐ¹"
      ],
      [
        "Ð½",
        "Ð½Ð¾ÑģÑĤÐ¸"
      ],
      [
        "ÑģÐºÐ¸",
        "Ñħ"
      ],
      [
        "ĠÑĤÐ¾Ð»ÐºÐ¾Ð²Ð°",
        "Ð½Ð¸Ñı"
      ],
      [
        "Ð±Ð¾",
        "ÑĢÐµ"
      ],
      [
        "ĠÐ´Ð¾Ð»",
        "Ð³"
      ],
      [
        "ĠÐ¸",
        "Ð´"
      ],
      [
        "ĠÑĥ",
        "Ð³"
      ],
      [
        "Ðµ",
        "Ðµ"
      ],
      [
        "ĠÐ±Ð¾Ð»",
        "ÐµÐµ"
      ],
      [
        "ĠÐ´Ð°",
        "ÑĤÑĭ"
      ],
      [
        "ĠÑħ",
        "ÑĢÐ°Ð½Ð¸"
      ],
      [
        "ĠÑĥÑģÐ¸Ð»Ð¸",
        "Ð²Ð°ÐµÑĤ"
      ],
      [
        "Ñħ",
        "Ð¸"
      ],
      [
        "ĠÐ»",
        "ÐµÑĤ"
      ],
      [
        "Ð°",
        "Ð»Ð¸Ð·"
      ],
      [
        "ÐµÐ¹",
        "Ð½Ð¾Ð¹"
      ],
      [
        "Ð¾Ð³Ð¸",
        "Ðµ"
      ],
      [
        "ĠÑĤÐµ",
        "ÑĩÐµÐ½Ð¸Ðµ"
      ],
      [
        "ĠÐ¿Ð¾Ð´",
        "ÑģÐºÐ°"
      ],
      [
        "Ñı",
        "Ñħ"
      ],
      [
        "ÑĨÐ¸",
        "ÑıÑħ"
      ],
      [
        "ÑĤÐ¸",
        "Ð»ÐµÑĤ"
      ],
      [
        "ĠÐ´ÐµÑģÑı",
        "ÑĤÐ¸Ð»ÐµÑĤ"
      ],
      [
        "ĠÐ¿ÐµÑĢÐµÐ´Ð°",
        "Ð²Ð°"
      ],
      [
        "ĠÐ¿ÑĢÐ¾ÑıÐ²Ð»Ñı",
        "ÐµÑĤÑģÑı"
      ],
      [
        "ĠÐ²",
        "ÐµÐº"
      ],
      [
        "ĠÐ¾Ð±ÑĢÐ°",
        "Ð·"
      ],
      [
        "ÑĪ",
        "ÐµÑģÑĤ"
      ],
      [
        "ĠÐºÐ°ÑĢ",
        "ÑĤÐ¾Ð¹"
      ],
      [
        "Ð´Ð¾",
        "Ñħ"
      ],
      [
        "ĠÐ¾ÑīÑĥÑī",
        "ÐµÐ½Ð¸Ðµ"
      ],
      [
        "ĠÑģÐ¾",
        "Ð¾ÑĢÑĥ"
      ],
      [
        "ĠÑģÐ¾Ð¾ÑĢÑĥ",
        "Ð¶ÐµÐ½Ð¸Ñı"
      ],
      [
        "ĠÐ¿ÑĢÐµ",
        "Ð¶Ð´Ðµ"
      ],
      [
        "Ñĳ",
        "Ð»ÐºÐ°"
      ],
      [
        "ĠÐ¿Ð¾Ñģ",
        "ÑĳÐ»ÐºÐ°"
      ],
      [
        "ĠÐ°",
        "ÐºÑĥ"
      ],
      [
        "ĠÐ°ÐºÑĥ",
        "ÑģÑĤÐ¸"
      ],
      [
        "ĠÑĢÐ°Ð·",
        "Ð²Ð¸"
      ],
      [
        "ĠÐ´Ð¾Ð±Ð°",
        "Ð²Ð»ÑıÐµÑĤ"
      ],
      [
        "ĠÐ²Ð½ÑĥÑĤ",
        "ÑĢÐ¸"
      ],
      [
        "ĠÐ½ÐµÐ´Ðµ",
        "Ð»Ð¸"
      ],
      [
        "ĠÐ¿Ð¾Ñģ",
        "Ð»Ð°"
      ],
      [
        "ĠÑħ",
        "Ð¾Ð»"
      ],
      [
        "Ðº",
        "Ð¾Ð¹"
      ],
      [
        "ÑĤÐ¸",
        "Ð¼Ð¾"
      ],
      [
        "Ð¾",
        "Ðµ"
      ],
      [
        "ÑģÑĤ",
        "Ñĥ"
      ],
      [
        "ÑĢÑĥ",
        "Ð´"
      ],
      [
        "ĠÐ¾Ð±ÑĬÑıÑģÐ½Ñı",
        "ÐµÑĤ"
      ],
      [
        "ĠÐ³Ð¾Ð²Ð¾",
        "ÑĢÐ¸ÑĤ"
      ],
      [
        "ÑĢÐ°",
        "Ð½"
      ],
      [
        "ĠÐŁ",
        "Ð¾"
      ],
      [
        "Ð",
        "ĺ"
      ],
      [
        "ĠÑĥ",
        "Ð´Ð°"
      ],
      [
        "ÑĩÐ¸",
        "Ð½Ð°"
      ],
      [
        "Ð¾Ð»",
        "Ð°"
      ],
      [
        "Ð¿",
        "Ð¾"
      ],
      [
        "Ð½",
        "Ð½Ð¾Ð¹"
      ],
      [
        "ÐµÐ³Ð¾",
        "ÑģÑı"
      ],
      [
        "Ð²ÑĪ",
        "ÐµÐ³Ð¾ÑģÑı"
      ],
      [
        "Ñĥ",
        "Ð½Ð°"
      ],
      [
        "ÑģÐ¸",
        "Ð¹"
      ],
      [
        "ĠÐ¼",
        "ÐµÐ½"
      ],
      [
        "ĠÑħÐ°ÑĢÐ°Ðº",
        "ÑĤÐµÑĢ"
      ],
      [
        "ĠÐ¸ÑģÐ¿Ð¾Ð»",
        "Ð½Ð¸"
      ],
      [
        "ĠÑħÐ¾Ð»",
        "Ð¼"
      ],
      [
        "ÐµÐ½",
        "ÐµÐ¼"
      ],
      [
        "ĠÐ²ÑĢÐµÐ¼",
        "ÐµÐ½ÐµÐ¼"
      ],
      [
        "Ð¾Ð¼",
        "ÐµÐ½ÑĤ"
      ],
      [
        "ĠÐ¼",
        "Ð¾Ð¼ÐµÐ½ÑĤ"
      ],
      [
        "ÑĤÐ¸",
        "ÐºÐ¸"
      ],
      [
        "ĠÑĤÐµÑħ",
        "Ð½"
      ],
      [
        "ÑĤÐµ",
        "ÑĢÐµ"
      ],
      [
        "ĠÑĢÐ°",
        "Ð±Ð¾"
      ],
      [
        "ÑĩÐ¸",
        "Ñħ"
      ],
      [
        "ĠÑĢÐ°Ð±Ð¾",
        "ÑĩÐ¸Ñħ"
      ],
      [
        "ĠÐ¿ÑĢÐ¸",
        "Ð²Ñĭ"
      ],
      [
        "ĠÐ¿ÑĢÐ¸Ð²Ñĭ",
        "Ñĩ"
      ],
      [
        "Ð¶Ð´",
        "Ñĥ"
      ],
      [
        "Ñĩ",
        "Ð½ÑĭÑħ"
      ],
      [
        "ĠÐ´ÐµÐ»Ð°",
        "Ñħ"
      ],
      [
        "Ðº",
        "ÑģÐ¸"
      ],
      [
        "ÑĤÐµÐ»ÑĮ",
        "Ð½ÑĭÐ¼"
      ],
      [
        "ĠÐ¿Ð¾Ð²",
        "ÑĤÐ¾ÑĢÑı"
      ],
      [
        "ÐµÑĢ",
        "ÑıÑĤÑĮ"
      ],
      [
        "ĠÑĤÑĢÐ°Ð´Ð¸ÑĨÐ¸",
        "Ñı"
      ],
      [
        "ĠÑģÐµ",
        "Ð±Ðµ"
      ],
      [
        "ĠÐ¿ÑĢÐ¾",
        "ÑĤÐ¸Ð²"
      ],
      [
        "Ð²Ð°",
        "ÑĤÑĮÑģÑı"
      ],
      [
        "ĠÐ±",
        "ÑĥÐ´"
      ],
      [
        "ĠÑģÐ¾",
        "Ñİ"
      ],
      [
        "Ñī",
        "Ðµ"
      ],
      [
        "ĠÑĩÐ°",
        "ÑīÐµ"
      ],
      [
        "ĠÑģÐ¾",
        "ÑģÐµÐ´"
      ],
      [
        "ĠÐ¿ÑĢÐµÐ´Ð°Ð½Ð¸Ñı",
        "Ñħ"
      ],
      [
        "Ñģ",
        "Ð¼Ð°"
      ],
      [
        "Ð»Ð¸",
        "ÑģÐ¼Ð°"
      ],
      [
        "ĠÑĤÐ°",
        "Ð»Ð¸ÑģÐ¼Ð°"
      ],
      [
        "ĠÐ¿ÑĢÐ¾Ð±ÑĥÐ¶Ð´",
        "ÐµÐ½Ð¸Ñı"
      ],
      [
        "ĠÐ¾ÑĤÐ½Ð¾ÑĪ",
        "ÐµÐ½Ð¸Ñı"
      ],
      [
        "ĠÐ´Ð°Ð²",
        "Ð½Ð¾"
      ],
      [
        "ĠÐ·Ð°Ð¿",
        "Ð¸ÑģÑĭÐ²Ð°"
      ],
      [
        "Ñĭ",
        "Ñħ"
      ],
      [
        "ÑĩÐµÑģÐºÐ¸",
        "Ðµ"
      ],
      [
        "ĠÑģÐºÑĢÑĭ",
        "ÑĤÑĭÑħ"
      ],
      [
        "ĠÑĤÑĢÐµ",
        "Ð±Ñĥ"
      ],
      [
        "ÑĢÐµÐ´",
        "ÐºÐ¾"
      ],
      [
        "Ð²ÑĪ",
        "ÐµÐ¼Ñĥ"
      ],
      [
        "Ð²ÑĪÐµÐ¼Ñĥ",
        "ÑģÑı"
      ],
      [
        "ĠÐ²Ñģ",
        "ÐµÐ³Ð¾"
      ],
      [
        "ĠÐ¿Ðµ",
        "ÑĢÐµÐ´"
      ],
      [
        "Ð²",
        "Ð»ÐµÐ½Ð¸Ðµ"
      ],
      [
        "ĠÑĩÐµÐ»Ð¾Ð²Ðµ",
        "ÑĩÐµÑģÑĤ"
      ],
      [
        "ĠÐ¼ÑĭÑģÐ»",
        "ÐµÐ½Ð½Ð¾"
      ],
      [
        "ĠÐ¿ÑĢÐ¾Ð²",
        "Ð¾Ð´"
      ],
      [
        "ĠÐ¾Ð±ÑĢÐ°",
        "Ð·Ð°"
      ],
      [
        "ĠÐ²ÑģÑĤÑĢÐµ",
        "ÑĩÐµ"
      ],
      [
        "ĠÐ¿ÐµÑĢÐ¸",
        "Ð¾Ð´"
      ],
      [
        "ĠÐ·Ð°",
        "Ð³Ð°"
      ],
      [
        "ĠÐ½Ðµ",
        "Ð¾Ð±Ñĭ"
      ],
      [
        "Ð±",
        "Ð»Ð¸"
      ],
      [
        "Ð±Ð»Ð¸",
        "Ð¶Ð°"
      ],
      [
        "ĠÐ³Ð»Ð°",
        "ÑģÐ¸ÑĤ"
      ],
      [
        "Ð¿",
        "Ð¸"
      ],
      [
        "Ð¡",
        "ÑĤÐ¾"
      ],
      [
        "Ð²",
        "Ð¾ÑĢ"
      ],
      [
        "ĠÑĥ",
        "Ð±Ðµ"
      ],
      [
        "ĠÑģÐ¸",
        "Ð»Ñĥ"
      ],
      [
        "ĠÐ²",
        "ÐµÑĢ"
      ],
      [
        "ĠÐ¾Ð´",
        "Ð½Ð¾Ð¹"
      ],
      [
        "ĠÐ²ÐµÑĢ",
        "ÑģÐ¸Ð¹"
      ],
      [
        "ĠÑĢÐ°Ñģ",
        "ÑģÐºÐ°Ð·Ð°"
      ],
      [
        "ĠÑĢÐ°ÑģÑģÐºÐ°Ð·Ð°",
        "Ð¼"
      ],
      [
        "ĠÐº",
        "Ð»Ñİ"
      ],
      [
        "ĠÐ",
        "¤"
      ],
      [
        "ĠÐ²",
        "ÑģÑı"
      ],
      [
        "ĠÑĤÐµ",
        "Ð¼"
      ],
      [
        "Ð³",
        "ÐºÐ¾"
      ],
      [
        "ĠÐ·Ð°Ñī",
        "Ð¸ÑĤ"
      ],
      [
        "ĠÐ²",
        "Ðµ"
      ],
      [
        "ĠÑį",
        "Ð¿Ð¾"
      ],
      [
        "ĠÑįÐ¿Ð¾",
        "ÑħÐ¸"
      ],
      [
        "Ð´",
        "Ð¾Ð²Ð°"
      ],
      [
        "ÑĤ",
        "Ð½"
      ],
      [
        "ĠÐ¿",
        "Ð°ÑĢ"
      ],
      [
        "ÑĤÐ½",
        "ÑĳÑĢ"
      ],
      [
        "ĠÐ¿Ð°ÑĢ",
        "ÑĤÐ½ÑĳÑĢ"
      ],
      [
        "ĠÐ¾Ð¿",
        "ÑĭÑĤÐ½ÑĭÐµ"
      ],
      [
        "ÑĪ",
        "Ð¸"
      ],
      [
        "ĠÐ¿ÑĢÐ°ÐºÑĤÐ¸",
        "ÐºÐ¸"
      ],
      [
        "Ñħ",
        "Ð°"
      ],
      [
        "Ñĭ",
        "Ðµ"
      ],
      [
        "Ð´",
        "Ð¾ÑĢÐ¾Ð²"
      ],
      [
        "ĠÐ·",
        "Ð´Ð¾ÑĢÐ¾Ð²"
      ],
      [
        "ĠÑģ",
        "ÐµÐ¼"
      ],
      [
        "Ð·Ð°",
        "Ñħ"
      ],
      [
        "Ð´",
        "Ð¾Ðº"
      ],
      [
        "ĠÑĩÐ°",
        "ÑģÑĤÐ¾"
      ],
      [
        "Ñĥ",
        "Ð±"
      ],
      [
        "ĠÑĥÐ²ÐµÑĢÐµ",
        "Ð½Ñĭ"
      ],
      [
        "ĠÐ´ÑĢÐµÐ²",
        "Ð½Ð¸Ðµ"
      ],
      [
        "ĠÐ¸Ð·",
        "Ð¼"
      ],
      [
        "Ñĩ",
        "ÐºÐ°"
      ],
      [
        "ĠÐ¾Ð±ÑĬÑıÑģÐ½Ñı",
        "ÑİÑĤ"
      ],
      [
        "Ð",
        "¥"
      ],
      [
        "ĠÐĽ",
        "ÑİÐ´"
      ],
      [
        "ĠÐ±Ð»Ð¸",
        "Ð·"
      ],
      [
        "ĠÑģÑĩÐ¸ÑĤÐ°",
        "ÑİÑĤ"
      ],
      [
        "ÑĤÐ°",
        "Ñı"
      ],
      [
        "ĠÑģÐ²",
        "Ðµ"
      ],
      [
        "ĠÐ¸Ð½ÑĤÑĥ",
        "Ð¸ÑĨÐ¸"
      ],
      [
        "ĠÑĤ",
        "Ð¾Ð³Ð¾"
      ],
      [
        "Ð²",
        "ÑĥÑī"
      ],
      [
        "Ð²ÑĥÑī",
        "Ð°Ñı"
      ],
      [
        "ÐµÐ½",
        "Ð´Ñĥ"
      ],
      [
        "ĠÑĢÐµ",
        "ÐºÐ¾Ð¼"
      ],
      [
        "ĠÑĢÐµÐºÐ¾Ð¼",
        "ÐµÐ½Ð´Ñĥ"
      ],
      [
        "ĠÐ³",
        "Ð»Ñĥ"
      ],
      [
        "ĠÐ³Ð»Ñĥ",
        "Ð±"
      ],
      [
        "ĠÑģÐ²",
        "Ð¾"
      ],
      [
        "ÐµÐ½Ð½Ð¾",
        "ÑģÑĤÑĮ"
      ],
      [
        "Ðº",
        "Ð¾Ð²"
      ],
      [
        "ĠÑįÐ½ÐµÑĢÐ³",
        "Ð¸"
      ],
      [
        "ÑĢÐ°",
        "Ð¶"
      ],
      [
        "Ð½Ð¸",
        "Ð¸"
      ],
      [
        "ĠÑģÑĤÐ¾",
        "ÑĢÐ¾Ð½Ð½Ð¸ÐºÐ¸"
      ],
      [
        "Ð´",
        "ÐµÐ½Ð¸Ðµ"
      ],
      [
        "ĠÐ³",
        "ÑĥÑīÐµ"
      ],
      [
        "ĠÐºÐ°",
        "Ð¶Ð´Ñĭ"
      ],
      [
        "ĠÐ½Ð°",
        "ÑģÑĤÐ¾Ñı"
      ],
      [
        "ĠÐ½Ð°ÑģÑĤÐ¾Ñı",
        "ÑĤÐµÐ»ÑĮÐ½Ð¾"
      ],
      [
        "Ð¾Ð²Ð°",
        "ÑĢÐ¸"
      ],
      [
        "ĠÑĥÐ³",
        "Ð¾Ð²Ð°ÑĢÐ¸"
      ],
      [
        "Ð»Ð°",
        "Ð³Ð°"
      ],
      [
        "ĠÐ¿ÑĢÐµÐ´",
        "Ð»Ð°Ð³Ð°"
      ],
      [
        "ĠÑģÐµÑĢÐ´",
        "ÑĨ"
      ],
      [
        "ĠÐ¼",
        "Ð¸"
      ],
      [
        "Ðĵ",
        "Ð°Ð´Ð°"
      ],
      [
        "Ñı",
        "Ð³ÐºÐ¾"
      ],
      [
        "ĠÐ¼",
        "ÑıÐ³ÐºÐ¾"
      ],
      [
        "Ð",
        "Ĳ"
      ],
      [
        "Ð²ÑĪ",
        "Ð¸Ñħ"
      ],
      [
        "ĠÐ²",
        "Ð¸"
      ],
      [
        "ÐµÐ²",
        "Ð¾Ð¹"
      ],
      [
        "Ð½",
        "Ð¾Ð³Ð¸Ðµ"
      ],
      [
        "ĠÐľ",
        "Ð½Ð¾Ð³Ð¸Ðµ"
      ],
      [
        "ĠÐŁ",
        "ÑĢÐ°ÐºÑĤÐ¸ÐºÑĥÑİÑīÐ¸Ðµ"
      ],
      [
        "ĠÐ",
        "£"
      ],
      [
        "ĠÐ³Ð»ÑĥÐ±",
        "Ð¾Ðº"
      ],
      [
        "ĠÐĽÑİÐ´",
        "Ð¸"
      ],
      [
        "Ð²Ð°",
        "Ð»Ð¾Ð¼"
      ],
      [
        "ĠÐ¿ÑĢÐµÐ´",
        "ÑģÑĤÐ°Ð²Ð¸ÑĤÐµÐ»Ñı"
      ],
      [
        "ĠÐ´",
        "Ð¾Ð²ÐµÑĢÐ¸ÑĤÑĮ"
      ],
      [
        "ĠÐ´Ð¾Ð²ÐµÑĢÐ¸ÑĤÑĮ",
        "ÑģÑı"
      ],
      [
        "ÐµÑĢ",
        "Ð¾Ð¼"
      ],
      [
        "ĠÑįÐ½ÐµÑĢÐ³Ð¸",
        "Ð¸"
      ],
      [
        "ĠÐ²Ñĭ",
        "Ñģ"
      ],
      [
        "Ġ",
        "1"
      ],
      [
        "ĠÑı",
        "ÑĢ"
      ],
      [
        "ĠÐļ",
        "Ð»Ð°"
      ],
      [
        "Ð½",
        "Ð½ÑĭÐ¼"
      ],
      [
        "ĠÐ°",
        "Ðº"
      ],
      [
        "ĠÐ³",
        "Ð¾"
      ],
      [
        "Ð°",
        "ÑģÑĮ"
      ],
      [
        "ÑĢ",
        "Ñı"
      ],
      [
        "ĠÐļ",
        "Ð¾Ð½"
      ],
      [
        "Ñĥ",
        "ÑĩÐ¸"
      ],
      [
        "ÑģÑĤ",
        "ÑıÐ¼Ð¸"
      ],
      [
        "Ðº",
        "Ð¾Ð»Ð°"
      ],
      [
        "ĠÐ½Ð°",
        "ÑĩÐ¸Ð½Ð°"
      ],
      [
        "Ð¸",
        "Ð·"
      ],
      [
        "Ð¸",
        "Ð»ÑĮ"
      ],
      [
        "ÑĦ",
        "Ð»Ð¸"
      ],
      [
        "ĠÐºÐ¾Ð½",
        "ÑĦÐ»Ð¸"
      ],
      [
        "Ð²Ð»Ñı",
        "ÑİÑĤ"
      ],
      [
        "ÑħÐ°",
        "ÑĢÐ°"
      ],
      [
        "Ð¾",
        "Ð½Ðµ"
      ],
      [
        "Ð¸",
        "Ð²Ð°ÑİÑĤ"
      ],
      [
        "Ð¸",
        "ÐºÑģÐ¸"
      ],
      [
        "Ñı",
        "Ð»Ð¾ÑģÑĮ"
      ],
      [
        "Ðº",
        "Ð»Ð°Ð´ÑĭÐ²Ð°ÐµÑĤÑģÑı"
      ],
      [
        "ĠÐ¿",
        "Ð¾Ð·"
      ],
      [
        "Ð´",
        "Ð½Ð¸Ð¼"
      ],
      [
        "ĠÐ²",
        "ÐµÑĩ"
      ],
      [
        "Ñİ",
        "Ð´Ð°"
      ],
      [
        "Ð¹",
        "Ð¾Ð½Ðµ"
      ],
      [
        "ĠÐ´",
        "Ð»Ð¸"
      ],
      [
        "Ð¾Ð´",
        "Ð¾Ð±"
      ],
      [
        "Ð¿",
        "ÑĤÐ¸ÐºÐ¸"
      ],
      [
        "ĠÑĥ",
        "ÐºÐ»Ð°Ð´ÑĭÐ²Ð°ÐµÑĤÑģÑı"
      ],
      [
        "ĠÐ½Ðµ",
        "Ð²Ð¸Ð´"
      ],
      [
        "ĠÑį",
        "Ð½ÑĤÑĥÐ·Ð¸Ð°ÑģÑĤÑĭ"
      ],
      [
        "Ð²Ð¸",
        "Ð´Ðµ"
      ],
      [
        "ÐµÑĢ",
        "Ð½Ð¾"
      ],
      [
        "ĠÑĢÐ°",
        "Ð½ÑĮ"
      ],
      [
        "ĠÑĢÐ°",
        "Ð¹Ð¾Ð½Ðµ"
      ],
      [
        "Ð¸Ð¼",
        "Ð¾Ð³Ð¾"
      ],
      [
        "ÑİÐ´",
        "ÐµÐ½Ð¸Ðµ"
      ],
      [
        "ĠÐŁ",
        "Ð¾Ð´Ð¾Ð±"
      ],
      [
        "ĠÐ¡",
        "Ð²Ðµ"
      ],
      [
        "Ð³Ð°",
        "Ð»ÑģÑı"
      ],
      [
        "Ð¸ÑĢÐ°",
        "ÑĤÑĮ"
      ],
      [
        "ÐºÐµ",
        "Ð¿ÑĤÐ¸ÐºÐ¸"
      ],
      [
        "ÑĢÑĥÐ³",
        "Ð¸"
      ],
      [
        "Ð±Ð»",
        "ÑİÐ´ÐµÐ½Ð¸Ðµ"
      ],
      [
        "ĠÐĿ",
        "ÐĽ"
      ],
      [
        "ÑĤÐµÑĢ",
        "Ð²Ð°Ð»Ð¾Ð¼"
      ],
      [
        "ĠÐ¾Ð±ÑĬÑıÑģ",
        "Ð½ÐµÐ½Ð¸Ñı"
      ],
      [
        "ĠÐ½Ð°Ð±Ð»",
        "ÑİÐ´Ð°"
      ],
      [
        "ĠÐ¸Ð½",
        "ÑĤÐµÑĢÐ²Ð°Ð»Ð¾Ð¼"
      ],
      [
        "ĠÑģÐ»ÑĥÑĩÐ°",
        "Ð¸"
      ],
      [
        "ĠÐ¾Ð±ÑĬÐµÐº",
        "ÑĤ"
      ],
      [
        "ĠÐ¿ÑĢÐ¸Ð¼",
        "ÐµÑĢÐ½Ð¾"
      ],
      [
        "ĠÑĦ",
        "Ð¸ÐºÑģÐ¸"
      ],
      [
        "ÐĿÐ°",
        "Ð±Ð»ÑİÐ´ÐµÐ½Ð¸Ðµ"
      ],
      [
        "ĠÑģÐ¾Ð±",
        "Ð¸ÑĢÐ°ÑĤÑĮ"
      ],
      [
        "ĠÐ¸Ð¼",
        "ÐµÐ½Ð¸"
      ],
      [
        "ĠÐ´Ð²Ð¸",
        "Ð¶ÐµÐ½Ð¸Ñı"
      ],
      [
        "ĠÐ´Ð²Ð¸",
        "Ð³Ð°Ð»ÑģÑı"
      ],
      [
        "ĠÐ½Ð°Ð±Ð»ÑİÐ´",
        "ÐµÐ½Ð¸Ñı"
      ],
      [
        "ÑĢÐ¾Ð²Ð°",
        "Ð»Ð¸ÑģÑĮ"
      ],
      [
        "ĠÐ½Ð°ÑģÑĤÐ°",
        "Ð¸Ð²Ð°ÑİÑĤ"
      ],
      [
        "ĠÐ¾ÑĩÐµÐ²Ð¸Ð´",
        "ÑĨÐ°"
      ],
      [
        "ĠÐ¾ÑĩÐµÐ²Ð¸Ð´",
        "ÑĨÐµÐ²"
      ],
      [
        "ĠÐ¾Ð´Ð½Ð°",
        "ÐºÐ¾"
      ],
      [
        "ĠÐ¾Ðº",
        "ÑĢÑĥÐ³Ð¸"
      ],
      [
        "ĠÑģÐ»ÑĥÑĩÐ¸",
        "Ð²ÑĪÐµÐ³Ð¾ÑģÑı"
      ],
      [
        "ĠÐ¿Ð¾ÑıÐ²Ð¸",
        "Ð»ÑģÑı"
      ],
      [
        "ĠÐ¼ÐµÐ½",
        "ÑıÐ»Ð¾ÑģÑĮ"
      ],
      [
        "ĠÐ¿Ð¾Ð·",
        "Ð´Ð½Ð¸Ð¼"
      ],
      [
        "ĠÐ²ÐµÑĩ",
        "ÐµÑĢÐ¾Ð¼"
      ],
      [
        "ĠÐ´Ð»Ð¸",
        "Ð»Ð¾ÑģÑĮ"
      ],
      [
        "ĠÐ½ÐµÐ²Ð¸Ð´",
        "Ð¸Ð¼Ð¾Ð³Ð¾"
      ],
      [
        "Ð²Ð¸Ð´Ðµ",
        "ÑĨ"
      ],
      [
        "ĠÑĢÐ°Ð½ÑĮ",
        "ÑĪÐµ"
      ],
      [
        "ĠÐŁÐ¾Ð´Ð¾Ð±",
        "Ð½ÑĭÐµ"
      ],
      [
        "ĠÐ¡Ð²Ðµ",
        "ÑĩÐµÐ½Ð¸Ðµ"
      ],
      [
        "ĠÐĿÐĽ",
        "Ðŀ"
      ],
      [
        "ĠÑĦÐ¸ÐºÑģÐ¸",
        "ÑĢÐ¾Ð²Ð°Ð»Ð¸ÑģÑĮ"
      ],
      [
        "Ñĳ",
        "ÑĢÑĭ"
      ],
      [
        "ĠÐ²",
        "Ð¾Ñģ"
      ],
      [
        "ĠÐ½Ðµ",
        "Ð¾Ð¶Ð¸"
      ],
      [
        "ĠÐ½ÐµÐ¾Ð¶Ð¸",
        "Ð´Ð°"
      ],
      [
        "Ð»Ð°",
        "Ð½"
      ],
      [
        "ĠÐ¿",
        "Ð¸ÑĤÑĮ"
      ],
      [
        "Ñĩ",
        "ÐºÐµ"
      ],
      [
        "ĠÑģ",
        "Ð»Ðµ"
      ],
      [
        "ĠÑģ",
        "ÑĤÐµÐ½"
      ],
      [
        "ĠÐ¾",
        "ÑģÑĤÐ°Ð²Ð¸"
      ],
      [
        "Ð´Ð°",
        "ÑİÑĤ"
      ],
      [
        "ĠÐ¿Ð¾",
        "ÑĤÐ¾Ð¼"
      ],
      [
        "Ñį",
        "ÑĤ"
      ],
      [
        "ĠÐ¿ÑĢÐ¸",
        "Ð´Ð°ÑİÑĤ"
      ],
      [
        "ÑĦ",
        "ÐµÐ¹Ð½Ð¾Ð¹"
      ],
      [
        "Ð¾Ð¶",
        "ÐµÐ½Ð½Ð¾Ð¹"
      ],
      [
        "ĠÐ¿ÑĢÐ¾",
        "ÑģÑĤÑĥ"
      ],
      [
        "ĠÐºÐ¾",
        "ÑĦÐµÐ¹Ð½Ð¾Ð¹"
      ],
      [
        "Ð½Ñĥ",
        "ÑĤÑĮ"
      ],
      [
        "ÑİÑī",
        "ÐµÐ³Ð¾"
      ],
      [
        "Ð¿Ð°",
        "ÐµÑĤ"
      ],
      [
        "ĠÑĢÑĥ",
        "ÑĩÐºÐµ"
      ],
      [
        "ĠÑĢÐ°Ñģ",
        "Ð¿Ð¾Ð»"
      ],
      [
        "ĠÑģÐ°",
        "ÑħÐ°ÑĢÐ°"
      ],
      [
        "ĠÐ³Ð°Ð´Ð°",
        "Ð½Ð¸Ñı"
      ],
      [
        "ĠÐ¼Ñĭ",
        "ÑĤÑĮ"
      ],
      [
        "Ð´Ñĥ",
        "ÑİÑīÐµÐ³Ð¾"
      ],
      [
        "Ð¾ÑĤ",
        "Ð´Ð¾Ñħ"
      ],
      [
        "ĠÑģÐ°Ð¼",
        "Ð¾Ð³Ð¾"
      ],
      [
        "ĠÑĥÑĤ",
        "ÑĢÐ°"
      ],
      [
        "ÑģÑĤÐ²ÐµÐ½",
        "Ð½ÑĭÐµ"
      ],
      [
        "ĠÐºÑĢÐ°",
        "Ñı"
      ],
      [
        "ĠÑĤÐ¾Ñĩ",
        "Ð½Ð¾Ð³Ð¾"
      ],
      [
        "ĠÑĩÐ¸ÑĤÐ°",
        "ÑİÑĤ"
      ],
      [
        "ĠÐ½Ð°Ð¿Ð¾Ð¼Ð¸Ð½Ð°",
        "ÑİÑīÐ¸Ð¹"
      ],
      [
        "ĠÑģÐ¸Ð»Ñĥ",
        "ÑįÑĤ"
      ],
      [
        "ÐĵÐ°Ð´Ð°",
        "Ð½Ð¸Ðµ"
      ],
      [
        "ĠÑģÐ»Ðµ",
        "Ð´ÑĥÑİÑīÐµÐ³Ð¾"
      ],
      [
        "ĠÑģÑĤÐµÐ½",
        "ÐºÐ°Ñħ"
      ],
      [
        "ĠÐ¾ÑģÑĤÐ°Ð²Ð¸",
        "Ð²"
      ],
      [
        "ĠÐ¿Ð¾ÑĤÐ¾Ð¼",
        "ÑģÑĤÐ²ÐµÐ½Ð½ÑĭÐµ"
      ],
      [
        "ĠÐ¿ÑĢÐ¾ÑģÑĤÑĥ",
        "Ð¿Ð°ÐµÑĤ"
      ],
      [
        "ĠÑĢÐ°ÑģÐ¿Ð¾Ð»",
        "Ð¾Ð¶ÐµÐ½Ð½Ð¾Ð¹"
      ],
      [
        "Ð¾ÑĤÐ´Ð¾Ñħ",
        "Ð½ÑĥÑĤÑĮ"
      ],
      [
        "Ñĥ",
        "ÑĩÐ°"
      ],
      [
        "ĠÐ½",
        "Ð¸Ñħ"
      ],
      [
        "ĠÐ¸Ð·",
        "ÑĥÑĩÐ°"
      ],
      [
        "ĠÑĢÐµ",
        "ÑĩÑĮ"
      ],
      [
        "ĠÐ¿Ð¾Ð´Ð¾Ð±",
        "Ð½ÑĭÐ¼"
      ],
      [
        "ĠÐ¾Ð´",
        "Ð½Ð¸"
      ],
      [
        "ĠÑĢÐ°Ñģ",
        "ÑħÐ¾Ð´ÑıÑĤ"
      ],
      [
        "ĠÑģÑĤÐ°",
        "Ð½ÐµÑĤ"
      ],
      [
        "ĠÐ¼Ð½",
        "ÐµÐ½Ð¸ÑıÑħ"
      ],
      [
        "ÑĢÐ¾ÑĩÐµÑģÑĤ",
        "Ð²Ð¾"
      ],
      [
        "ĠÐ¸Ð½",
        "ÑĤÐµÑĢÐµ"
      ],
      [
        "ĠÐ¿ÑĢÐµÐ´Ð°",
        "Ð½Ð¸Ñİ"
      ],
      [
        "ÐŁÑĢÐ¾",
        "ÑĢÐ¾ÑĩÐµÑģÑĤÐ²Ð¾"
      ],
      [
        "ĠÐ¿ÑĢÐ¾ÑĢÐ¾ÑĩÐµÑģÑĤÐ²Ð°",
        "Ð¼"
      ],
      [
        "ĠÑĤÐµÐº",
        "ÑģÑĤ"
      ],
      [
        "ĠÑĤÐµÐº",
        "ÑģÑĤÑĭ"
      ],
      [
        "ĠÐ´ÑĢÑĥÐ³",
        "Ð¸Ðµ"
      ],
      [
        "ĠÐ½Ð°ÑħÐ¾Ð´",
        "Ð¸ÑĤÑĮ"
      ],
      [
        "ĠÐ¸Ð´",
        "ÑĳÑĤ"
      ],
      [
        "ĠÐ¿ÐµÑĢÐµÐ´Ð°Ð²Ð°",
        "Ð²ÑĪÐµÐ¼ÑĥÑģÑı"
      ],
      [
        "ĠÐ¸Ð·ÑĥÑĩÐ°",
        "ÑİÑīÐ¸Ðµ"
      ],
      [
        "ĠÑĢÐ°ÑģÑħÐ¾Ð´ÑıÑĤ",
        "ÑģÑı"
      ],
      [
        "ĠÐ¸Ð½ÑĤÐµÑĢÐµ",
        "Ñģ"
      ],
      [
        "ÑĩÐ°",
        "ÐµÑĤÑģÑı"
      ],
      [
        "ĠÐ¿ÑĢÐµÐ´",
        "Ð²Ðµ"
      ],
      [
        "ĠÐ¿Ð¾Ð»",
        "Ð½Ð¾Ð¹"
      ],
      [
        "ĠÐ¿Ð¾Ð´Ð¾Ð±",
        "Ð½Ð¾Ðµ"
      ],
      [
        "ĠÐ¿Ð¾Ð²",
        "ÑģÑĤÑĢÐµ"
      ],
      [
        "ÑīÐ°",
        "ÐµÑĤ"
      ],
      [
        "ĠÑģÐ¾Ð²Ð¿Ð°",
        "Ð´ÐµÐ½Ð¸Ðµ"
      ],
      [
        "ĠÐ¸ÑģÐ¿Ð¾Ð»Ð½Ð¸",
        "Ð»Ð°ÑģÑĮ"
      ],
      [
        "ĠÐ¿ÑĢÐµÐ´Ð²Ðµ",
        "ÑīÐ°ÐµÑĤ"
      ],
      [
        "ĠÐ¿Ð¾Ð²ÑģÑĤÑĢÐµ",
        "ÑĩÐ°ÐµÑĤÑģÑı"
      ],
      [
        "ĠÐ¿ÑĢÐ°Ð²",
        "Ð¾Ð¹"
      ],
      [
        "Ð¿",
        "ÑĭÑĤÐ½ÑĭÐµ"
      ],
      [
        "Ðµ",
        "Ð¸Ñħ"
      ],
      [
        "Ð»",
        "Ð¾Ð¶"
      ],
      [
        "Ð´",
        "ÐµÐ½Ð¸Ð¸"
      ],
      [
        "Ð½Ð¸",
        "ÑĤÐµÐ»ÑĮÐ½ÑĭÐ¼"
      ],
      [
        "ĠÐ¸",
        "Ð¼Ðµ"
      ],
      [
        "Ð¶",
        "ÐµÑĤ"
      ],
      [
        "ĠÐ¿Ð¾",
        "ÑĤÐµÐ½"
      ],
      [
        "ĠÐ¾Ð±",
        "ÐµÐ¸Ñħ"
      ],
      [
        "Ð¾Ð¶",
        "Ð½Ð¾Ð¹"
      ],
      [
        "ĠÐ·Ð°",
        "Ð»Ð¾Ð¶"
      ],
      [
        "ÑĩÐµ",
        "Ð²Ñĭ"
      ],
      [
        "ÑĨÐ¸",
        "Ð°Ð»"
      ],
      [
        "ĠÑģÐ²",
        "ÐµÑĢÑıÑĤÑĮ"
      ],
      [
        "ÑģÑĤÐ¸",
        "Ðº"
      ],
      [
        "ĠÑħ",
        "Ð¸ÑĢÐ¾Ð¼Ð°Ð½"
      ],
      [
        "ĠÑĢÐµ",
        "Ð°Ð»Ð¸Ð·"
      ],
      [
        "ĠÑĩÐµÐ»Ð¾Ð²Ðµ",
        "Ðº"
      ],
      [
        "ĠÐ²Ñĭ",
        "ÑĢÐ°Ð¶"
      ],
      [
        "ĠÑĥÑģÐ¸Ð»Ð¸",
        "ÑıÐ¼Ð¸"
      ],
      [
        "ĠÑĢÐ°ÑģÑģÐºÐ°",
        "Ð¶ÐµÑĤ"
      ],
      [
        "Ð¸ÑĢÐ¾Ð¼Ð°Ð½",
        "ÑĤÑĭ"
      ],
      [
        "Ð¸ÑĢÐ¾Ð¼Ð°Ð½",
        "ÑĤÐ¸Ñı"
      ],
      [
        "ĠÐ¥",
        "Ð¸ÑĢÐ¾Ð¼Ð°Ð½ÑĤÑĭ"
      ],
      [
        "Ð¾Ð¿Ð¾Ð»",
        "Ð½Ð¸ÑĤÐµÐ»ÑĮÐ½ÑĭÐ¼"
      ],
      [
        "Ð¾Ð¿Ð¾Ð»",
        "Ð¾Ð¶Ð½Ð¾Ð¹"
      ],
      [
        "ĠÑħÐ°ÑĢÐ°Ðº",
        "ÑĤÐµÑĢÐ¸"
      ],
      [
        "ĠÑĩÐ¸ÑĤÐ°",
        "ÐµÑĤÑģÑı"
      ],
      [
        "ĠÑĢÐ¾Ð¶",
        "Ð´ÐµÐ½Ð¸Ð¸"
      ],
      [
        "ĠÑģÐ¾Ð±ÑģÑĤÐ²ÐµÐ½",
        "Ð½ÑĭÐ¼Ð¸"
      ],
      [
        "ĠÐ¿ÑĢÐ¸Ð·Ð½Ð°",
        "ÐºÐ¾Ð¼"
      ],
      [
        "ĠÐ»Ð°Ð´Ð¾",
        "Ð½ÐµÐ¹"
      ],
      [
        "ĠÐ¿ÑĢÐ¾ÑĤÐ¸Ð²",
        "Ð¾Ð¿Ð¾Ð»Ð¾Ð¶Ð½Ð¾Ð¹"
      ],
      [
        "ĠÐºÐ»Ñİ",
        "ÑĩÐµÐ²Ñĭ"
      ],
      [
        "Ð¥",
        "Ð¸ÑĢÐ¾Ð¼Ð°Ð½ÑĤÐ¸Ñı"
      ],
      [
        "ĠÐ¸Ð¼Ðµ",
        "ÐµÑĤ"
      ],
      [
        "ĠÐ¿Ð¾ÑĤÐµÐ½",
        "ÑĨÐ¸Ð°Ð»"
      ],
      [
        "ĠÐ·Ð°Ð»Ð¾Ð¶",
        "ÐµÐ½Ð½ÑĭÐ¹"
      ],
      [
        "ĠÑħÐ¸ÑĢÐ¾Ð¼Ð°Ð½",
        "ÑĤÐ¾Ð²"
      ],
      [
        "ĠÑĢÐµÐ°Ð»Ð¸Ð·",
        "Ð¾Ð²Ð°Ð»"
      ],
      [
        "ĠÐ²ÑĭÑĢÐ°Ð¶",
        "ÐµÐ½Ð½Ð¾ÑģÑĤÑĮ"
      ],
      [
        "ĠÑħÐ°ÑĢÐ°ÐºÑĤÐµÑĢÐ¸",
        "ÑģÑĤÐ¸Ðº"
      ],
      [
        "ĠÐºÐ»ÑİÑĩÐµÐ²Ñĭ",
        "Ñħ"
      ],
      [
        "ĠÐ»",
        "ÐµÐ²Ð¾Ð¹"
      ],
      [
        "ĠÐ¢",
        "Ðµ"
      ],
      [
        "Ðµ",
        "ÐºÐ°Ñħ"
      ],
      [
        "Ð½",
        "ÐµÐ½Ð½ÑĭÐ¹"
      ],
      [
        "Ñı",
        "Ð¼"
      ],
      [
        "ĠÐ¿",
        "ÑĢÐ°ÐºÑĤÐ¸ÐºÑĥ"
      ],
      [
        "Ð²",
        "ÑĤÐ¾Ð¼"
      ],
      [
        "Ð²",
        "ÐµÑģÑĤÐ¸"
      ],
      [
        "Ñĩ",
        "ÐµÑĤÐ°"
      ],
      [
        "Ñĩ",
        "Ð½Ð¾Ð¼Ñĥ"
      ],
      [
        "ĠÑģ",
        "Ð¸ÑĤ"
      ],
      [
        "ĠÑģ",
        "ÑĥÐ¼"
      ],
      [
        "ĠÐ¾",
        "Ð½Ð¾"
      ],
      [
        "ĠÑĩ",
        "ÐµÐºÐ°Ñħ"
      ],
      [
        "Ð¾Ð»",
        "Ð¾Ð³"
      ],
      [
        "Ð½Ð°",
        "ÑĩÐ½Ð¾Ð¼Ñĥ"
      ],
      [
        "Ð´Ð°",
        "ÑĳÑĤ"
      ],
      [
        "Ð¾Ð±",
        "Ð¸Ð»ÑĮ"
      ],
      [
        "ĠÐ¼",
        "ÐµÐ»"
      ],
      [
        "ĠÐ½Ðµ",
        "ÑģÑĥ"
      ],
      [
        "ĠÐ¾Ð±",
        "ÑīÐµÐ½Ð¸Ñı"
      ],
      [
        "ĠÐ¿ÑĢÐ¸",
        "Ð²ÐµÑģÑĤÐ¸"
      ],
      [
        "ÑĦ",
        "ÑĢÑĭ"
      ],
      [
        "Ð¾Ð¶",
        "Ð¸ÑĤÑĮ"
      ],
      [
        "ĠÐ°",
        "Ð²ÑĤÐ¾Ð¼"
      ],
      [
        "ĠÐ·Ð°",
        "Ð´Ð°ÑĳÑĤ"
      ],
      [
        "ĠÐ¿ÑĢÐ¾",
        "ÑĦÐµ"
      ],
      [
        "ĠÑģÐ¾",
        "ÑĩÐµÑĤÐ°"
      ],
      [
        "ĠÑħ",
        "Ð¾ÑĢÐ¾"
      ],
      [
        "ĠÐ¿Ð¾Ð»",
        "ÑĥÑĩÐ¸"
      ],
      [
        "ĠÐ¾Ð´",
        "Ð½Ð¾Ð·"
      ],
      [
        "ĠÐ¶Ð¸Ð·",
        "Ð½ÐµÐ½Ð½ÑĭÐ¹"
      ],
      [
        "ĠÐ¾Ð±ÑĢÐ°",
        "ÑīÐ°"
      ],
      [
        "ĠÑĩÐ¸Ñģ",
        "Ð»Ñĥ"
      ],
      [
        "ĠÐ¾Ñģ",
        "Ð½Ð¾Ð²"
      ],
      [
        "Ð²Ð»Ñı",
        "ÑİÑĤÑģÑı"
      ],
      [
        "ĠÐ²Ñĭ",
        "Ð±Ð¾ÑĢÐµ"
      ],
      [
        "ĠÑģÐ»",
        "Ð¾Ð¶Ð¸ÑĤÑĮ"
      ],
      [
        "ĠÐĿ",
        "ÑĥÐ¼ÐµÑĢ"
      ],
      [
        "ĠÐ»ÑİÐ´",
        "ÑıÐ¼"
      ],
      [
        "ÐºÑĤ",
        "Ð½ÑĭÑħ"
      ],
      [
        "ĠÑģÐ»ÑĥÑĩÐ°",
        "Ð¹Ð½Ñĭ"
      ],
      [
        "ĠÑı",
        "Ð²Ð»ÑıÑİÑĤÑģÑı"
      ],
      [
        "ĠÐ´Ð¾Ð¼",
        "Ð¾Ð²"
      ],
      [
        "ĠÐ¿Ð¾Ñı",
        "Ð²Ð»ÐµÐ½Ð¸Ðµ"
      ],
      [
        "ĠÑĨÐ¸",
        "ÑĦÑĢÑĭ"
      ],
      [
        "ÑģÑģÐ¸",
        "Ð¸"
      ],
      [
        "ĠÐ¿Ð¾Ð²ÑģÐµÐ´Ð½ÐµÐ²",
        "Ð½Ð¾Ð¹"
      ],
      [
        "ĠÐ¿Ð¾Ð²ÑģÐµÐ´Ð½ÐµÐ²",
        "Ð½ÑĭÑħ"
      ],
      [
        "ĠÐ½Ð°Ð¿Ð¾Ð¼Ð¸Ð½Ð°",
        "Ð½Ð¸ÐµÐ¼"
      ],
      [
        "ĠÑĢÐ¾Ð¶",
        "Ð´ÐµÐ½Ð¸Ñı"
      ],
      [
        "ĠÐ½ÑĥÐ¼ÐµÑĢ",
        "Ð¾Ð»Ð¾Ð³Ð¸"
      ],
      [
        "ĠÐ½ÑĥÐ¼ÐµÑĢ",
        "Ð¾Ð»Ð¾Ð³"
      ],
      [
        "ĠÐŃ",
        "ÑĤÐ¾"
      ],
      [
        "ĠÐºÑĢÑĥÐ³",
        "Ðµ"
      ],
      [
        "ÑĥÐ°",
        "ÑĨÐ¸ÑıÑħ"
      ],
      [
        "ĠÐ²ÐµÐº",
        "ÑĤÐ¾ÑĢ"
      ],
      [
        "ĠÐ¿ÑĢÐ¸Ð²ÑĭÑĩ",
        "ÐºÐ°Ñħ"
      ],
      [
        "ĠÐ¿Ð¾Ð²ÑĤÐ¾ÑĢÑı",
        "ÑİÑīÐµÐµÑģÑı"
      ],
      [
        "ĠÑģÐ¾Ñİ",
        "Ð·Ð°Ñħ"
      ],
      [
        "ĠÐ¿Ð°ÑĢÑĤÐ½ÑĳÑĢ",
        "ÑģÐºÐ¸Ñħ"
      ],
      [
        "ĠÐºÐ¾Ð½ÑĦÐ»Ð¸",
        "ÐºÑĤÐ½ÑĭÑħ"
      ],
      [
        "ĠÐ¿ÑĢÐ°ÐºÑĤÐ¸ÐºÑĥ",
        "ÑİÑīÐ¸Ñħ"
      ],
      [
        "ĠÑģÐ¸ÑĤ",
        "ÑĥÐ°ÑĨÐ¸ÑıÑħ"
      ],
      [
        "ĠÑģÑĥÐ¼",
        "Ð¼Ñĥ"
      ],
      [
        "Ð¾Ð±Ð¸Ð»ÑĮ",
        "Ð½ÑĭÑħ"
      ],
      [
        "ĠÐ¼ÐµÐ»",
        "ÐºÐ¸Ñħ"
      ],
      [
        "ĠÐ½ÐµÑģÑĥ",
        "ÑĤ"
      ],
      [
        "ĠÐ°Ð²ÑĤÐ¾Ð¼",
        "Ð¾Ð±Ð¸Ð»ÑĮÐ½ÑĭÑħ"
      ],
      [
        "ĠÐ¿ÑĢÐ¾ÑĦÐµ",
        "ÑģÑģÐ¸Ð¸"
      ],
      [
        "ĠÑģÐ¾ÑĩÐµÑĤÐ°",
        "ÐµÑĤÑģÑı"
      ],
      [
        "ĠÑħÐ¾ÑĢÐ¾",
        "ÑĪÐ¾"
      ],
      [
        "ĠÐ¿Ð¾Ð»ÑĥÑĩÐ¸",
        "ÑĤÑģÑı"
      ],
      [
        "ĠÐ¾Ð´Ð½Ð¾Ð·",
        "Ð½Ð°ÑĩÐ½Ð¾Ð¼Ñĥ"
      ],
      [
        "ĠÐ¾Ð±ÑĢÐ°ÑīÐ°",
        "ÑĤÑĮ"
      ],
      [
        "ĠÐ¾ÑģÐ½Ð¾Ð²",
        "Ð½Ð¾Ð¹"
      ],
      [
        "ĠÐĿÑĥÐ¼ÐµÑĢ",
        "Ð¾Ð»Ð¾Ð³Ð¸"
      ],
      [
        "ĠÐ½ÑĥÐ¼ÐµÑĢÐ¾Ð»Ð¾Ð³",
        "Ð¾Ð²"
      ],
      [
        "Ñģ",
        "Ð½Ð¸"
      ],
      [
        "Ñı",
        "ÑĤÐ¸"
      ],
      [
        "Ð½Ð¸",
        "ÑĤÑģÑı"
      ],
      [
        "ĠÑģ",
        "Ð½Ð¸ÑĤÑģÑı"
      ],
      [
        "Ð¼",
        "ÑıÑĤÐ¸"
      ],
      [
        "ĠÑĥ",
        "ÑĩÐ°"
      ],
      [
        "ĠÐ¿ÑĢÐ¸",
        "ÑģÐ½Ð¸"
      ],
      [
        "ĠÑģÐ¾",
        "Ð½Ð½Ð¸ÐºÐ¸"
      ],
      [
        "ÑģÑĤÐ¸",
        "ÐµÐ¼"
      ],
      [
        "ĠÐ¾Ð±ÑĢÐ°",
        "Ð·Ñĭ"
      ],
      [
        "Ð½Ð½Ð¸",
        "Ðº"
      ],
      [
        "ĠÑĩÐµÐ¼",
        "Ñĥ"
      ],
      [
        "ĠÐ¿Ð¾Ðº",
        "Ð°"
      ],
      [
        "ÑģÑģÐ¸",
        "ÑĩÐµÑģÐºÐ¸Ðµ"
      ],
      [
        "ÑİÑīÐ¸Ð¹",
        "ÑģÑı"
      ],
      [
        "ĠÐ¿Ð°",
        "Ð¼ÑıÑĤÐ¸"
      ],
      [
        "Ð¡Ð¾",
        "Ð½Ð½Ð¸Ðº"
      ],
      [
        "ĠÑĤÑĢÐ°ÐºÑĤÑĥ",
        "ÑİÑĤ"
      ],
      [
        "ĠÐ·Ð°Ð¿Ð¸ÑģÑĭÐ²Ð°",
        "Ñı"
      ],
      [
        "ĠÑģÐ²Ðµ",
        "Ð¶Ð¸"
      ],
      [
        "ĠÐļÐ»Ð°",
        "ÑģÑģÐ¸ÑĩÐµÑģÐºÐ¸Ðµ"
      ],
      [
        "ĠÑĥÑĩÐ°",
        "ÑģÑĤÐ¸ÐµÐ¼"
      ],
      [
        "ĠÐ¿ÑĢÐ¸ÑģÐ½Ð¸",
        "Ð»ÑģÑı"
      ],
      [
        "Ð°",
        "ÑģÐºÐ»Ð°"
      ],
      [
        "ĠÐº",
        "Ð»Ð¸"
      ],
      [
        "ĠÐ´",
        "Ð½Ñı"
      ],
      [
        "ÑĢÐ¸",
        "Ð¶Ð´Ñĭ"
      ],
      [
        "Ð¾Ð´",
        "Ð½Ñı"
      ],
      [
        "ÐµÐ½",
        "ÑĤÑĭ"
      ],
      [
        "ĠÑĤ",
        "ÑĢÐ¸Ð¶Ð´Ñĭ"
      ],
      [
        "ĠÐ·Ð°",
        "Ð¶Ðµ"
      ],
      [
        "ÑĢÑĭ",
        "Ð»Ð°"
      ],
      [
        "ĠÑģÐ²",
        "ÐµÑĩ"
      ],
      [
        "ÐµÐ³",
        "Ð¾Ð´Ð½Ñı"
      ],
      [
        "ĠÐ¿Ð¾Ð»",
        "ÐµÐ·"
      ],
      [
        "Â»",
        "."
      ],
      [
        "ĠÐºÐ°ÑĢ",
        "ÑĤÑĥ"
      ],
      [
        "ĠÐºÐ°ÑĢ",
        "ÑĤÑĭ"
      ],
      [
        "ĠÑĤÐ°Ðº",
        "Ð¾Ð³Ð¾"
      ],
      [
        "ĠÐ½Ð¾",
        "ÑģÐ¸ÑĤ"
      ],
      [
        "ĠÑĢÐµÑĪ",
        "ÐµÐ½Ð¸Ðµ"
      ],
      [
        "ĠÐ¢",
        "ÐµÐ¼"
      ],
      [
        "ĠÐ¾ÑģÐ¾Ð±",
        "Ð¾Ðµ"
      ],
      [
        "ĠÑĢÐ°ÑģÐºÐ»Ð°",
        "Ð´Ðµ"
      ],
      [
        "Ð¾Ð²Ð¾",
        "ÑĢÐ¸ÑĤÑĮ"
      ],
      [
        "ĠÐ¸Ð¼",
        "Ñı"
      ],
      [
        "ĠÐ¾Ð·Ð½Ð°ÑĩÐ°",
        "ÑĤÑĮ"
      ],
      [
        "ĠÑĨÐ²",
        "ÐµÑĤÐ°"
      ],
      [
        "Ðł",
        "Ð°ÑģÐºÐ»Ð°"
      ],
      [
        "ĠÐ¿ÑĢÐ¾Ð³",
        "Ð¾Ð²Ð¾ÑĢÐ¸ÑĤÑĮ"
      ],
      [
        "ĠÐ¾ÑĤÐº",
        "ÑĢÑĭÐ»Ð°"
      ],
      [
        "ĠÐºÐ¾Ð»",
        "Ð¾Ð´Ð°"
      ],
      [
        "ĠÑĢÐ°Ð·Ð²Ð¸",
        "Ð²Ð°ÑĤÑĮÑģÑı"
      ],
      [
        "ĠÐ½Ð°ÑĩÐ¸Ð½Ð°",
        "ÑİÑĤ"
      ],
      [
        "ĠÐºÐ»Ð¸",
        "ÐµÐ½ÑĤÑĭ"
      ],
      [
        "ĠÐ·Ð°Ð¶Ðµ",
        "ÑĩÑĮ"
      ],
      [
        "ĠÑģÐ²ÐµÑĩ",
        "Ñĥ"
      ],
      [
        "ĠÐ¿Ð¾Ð»ÐµÐ·",
        "Ð½Ð¾"
      ],
      [
        "ÐłÐ°ÑģÐºÐ»Ð°",
        "Ð´"
      ],
      [
        "Ð¾",
        "ÑģÐ¸ÑĤÑĮ"
      ],
      [
        "Ð½Ð¸",
        "ÑĩÐµÑģÐºÐ¸Ð¹"
      ],
      [
        "ĠÐ½Ðµ",
        "ÑĢÐµÐ´ÐºÐ¾"
      ],
      [
        "ÑĤÐ¸",
        "Ð¼"
      ],
      [
        "ĠÑį",
        "ÑĤÐ¸Ð¼"
      ],
      [
        "ĠÐ°",
        "Ð¼Ñĥ"
      ],
      [
        "Ð½Ñĥ",
        "ÑĤÐ°Ñı"
      ],
      [
        "Ð·ÑĭÐ²Ð°",
        "ÐµÑĤÑģÑı"
      ],
      [
        "ĠÑĢÑĥ",
        "Ð½Ð¸ÑĩÐµÑģÐºÐ¸Ð¹"
      ],
      [
        "ĠÑģÐ²Ñı",
        "Ð·ÑĭÐ²Ð°ÐµÑĤÑģÑı"
      ],
      [
        "ĠÑĥÑģÐ¸Ð»Ð¸",
        "ÑĤÑĮ"
      ],
      [
        "ĠÐĿ",
        "Ð¾ÑģÐ¸ÑĤÑĮ"
      ],
      [
        "ÑĥÐ½",
        "Ð¾Ð»Ð¾Ð³Ð¸"
      ],
      [
        "ĠÑģÐ¸Ð¼Ð²Ð¾Ð»",
        "Ð¾Ð¼"
      ],
      [
        "Ð¾Ð½",
        "Ð½Ð¾"
      ],
      [
        "ĠÐł",
        "ÑĥÐ½Ð¾Ð»Ð¾Ð³Ð¸"
      ],
      [
        "ĠÑĤÑĢÐ°Ð´Ð¸ÑĨÐ¸",
        "Ð¾Ð½Ð½Ð¾"
      ],
      [
        "Ðł",
        "ÑĥÐ½Ð°"
      ],
      [
        "ÑĪÐ¾",
        "ÑĩÐºÐ°"
      ],
      [
        "ĠÐ¼Ðµ",
        "ÑĪÐ¾ÑĩÐºÐ°"
      ],
      [
        "ĠÐ´ÐµÐ¹ÑģÑĤÐ²Ð¸",
        "Ðµ"
      ],
      [
        "ĠÐ¿Ð¾ÑģÐ»Ð°",
        "Ð½Ð¸Ðµ"
      ],
      [
        "ĠÐ·Ð°ÑīÐ¸ÑĤ",
        "Ð½Ð¾Ðµ"
      ],
      [
        "ĠÐ°Ð¼Ñĥ",
        "Ð»ÐµÑĤ"
      ],
      [
        "Ð»Ð¸",
        "Ð·Ð°"
      ],
      [
        "Ð²Ð¸",
        "Ð»Ð¸Ð·Ð°"
      ],
      [
        "ĠÑĨÐ¸",
        "Ð²Ð¸Ð»Ð¸Ð·Ð°"
      ],
      [
        "ĠÑĨÐ¸Ð²Ð¸Ð»Ð¸Ð·Ð°",
        "ÑĨÐ¸Ð¸"
      ],
      [
        "Ġ",
        "ÑħÐ¾Ð´ÑıÑĤ"
      ],
      [
        "Ðµ",
        "Ð¾Ð¼"
      ],
      [
        "Ð°",
        "Ð¹Ð½Ñĭ"
      ],
      [
        "ÑĢ",
        "ÑħÐµ"
      ],
      [
        "Ñĥ",
        "ÐºÐµ"
      ],
      [
        "ĠÐ¾",
        "ÑĦÐ¸ÑĨÐ¸Ð°Ð»ÑĮ"
      ],
      [
        "ÐµÑĤ",
        "ÑĢÐ¸Ñı"
      ],
      [
        "Ð½Ð°",
        "ÑĤÐ¸Ð²"
      ],
      [
        "ĠÐ½Ð°",
        "ÑĥÐºÐµ"
      ],
      [
        "ÑĤÐµ",
        "ÑĪÐµÑģÑĤ"
      ],
      [
        "Ñį",
        "Ð½ÑĤÑĥÐ·Ð¸Ð°ÑģÑĤÑĭ"
      ],
      [
        "Ð»Ðµ",
        "Ð´Ð¾Ð²Ð°"
      ],
      [
        "ĠÐ³",
        "ÐµÐ¾Ð¼"
      ],
      [
        "Ð»ÑĮ",
        "ÑĤÐµÑĢ"
      ],
      [
        "ĠÐ°",
        "ÑĢÑħÐµ"
      ],
      [
        "ĠÐ°",
        "Ð»ÑĮÑĤÐµÑĢ"
      ],
      [
        "Ð·Ð°",
        "Ð½Ð°"
      ],
      [
        "ĠÐ¶Ð¸",
        "ÑĤÑĮ"
      ],
      [
        "ĠÐ·Ð½Ð°",
        "Ð½Ð¸ÐµÐ¼"
      ],
      [
        "Ð¸Ð¼",
        "ÑĭÐµ"
      ],
      [
        "Ð¾Ð»Ð¾Ð³Ð¸",
        "Ñı"
      ],
      [
        "ÐµÐ´",
        "ÐµÐ½Ð¸Ñı"
      ],
      [
        "ĠÐ¾Ñģ",
        "Ð²Ðµ"
      ],
      [
        "ĠÑģÐ²Ñı",
        "Ð·Ð°Ð½Ð°"
      ],
      [
        "Ð²ÐµÐ½",
        "Ð½Ð¸ÐºÐ¾Ð²"
      ],
      [
        "ĠÐĽ",
        "ÐµÐ³ÐµÐ½Ð´Ð°"
      ],
      [
        "ĠÐ¿Ð¸ÑĢÐ°Ð¼Ð¸",
        "Ð´Ð°"
      ],
      [
        "ĠÑģÑĩÐ¸ÑĤÐ°",
        "ÑĤÑĮ"
      ],
      [
        "ÑĢÐ°Ð·",
        "Ð´Ð¾"
      ],
      [
        "ĠÐ¿ÑĢÐ¾Ð´Ð¾Ð»Ð¶Ð°",
        "ÐµÑĤ"
      ],
      [
        "ĠÐ·Ð½Ð°Ð½Ð¸Ñı",
        "Ñħ"
      ],
      [
        "ĠÐ·Ð½Ð°Ð½Ð¸Ñı",
        "Ð¼Ð¸"
      ],
      [
        "ĠÐŀ",
        "ÑĦÐ¸ÑĨÐ¸Ð°Ð»ÑĮ"
      ],
      [
        "ĠÐ¾ÑīÑĥÑī",
        "ÐµÐ½Ð¸ÑıÑħ"
      ],
      [
        "ĠÐ¾ÑģÐ¾Ð±ÐµÐ½Ð½Ð¾",
        "ÑģÑĤÑıÐ¼Ð¸"
      ],
      [
        "ĠÑĤÐ¾Ñĩ",
        "Ð½Ð°Ñı"
      ],
      [
        "ĠÐ½ÐµÐ¾Ð±ÑħÐ¾Ð´",
        "Ð¸Ð¼ÑĭÐµ"
      ],
      [
        "Ð¢",
        "Ð°Ð¹Ð½Ñĭ"
      ],
      [
        "ĠÐ´ÑĢÑĥÐ³",
        "Ð¾Ð¹"
      ],
      [
        "ĠÐ¾Ð±Ð»Ð°Ð´Ð°",
        "Ð»Ð¸"
      ],
      [
        "ĠÐ¿Ñĥ",
        "ÑĤÐµÑĪÐµÑģÑĤ"
      ],
      [
        "ĠÑĥÑģÑĤ",
        "Ð½ÑĭÑħ"
      ],
      [
        "ĠÐ²Ð¾Ð·Ð²",
        "ÐµÐ´ÐµÐ½Ð¸Ñı"
      ],
      [
        "ĠÑħÑĢÐ°Ð½Ð¸",
        "ÑĤ"
      ],
      [
        "ĠÐ°ÐºÑĥÑģÑĤÐ¸",
        "ÐºÐ¸"
      ],
      [
        "ĠÑĤÐµÑħÐ½",
        "Ð¾Ð»Ð¾Ð³Ð¸Ð¸"
      ],
      [
        "ĠÐ¿ÑĢÐ¾Ð²Ð¾Ð´",
        "Ð½Ð¸ÐºÐ¾Ð²"
      ],
      [
        "ĠÐ·Ð°Ð³Ð°",
        "Ð´Ð¾Ðº"
      ],
      [
        "ĠÐ½ÐµÐ¾Ð±Ñĭ",
        "ÑĩÐ½ÑĭÑħ"
      ],
      [
        "ĠÐ³Ð¾",
        "ÑĢÐ°Ð·Ð´Ð¾"
      ],
      [
        "ĠÐ¾ÑĦÐ¸ÑĨÐ¸Ð°Ð»ÑĮ",
        "Ð½Ð¾Ð¹"
      ],
      [
        "Ð½Ð°ÑĤÐ¸Ð²",
        "Ð½Ð¾Ð¹"
      ],
      [
        "Ð»ÐµÐ´Ð¾Ð²Ð°",
        "ÑĤÐµÐ»Ð¸"
      ],
      [
        "ĠÐ³ÐµÐ¾Ð¼",
        "ÐµÑĤÑĢÐ¸Ñı"
      ],
      [
        "ĠÐ°ÑĢÑħÐµ",
        "Ð¾Ð»Ð¾Ð³Ð¸Ñı"
      ],
      [
        "ĠÐ°Ð»ÑĮÑĤÐµÑĢ",
        "Ð½Ð°ÑĤÐ¸Ð²Ð½Ð¾Ð¹"
      ],
      [
        "ĠÐ¾ÑģÐ²Ðµ",
        "ÑīÐµÐ½Ð¸Ñı"
      ],
      [
        "ĠÐŀÑĦÐ¸ÑĨÐ¸Ð°Ð»ÑĮ",
        "Ð½Ð°Ñı"
      ],
      [
        "ĠÐ¿ÑĥÑĤÐµÑĪÐµÑģÑĤ",
        "Ð²ÐµÐ½Ð½Ð¸ÐºÐ¾Ð²"
      ],
      [
        "ĠÑģ",
        "ÑĬ"
      ],
      [
        "ĠÑĥ",
        "Ð·Ð½Ð°"
      ],
      [
        "ĠÐ¿ÑĢÐ¸",
        "ÐµÐ·Ð¶Ð°"
      ],
      [
        "ĠÐ¿ÑĢÐ¸",
        "ÑħÐ¾Ð´Ð¸ÑĤ"
      ],
      [
        "ĠÐºÐ°",
        "ÑģÐ°"
      ],
      [
        "ĠÐµ",
        "Ð¹"
      ],
      [
        "ĠÐ¿ÑĢÐµÐ´",
        "Ð²Ð¸Ð´"
      ],
      [
        "ĠÐ¶Ð¸",
        "Ð²ÑĥÑīÐ°Ñı"
      ],
      [
        "ĠÐ´Ð°",
        "ÑĢÐµ"
      ],
      [
        "ĠÑģÑĤÐ°",
        "Ð»Ð¸"
      ],
      [
        "ÐµÐ»Ð°",
        "ÑģÑĮ"
      ],
      [
        "ĠÑĢÐ°Ð·",
        "Ð»ÐµÑĤ"
      ],
      [
        "ĠÐ¿ÐµÑĢÐµÐ´Ð°",
        "Ð»ÑģÑı"
      ],
      [
        "ĠÐ¿ÑĢÐµÐ´ÑģÐºÐ°Ð·Ð°",
        "Ð½Ð¸Ðµ"
      ],
      [
        "ĠÐ¿ÑĢÐµÐ´ÑģÐºÐ°Ð·Ð°",
        "Ð½Ð¸Ð¹"
      ],
      [
        "ĠÑģÐ°Ð¼",
        "ÑĭÑħ"
      ],
      [
        "ĠÐ¿ÑĢÐµÐ´ÑĥÐ¿ÑĢÐµ",
        "Ð¶Ð´Ð°ÐµÑĤ"
      ],
      [
        "ĠÐ¾ÑģÑĤÐ¾ÑĢÐ¾Ð¶",
        "Ð½Ð¾ÑģÑĤÐ¸"
      ],
      [
        "ĠÐ´Ð°ÑĢ",
        "Ð¾Ð¼"
      ],
      [
        "ÐŁÑĢÐ¾",
        "ÑĢÐ¾ÑĩÐµÑģÑĤÐ²Ð°"
      ],
      [
        "ĠÐ¾Ð±Ð»Ð°Ð´Ð°",
        "ÐµÑĤ"
      ],
      [
        "ÐµÐ·Ð¶Ð°",
        "ÑİÑĤÑģÑı"
      ],
      [
        "ĠÐ¸Ð·Ð²",
        "ÐµÑģÑĤÐ½ÑĭÑħ"
      ],
      [
        "ĠÐ´ÐµÑģÑıÑĤÐ¸Ð»ÐµÑĤ",
        "Ð¸Ðµ"
      ],
      [
        "ĠÑģÐ¾ÑģÐµÐ´",
        "Ð½Ð¸Ð¼"
      ],
      [
        "ĠÑĤÑĢÐµÐ±Ñĥ",
        "ÐµÑĤ"
      ],
      [
        "ĠÑģÑĬ",
        "ÐµÐ·Ð¶Ð°ÑİÑĤÑģÑı"
      ],
      [
        "ĠÑĥÐ·Ð½Ð°",
        "ÑĤÑĮ"
      ],
      [
        "ĠÐ¿ÑĢÐ¸ÐµÐ·Ð¶Ð°",
        "ÑĤÑĮ"
      ],
      [
        "ĠÐºÐ°ÑģÐ°",
        "Ð»Ð¾ÑģÑĮ"
      ],
      [
        "ĠÐ¿ÑĢÐµÐ´Ð²Ð¸Ð´",
        "ÐµÐ½Ð¸Ñı"
      ],
      [
        "ĠÑĢÐ°Ð·Ð»ÐµÑĤ",
        "ÐµÐ»Ð°ÑģÑĮ"
      ],
      [
        "Ðµ",
        "ÑīÐ°"
      ],
      [
        "ÑĢÐ°",
        "Ð½Ñı"
      ],
      [
        "Ð»Ð¸",
        "Ðº"
      ],
      [
        "ĠÐ½Ð°",
        "ÑĢÑĥ"
      ],
      [
        "ÑĪ",
        "Ð¸ÑĤÑĮ"
      ],
      [
        "Ð¾Ð±",
        "ÑīÐµÐ½Ð¸Ñı"
      ],
      [
        "ĠÐ¾Ð±",
        "Ð»Ð¸Ðº"
      ],
      [
        "ĠÐ¿ÑĢÐ¸",
        "ÑĪÐµ"
      ],
      [
        "Ð²Ð¸",
        "Ð¶ÐµÐ½Ð¸Ñı"
      ],
      [
        "ÐµÐ¼",
        "Ð»Ñİ"
      ],
      [
        "ĠÐ¿ÑĢÐ¾",
        "ÑĤÑı"
      ],
      [
        "ĠÐ¿Ð¾Ñģ",
        "ÐµÑīÐ°"
      ],
      [
        "ÑıÑĤ",
        "ÑģÑı"
      ],
      [
        "ÑĢÐµÐ¼",
        "ÑıÑĤÑģÑı"
      ],
      [
        "ÑĳÑĢ",
        "Ð¾Ð²"
      ],
      [
        "ĠÐ¿ÐµÑĢÐµÐ´Ð°",
        "ÑĤÑĮ"
      ],
      [
        "ĠÑģÑĤ",
        "ÑĢÐµÐ¼ÑıÑĤÑģÑı"
      ],
      [
        "ĠÐ¾Ð±Ð»Ð°",
        "ÑģÑĤÐ¸"
      ],
      [
        "ĠÐºÐ¾Ð½",
        "ÑĤÐ°ÐºÑĤ"
      ],
      [
        "ĠÐ´ÐµÐ»Ð°",
        "ÑİÑĤ"
      ],
      [
        "ĠÐ¾ÑģÑĤÐ¾ÑĢÐ¾Ð¶",
        "Ð½Ð¾"
      ],
      [
        "ĠÐĹ",
        "ÐµÐ¼Ð»Ñİ"
      ],
      [
        "ĠÐĺ",
        "Ñħ"
      ],
      [
        "ÑĤÐ°ÐºÑĤ",
        "ÑĳÑĢÑĭ"
      ],
      [
        "ĠÐ·Ð²ÑĳÐ·Ð´",
        "Ð½ÑĭÑħ"
      ],
      [
        "ĠÐ¾Ð¿Ñĭ",
        "ÑĤÐ°"
      ],
      [
        "ĠÑģÐ¾Ñħ",
        "ÑĢÐ°Ð½Ñı"
      ],
      [
        "Ð»ÑĮÑĨÐ°",
        "Ñħ"
      ],
      [
        "ĠÐ¿ÐµÑĢÐµÐ´",
        "Ð²Ð¸Ð¶ÐµÐ½Ð¸Ñı"
      ],
      [
        "ĠÑĩÐµÐ»Ð¾Ð²ÐµÑĩÐµÑģÑĤ",
        "Ð²Ñĥ"
      ],
      [
        "ĠÐļÐ¾Ð½",
        "ÑĤÐ°ÐºÑĤÑĳÑĢÑĭ"
      ],
      [
        "ĠÐ½Ð°ÑĢÑĥ",
        "ÑĪÐ¸ÑĤÑĮ"
      ],
      [
        "ĠÐ¿ÑĢÐ¸ÑĪÐµ",
        "Ð»ÑĮÑĨÐ°Ñħ"
      ],
      [
        "ĠÐ¿ÑĢÐ¾ÑĤÑı",
        "Ð¶ÐµÐ½Ð¸Ð¸"
      ],
      [
        "ĠÐ¿Ð¾ÑģÐµÑīÐ°",
        "ÑİÑĤ"
      ],
      [
        "ĠÐºÐ¾Ð½ÑĤÐ°ÐºÑĤ",
        "ÑĳÑĢÐ¾Ð²"
      ],
      [
        "ĠÑģÐ¾ÑħÑĢÐ°Ð½Ñı",
        "ÐµÑĤÑģÑı"
      ],
      [
        "Ñĥ",
        "ÑĤÐ¸Ð¼Ð¾"
      ],
      [
        "Ñĩ",
        "ÑĪÐµ"
      ],
      [
        "ÑĢÐ¸",
        "ÑıÑĤ"
      ],
      [
        "ÑĢÐ¸",
        "Ð±Ð»Ð¸Ð¶Ð°"
      ],
      [
        "Ð¶",
        "ÐµÑĤÑģÑı"
      ],
      [
        "ĠÐ¿Ð¾",
        "Ñį"
      ],
      [
        "ÑĤÐ¸",
        "Ð²ÐµÐ½"
      ],
      [
        "ĠÑį",
        "ÑĤÐ¾Ð¹"
      ],
      [
        "ĠÐ³",
        "Ð¾ÑĢÐ¾"
      ],
      [
        "ĠÐ¿ÑĢÐ¾",
        "ÑħÐ¾Ð´Ð¸ÑĤ"
      ],
      [
        "ÑĩÐµ",
        "ÑģÐºÐ°Ñı"
      ],
      [
        "ÑģÐº",
        "Ð¾Ð¿Ð°"
      ],
      [
        "Ð¾Ð¿",
        "ÑĢÐ¸ÑıÑĤ"
      ],
      [
        "ĠÐŁ",
        "ÑĢÐ¸Ð±Ð»Ð¸Ð¶Ð°"
      ],
      [
        "ÑĤÐµÐ»ÑĮ",
        "Ð½ÐµÐµ"
      ],
      [
        "ÑĤÐ¾Ð¼",
        "Ñĥ"
      ],
      [
        "ĠÑģÑĤÐ°",
        "ÑĤÑĮ"
      ],
      [
        "ĠÐ½Ð¾",
        "ÑģÐ¸ÑĤÑĮ"
      ],
      [
        "ĠÑĥÑģÐ¸Ð»Ð¸",
        "ÑĤ"
      ],
      [
        "ĠÑģÐº",
        "Ð»Ð°Ð´ÑĭÐ²Ð°ÐµÑĤÑģÑı"
      ],
      [
        "ĠÐ²Ð½Ð¸Ð¼Ð°",
        "ÑĤÐµÐ»ÑĮÐ½ÐµÐµ"
      ],
      [
        "ĠÑĢÐµÑĪ",
        "ÐµÐ½Ð¸Ñı"
      ],
      [
        "ĠÐ¾Ñī",
        "ÑĥÑĤÐ¸Ð¼Ð¾"
      ],
      [
        "ĠÐ¿ÑĢÐµÐ´ÑģÐºÐ°Ð·Ð°",
        "Ð½Ð½ÑĭÐµ"
      ],
      [
        "ĠÐ¿Ð¾Ð»Ð¾Ð¶",
        "ÐµÐ½Ð¸Ðµ"
      ],
      [
        "ÑģÑĤÑĢÐ¾Ð»Ð¾Ð³Ð¸",
        "ÑĩÐµÑģÐºÐ¸Ð¹"
      ],
      [
        "ĠÐ½Ð°Ð±Ð»ÑİÐ´",
        "ÐµÐ½Ð¸Ð¹"
      ],
      [
        "ĠÐĳ",
        "Ð»Ð°Ð³"
      ],
      [
        "ĠÐ½ÐµÐ´Ðµ",
        "Ð»Ðµ"
      ],
      [
        "ĠÐ²Ð°Ð¶",
        "Ð½ÑĭÐµ"
      ],
      [
        "ĠÐ¿ÑĢÐ¾Ð³",
        "Ð½Ð¾Ð·"
      ],
      [
        "ĠÐĲÑģÑĤÑĢÐ¾Ð»Ð¾Ð³Ð¸",
        "ÑĩÐµÑģÐºÐ°Ñı"
      ],
      [
        "ĠÐ»Ñĥ",
        "ÑĩÑĪÐµ"
      ],
      [
        "ĠÑĨÐ²ÐµÑĤ",
        "Ð¾Ð¼"
      ],
      [
        "ĠÑģÐºÐ°",
        "Ð¶ÐµÑĤÑģÑı"
      ],
      [
        "ĠÑĪ",
        "ÐºÐ¾Ð»Ð°"
      ],
      [
        "ĠÑĤÐ°Ð»Ð¸ÑģÐ¼Ð°",
        "Ð½Ð¾Ð¼"
      ],
      [
        "ĠÑģÐµÑĢÐ´ÑĨ",
        "Ñĥ"
      ],
      [
        "ÐĲ",
        "ÑģÑĤÑĢÐ¾Ð»Ð¾Ð³Ð¸ÑĩÐµÑģÐºÐ¸Ð¹"
      ],
      [
        "ĠÐ¿ÑĢÐµÐ´ÑģÑĤÐ°Ð²Ð¸ÑĤÐµÐ»Ñı",
        "Ñħ"
      ],
      [
        "ĠÐ°Ðº",
        "ÑĤÐ¸Ð²ÐµÐ½"
      ],
      [
        "ĠÐ¿Ð¾Ñį",
        "ÑĤÐ¾Ð¼Ñĥ"
      ],
      [
        "ĠÐ³Ð¾ÑĢÐ¾",
        "ÑģÐºÐ¾Ð¿Ð°"
      ],
      [
        "Ð¾Ð¿ÑĢÐ¸ÑıÑĤ",
        "Ð½ÑĭÐ¼"
      ],
      [
        "ĠÐŁÑĢÐ¸Ð±Ð»Ð¸Ð¶Ð°",
        "ÑİÑīÐµÐµÑģÑı"
      ],
      [
        "ĠÐĳÐ»Ð°Ð³",
        "Ð¾Ð¿ÑĢÐ¸ÑıÑĤÐ½ÑĭÐ¼"
      ],
      [
        "Ñĭ",
        "ÑģÑı"
      ],
      [
        "ĠÑĤ",
        "ÑĭÑģÑı"
      ],
      [
        "ĠÐ²Ð½ÑĥÑĤÑĢÐµ",
        "Ð½Ð½Ð¸"
      ],
      [
        "ÐŁ",
        "ÑĢÐµÐ´"
      ],
      [
        "Ð¼",
        "Ñĭ"
      ],
      [
        "ÑĢÐ¸",
        "ÑĨÐ°"
      ],
      [
        "Ð¾Ð²",
        "Ð¾ÑĢ"
      ],
      [
        "ĠÐ½Ð°",
        "ÑĢÐ¾Ð´"
      ],
      [
        "ÑĦ",
        "Ð¸"
      ],
      [
        "Ñģ",
        "Ð½Ð¾"
      ],
      [
        "ÑĩÐµ",
        "Ð²Ð¸Ð´ÐµÑĨ"
      ],
      [
        "Ðŀ",
        "ÑĩÐµÐ²Ð¸Ð´ÐµÑĨ"
      ],
      [
        "ĠÑģ",
        "ÑĥÑī"
      ],
      [
        "Ð¡",
        "ÐºÐµÐ¿ÑĤÐ¸ÐºÐ¸"
      ],
      [
        "ĠÐ²",
        "Ð½Ðµ"
      ],
      [
        "Ð·Ð°",
        "Ð¿"
      ],
      [
        "ĠÐ²Ð½Ðµ",
        "Ð·Ð°Ð¿"
      ],
      [
        "ÐŁ",
        "Ð¾Ñģ"
      ],
      [
        "ÐŁÐ¾Ñģ",
        "Ð»Ðµ"
      ],
      [
        "ÑĦ",
        "ÑĢÐ¾Ð²Ð°"
      ],
      [
        "ĠÐ·Ð°",
        "ÑĪÐ¸"
      ],
      [
        "ĠÐ·Ð°ÑĪÐ¸",
        "ÑĦÑĢÐ¾Ð²Ð°"
      ],
      [
        "ÐĶ",
        "Ð»Ñı"
      ],
      [
        "Ð¾Ð»ÐºÐ¾Ð²Ð°",
        "ÑĤÐµÐ»Ð¸"
      ],
      [
        "Ð¢",
        "Ð¾Ð»ÐºÐ¾Ð²Ð°ÑĤÐµÐ»Ð¸"
      ],
      [
        "ĠÑģÐºÑĢÑĭ",
        "ÑĤÐ¾"
      ],
      [
        "Ðĵ",
        "ÑĥÑīÐµ"
      ],
      [
        "ĠÐ¡",
        "ÑĤ"
      ],
      [
        "ĠÐ¿ÑĢÐ¸",
        "Ð·ÑĭÐ²Ð°ÑİÑĤ"
      ],
      [
        "Ðŀ",
        "Ð¿ÑĭÑĤÐ½ÑĭÐµ"
      ],
      [
        "ÐĶ",
        "Ð¾Ð¿Ð¾Ð»Ð½Ð¸ÑĤÐµÐ»ÑĮÐ½ÑĭÐ¼"
      ],
      [
        "ĠÑģÐµÑĢÐ´",
        "ÑĨÐ°"
      ],
      [
        "ÐŁ",
        "ÑĢÐ°ÐºÑĤÐ¸ÐºÑĥÑİÑīÐ¸Ðµ"
      ],
      [
        "ĠÑĢÐµÐºÐ¾Ð¼ÐµÐ½Ð´Ñĥ",
        "ÑİÑĤ"
      ],
      [
        "ĠÑĢÐµÑĪ",
        "ÐµÐ½Ð¸Ñİ"
      ],
      [
        "ĠÑĦ",
        "Ð¾ÑĢ"
      ],
      [
        "ÑĤÐµÑĢ",
        "Ñı"
      ],
      [
        "Ð¡",
        "ÐµÐ³Ð¾Ð´Ð½Ñı"
      ],
      [
        "Ð²",
        "ÐµÑģÑĤ"
      ],
      [
        "ĠÐ·Ð´Ð¾ÑĢÐ¾Ð²",
        "ÑĮÑı"
      ],
      [
        "Ð´",
        "Ð½Ð¾"
      ],
      [
        "Ðŀ",
        "Ð´Ð½Ð¾"
      ],
      [
        "Ð»",
        "Ð¾Ð²"
      ],
      [
        "Ð¡ÑĤÐ¾",
        "ÑĢÐ¾Ð½Ð½Ð¸ÐºÐ¸"
      ],
      [
        "Ð¡Ð¾",
        "Ð¾Ð±ÑīÐµÐ½Ð¸Ñı"
      ],
      [
        "ÑģÑģ",
        "Ð»ÐµÐ´Ð¾Ð²Ð°ÑĤÐµÐ»Ð¸"
      ],
      [
        "Ðĺ",
        "ÑģÑģÐ»ÐµÐ´Ð¾Ð²Ð°ÑĤÐµÐ»Ð¸"
      ],
      [
        "ĠÐ¸Ð·Ð¼",
        "ÐµÐ½Ð¸"
      ],
      [
        "Ð¡",
        "ÑĢÐµÐ´Ð¸"
      ],
      [
        "ÑģÑĤÐ°Ð²Ð¸ÑĤÐµÐ»Ñı",
        "Ð¼"
      ],
      [
        "ÐŁÑĢÐµÐ´",
        "ÑģÑĤÐ°Ð²Ð¸ÑĤÐµÐ»ÑıÐ¼"
      ],
      [
        "ĠÑĥÐ³Ð¾Ð²Ð°ÑĢÐ¸",
        "Ð²Ð°ÑİÑĤ"
      ],
      [
        "Ñĳ",
        "Ð½"
      ],
      [
        "ĠÐ»",
        "Ñĳ"
      ],
      [
        "ĠÑĥÐ±Ðµ",
        "Ð¶Ð´Ð°ÑİÑĤ"
      ],
      [
        "ĠÐ½Ð°ÑģÑĤÐ°",
        "Ð²Ð»ÑıÑİÑĤ"
      ],
      [
        "ĠÐ¿ÑĢÐµÐ´Ð»Ð°Ð³Ð°",
        "ÑİÑĤ"
      ],
      [
        "ĠÐ¿Ð¾Ð´ÑģÐºÐ°",
        "Ð·ÑĭÐ²Ð°ÑİÑĤ"
      ],
      [
        "ĠÐºÐ°",
        "Ð¼"
      ],
      [
        "ĠÑģÐ¸Ð¼Ð²Ð¾Ð»",
        "Ð¸"
      ],
      [
        "ĠÐ³",
        "Ð¾Ð»"
      ],
      [
        "Ð¡",
        "ÑĩÐ¸ÑĤÐ°"
      ],
      [
        "Ð¡ÑĩÐ¸ÑĤÐ°",
        "ÐµÑĤÑģÑı"
      ],
      [
        "ÑģÑı",
        "ÑĤ"
      ],
      [
        "ĠÐ¿ÑĢÐ¾",
        "ÑģÑıÑĤ"
      ],
      [
        "Ñı",
        "Ð½ÑĥÑĤÐ°Ñı"
      ],
      [
        "ÑĭÑĤ",
        "ÑıÐ½ÑĥÑĤÐ°Ñı"
      ],
      [
        "ÐĴ",
        "ÑĭÑĤÑıÐ½ÑĥÑĤÐ°Ñı"
      ],
      [
        "Ð¾Ð²",
        "ÑĤÐ¾ÑĢÑı"
      ],
      [
        "ÐŁ",
        "Ð¾Ð²ÑĤÐ¾ÑĢÑı"
      ],
      [
        "ÐŁÐ¾Ð²ÑĤÐ¾ÑĢÑı",
        "ÑİÑīÐ¸Ð¹ÑģÑı"
      ],
      [
        "ÑĢÐ¸",
        "Ð¹"
      ],
      [
        "ĠÐ¼Ð¾Ð¶",
        "Ð½Ð¾"
      ],
      [
        "Ð¾Ð»",
        "Ð½"
      ],
      [
        "Ñı",
        "ÐµÑĤ"
      ],
      [
        "ÑĪ",
        "ÑĮ"
      ],
      [
        "ĠÐ»Ð¸",
        "ÑĪÑĮ"
      ],
      [
        "ĠÐ³",
        "Ð¾ÑĢ"
      ],
      [
        "ĠÑĥÑĤÐ²ÐµÑĢ",
        "Ð¶Ð´Ð°ÐµÑĤ"
      ],
      [
        "Ð¼",
        "ÐµÐ½"
      ],
      [
        "ĠÐ¿ÐµÑĢÐµ",
        "Ð¼ÐµÐ½"
      ],
      [
        "ĠÐ½",
        "Ð¾Ð²Ñĭ"
      ],
      [
        "ĠÑį",
        "ÑĤÐ¾Ð¼"
      ],
      [
        "ĠÐ·Ð°",
        "Ð±Ñĭ"
      ],
      [
        "ÑĤ",
        "Ð¾Ð³Ð¾"
      ],
      [
        "ĠÐ",
        "ĸ"
      ],
      [
        "ĠÐĿ",
        "Ð°"
      ],
      [
        "ĠÐ¸Ð½ÑĤÑĥÐ¸ÑĨÐ¸",
        "Ð¸"
      ],
      [
        "Ð¸Ð¼Ð¾",
        "ÑģÑĤÐ¸"
      ],
      [
        "ĠÐ½ÐµÐ¾Ð±ÑħÐ¾Ð´",
        "Ð¸Ð¼Ð¾ÑģÑĤÐ¸"
      ],
      [
        "ÐµÑĢÐµ",
        "Ð±"
      ],
      [
        "Ð²",
        "Ð¾Ð²Ð°"
      ],
      [
        "ĠÐ²Ð½ÑĥÑĤÑĢÐµÐ½Ð½Ð¸",
        "Ñħ"
      ],
      [
        "Ñĩ",
        "Ð½Ð¾"
      ],
      [
        "Ð²",
        "Ð¾Ð¼"
      ],
      [
        "Ð²",
        "ÑĢÐ°"
      ],
      [
        "ĠÐ²",
        "Ð·"
      ],
      [
        "Ñħ",
        "Ð°ÑĢ"
      ],
      [
        "ĠÑĤ",
        "Ð¾Ð¼"
      ],
      [
        "Ð»Ð¸",
        "ÑĨ"
      ],
      [
        "ĠÐĵ",
        "Ð¸"
      ],
      [
        "ĠÑģÑĤÐ°",
        "ÑĢÐ¸"
      ],
      [
        "ÑĢ",
        "Ð¾Ð¹"
      ],
      [
        "ÑĢ",
        "Ð¾Ð²"
      ],
      [
        "Ð³",
        "Ñĥ"
      ],
      [
        "ĠÐ±",
        "ÐµÐ»"
      ],
      [
        "Ñī",
        "Ð¸"
      ],
      [
        "Ð²Ð¸",
        "Ð³Ð°"
      ],
      [
        "Ð³",
        "Ð»Ð°"
      ],
      [
        "Ðµ",
        "ÑĦ"
      ],
      [
        "ĠÐ¼Ðµ",
        "Ð¶Ð´Ñĥ"
      ],
      [
        "ĠÐ»Ñĳ",
        "Ð³"
      ],
      [
        "ĠÐ²Ðµ",
        "ÑĢÐ¸ÑĤÑĮ"
      ],
      [
        "Ðº",
        "Ð¾ÑĢ"
      ],
      [
        "ĠÐ¶ÐµÐ»Ð°",
        "Ð½Ð¸Ñı"
      ],
      [
        "ĠÐľ",
        "Ð°ÑĢ"
      ],
      [
        "ĠÐ",
        "ķ"
      ],
      [
        "ĠÐ¿Ð¾ÐºÐ¾Ð»",
        "ÐµÐ½Ð¸Ðµ"
      ],
      [
        "ÐµÑĢ",
        "Ñĭ"
      ],
      [
        "Ðµ",
        "ÑĪ"
      ],
      [
        "ĠÐ·Ð½Ð°",
        "Ðº"
      ],
      [
        "ÐºÐ°",
        "Ð¼Ð¸"
      ],
      [
        "ĠÐ²Ð¸",
        "Ð´Ðµ"
      ],
      [
        "ÑģÑĤÑĢ",
        "Ð¾Ð¹"
      ],
      [
        "ÑĥÐ¼",
        "ÑĢÑĥÐ´"
      ],
      [
        "ÑģÑĤ",
        "Ð¾Ð¹"
      ],
      [
        "Ñģ",
        "Ð»Ð°"
      ],
      [
        "ĠÐ¿ÐµÑĢÐµ",
        "Ð¶Ð¸"
      ],
      [
        "ĠÐ·Ð°",
        "Ð´"
      ],
      [
        "Ð°Ð½",
        "ÑĨÑĭ"
      ],
      [
        "ĠÐ¿ÑĢÐ¸",
        "ÑĢÐ¾Ð´"
      ],
      [
        "ĠÑģÑĤ",
        "ÑĢÐ°Ð½"
      ],
      [
        "ÑģÑĤ",
        "ÑĥÐ¿"
      ],
      [
        "ĠÑĥ",
        "Ð·"
      ],
      [
        "Ñĩ",
        "Ñĥ"
      ],
      [
        "ÑĤÐµÐ»ÑĮÐ½Ð¸",
        "ÑĨÐ°"
      ],
      [
        "ÑĤÐµÐ»ÑĮÐ½Ð¸",
        "ÑĨÑĭ"
      ],
      [
        "Ð¸",
        "Ð»Ð¾"
      ],
      [
        "Ġ",
        "9"
      ],
      [
        "1",
        "9"
      ],
      [
        "Ð²",
        "Ð½Ð°"
      ],
      [
        "ÑĤÐ°",
        "Ðº"
      ],
      [
        "ÑĮ",
        "Ð¸"
      ],
      [
        "ĠÐ³",
        "Ð¾Ð²Ð¾ÑĢ"
      ],
      [
        "ĠÐ³Ð¾Ð²Ð¾ÑĢ",
        "ÑıÑĤ"
      ],
      [
        "ÑĨ",
        "Ð¾Ð²"
      ],
      [
        "Ġ",
        "6"
      ],
      [
        "ĠÐ³Ð¾ÑĢ",
        "Ð¾Ð´"
      ],
      [
        "ÐµÑĤ",
        "Ð¸"
      ],
      [
        "ÐµÑĤ",
        "Ðµ"
      ],
      [
        "ĠÑģ",
        "Ð¾Ð¿"
      ],
      [
        "Ġ",
        "7"
      ],
      [
        "ÐµÑĢÐµ",
        "Ð½"
      ],
      [
        "ĠÑģÑĤÐ°",
        "ÑĢ"
      ],
      [
        "ĠÐ¿Ð»Ð°",
        "ÑĤÐ¾"
      ],
      [
        "Ġ",
        "8"
      ],
      [
        "Ġ",
        "3"
      ],
      [
        "ÑģÑĤ",
        "Ð²Ð°"
      ],
      [
        "ĠÑģÑĥÑī",
        "ÐµÑģÑĤ"
      ],
      [
        "Ġ",
        "5"
      ],
      [
        "Ġ",
        "4"
      ],
      [
        "ĠÐ³Ð¾Ð´",
        "Ñĭ"
      ],
      [
        "ĠÐ·Ð²",
        "ÐµÐ·"
      ],
      [
        "ĠÐ½ÐµÐ¾Ð¶Ð¸Ð´Ð°",
        "Ð½"
      ],
      [
        "ĠÐ²Ð½ÑĥÑĤÑĢÐµÐ½",
        "Ð½ÐµÐ³Ð¾"
      ],
      [
        "ĠÑĤ",
        "Ð²Ð¾ÑĢ"
      ],
      [
        "ĠÑģÑĩÐ¸ÑĤÐ°",
        "ÐµÑĤÑģÑı"
      ],
      [
        "ĠÐ¶",
        "ÑĢÐµ"
      ],
      [
        "ÑģÑģ",
        "Ð¾"
      ],
      [
        "Ð´Ð°",
        "Ð²"
      ],
      [
        "ĠÐ½Ðµ",
        "Ð´Ð°Ð²"
      ],
      [
        "Ð°",
        "Ð³Ð°"
      ],
      [
        "ĠÐºÐ°",
        "Ð¶Ð´"
      ],
      [
        "ĠÐºÐ°Ð¶Ð´",
        "Ð¾Ð³Ð¾"
      ],
      [
        "ÑĤ",
        "ÐºÐ¾Ð²"
      ],
      [
        "Ð¾Ð»",
        "Ð¾"
      ],
      [
        "ĠÐ¾Ðº",
        "Ð¾Ð»Ð¾"
      ],
      [
        "ĠÐ²Ð°Ð¶",
        "Ð½Ð¾Ð¼Ñĥ"
      ],
      [
        "ĠÐ¡",
        "Ð¾Ð»Ð½"
      ],
      [
        "ĠÐ½Ðµ",
        "ÑĢÐµ"
      ],
      [
        "ĠÐ³Ð¾Ð²Ð¾",
        "ÑĢÐ¸ÑĤÑĮ"
      ],
      [
        "ĠÐ½Ðµ",
        "Ð¸Ð·"
      ],
      [
        "ÑĢÐ°",
        "Ð±"
      ],
      [
        "ĠÑĤÐµ",
        "Ð»Ðµ"
      ],
      [
        "ĠÐ²Ñģ",
        "Ñĳ"
      ],
      [
        "ÐµÐ³",
        "Ð°"
      ],
      [
        "ĠÑģ",
        "Ð±"
      ],
      [
        "ĠÑģÐ±",
        "ÑĭÐ²Ð°"
      ],
      [
        "ĠÐĹ",
        "Ð°"
      ],
      [
        "ĠÐ½ÐµÑģÐºÐ¾Ð»ÑĮ",
        "ÐºÐ¸Ñħ"
      ],
      [
        "ĠÐ¿Ð»Ð°",
        "Ð½ÐµÑĤ"
      ],
      [
        "ĠÐ",
        "®"
      ],
      [
        "ĠÐĲ",
        "Ð½"
      ],
      [
        "ĠÐ¿ÐµÑĢÐµ",
        "Ð¼Ðµ"
      ],
      [
        "ÑĢÐµÐ´",
        "ÐµÐ»"
      ],
      [
        "ĠÐ¾Ð¿",
        "ÑĢÐµÐ´ÐµÐ»"
      ],
      [
        "ĠÐ¡",
        "ÐºÐ¾ÑĢ"
      ],
      [
        "ĠÐ¡ÐºÐ¾ÑĢ",
        "Ð¿Ð¸"
      ],
      [
        "Ġ",
        "ÑıÑģ"
      ],
      [
        "Ñħ",
        "Ð¾Ð²"
      ],
      [
        "ÐŁ",
        "ÑĢÐ¸"
      ],
      [
        "ÑīÐ°",
        "Ñı"
      ],
      [
        "Ð¾",
        "ÑĢÐ°"
      ],
      [
        "Ð¼ÐµÑĩÐ°",
        "ÐµÑĤ"
      ],
      [
        "Ð½",
        "Ñģ"
      ],
      [
        "Ð¸Ð½Ð°",
        "Ð½Ñģ"
      ],
      [
        "ĠÑĦ",
        "Ð¸Ð½Ð°Ð½Ñģ"
      ],
      [
        "Ð°",
        "ÑĪ"
      ],
      [
        "ĠÐ¼Ñĭ",
        "ÑģÐ»Ð¸"
      ],
      [
        "ĠÐ°",
        "ÑĤ"
      ],
      [
        "ĠÐ³",
        "Ð°ÑĢ"
      ],
      [
        "ĠÐ³Ð°ÑĢ",
        "Ð¼Ð¾"
      ],
      [
        "ĠÐ",
        "¦"
      ],
      [
        "ĠÑģ",
        "ÐºÐ¾"
      ],
      [
        "ĠÐ±Ð»Ð¸Ð·",
        "ÐºÐ¸Ñħ"
      ],
      [
        "ÑĢÐ°",
        "ÐºÐ°"
      ],
      [
        "ĠÐ±",
        "ÑĢÐ°ÐºÐ°"
      ],
      [
        "Ð¿",
        "Ð¿Ð°"
      ],
      [
        "ĠÐĽ",
        "Ñĥ"
      ],
      [
        "ĠÐ¾",
        "ÑģÑĤÐ°"
      ],
      [
        "ÑĢÐ°",
        "ÑĤÐ¾Ð²"
      ],
      [
        "ĠÐ°",
        "Ð¿Ð¿Ð°"
      ],
      [
        "ĠÐ°Ð¿Ð¿Ð°",
        "ÑĢÐ°ÑĤÐ¾Ð²"
      ],
      [
        "ĠÑģÐ¾Ñħ",
        "ÑĢÐ°Ð½Ð¸"
      ],
      [
        "ĠÑģÐºÑĢÑĭÑĤÐ¾",
        "Ðµ"
      ],
      [
        "ĠÐ¿ÑĢÐµÐ´",
        "Ð²ÐµÑģÑĤ"
      ],
      [
        "ĠÐ±ÑĥÐ´",
        "ÑĥÑī"
      ],
      [
        "ĠÐ¿ÑĢÐµÐ´Ð²ÐµÑģÑĤ",
        "Ð¸Ðµ"
      ],
      [
        "Ð²ÑĪÐ¸Ñħ",
        "ÑģÑı"
      ],
      [
        "ĠÐ¿ÑĢÐ¾",
        "ÑĪ"
      ],
      [
        "ĠÐ´ÐµÐ¹ÑģÑĤÐ²Ð¸",
        "ÑĤÐµÐ»ÑĮÐ½Ð¾"
      ],
      [
        "ÑĢÐµ",
        "Ð»ÑĮ"
      ],
      [
        "ĠÐ¿ÐµÑĢÐµ",
        "Ð»Ð¾Ð¼"
      ],
      [
        "ĠÑģÐ¿Ð¾ÑģÐ¾Ð±",
        "Ð½Ð¾ÑģÑĤÑĮ"
      ],
      [
        "ÑĢÐ°",
        "Ñģ"
      ],
      [
        "ÑĩÐµ",
        "ÑģÐºÐ¾Ð¹"
      ],
      [
        "Ð",
        "ľ"
      ],
      [
        "ĠÐ¶ÐµÐ»Ð°",
        "Ð½Ð¸Ðµ"
      ],
      [
        "Ð¿",
        "ÐºÐ¸Ð¹"
      ],
      [
        "ĠÐ¿Ð¾",
        "ÑĤ"
      ],
      [
        "ĠÑĦÐ¾ÑĢ",
        "Ð¼Ñĥ"
      ],
      [
        "ĠÐ²ÑĭÑģ",
        "Ð¾"
      ],
      [
        "Ð²",
        "ÐµÑĤ"
      ],
      [
        "ĠÑıÑĢ",
        "ÐºÐ¾"
      ],
      [
        "Ð½",
        "Ð½ÑĭÑħ"
      ],
      [
        "Ñĩ",
        "ÑĳÑĤ"
      ],
      [
        "ĠÐºÑĢÑĥÐ³",
        "Ñĥ"
      ],
      [
        "ÐµÐ¼",
        "Ñĭ"
      ],
      [
        "Ð¾ÑĤ",
        "Ð²ÑĢÐ°"
      ],
      [
        "ĠÑĥ",
        "Ð»Ñĭ"
      ],
      [
        "ĠÑĥÐ»Ñĭ",
        "Ð±"
      ],
      [
        "ÑĢÐ¸",
        "Ð½Ð¸Ð¼Ð°"
      ],
      [
        "Ð¿",
        "ÑĢÐ¸Ð½Ð¸Ð¼Ð°"
      ],
      [
        "ĠÐ²Ð¾Ñģ",
        "Ð¿ÑĢÐ¸Ð½Ð¸Ð¼Ð°"
      ],
      [
        "ĠÐ²Ð¾ÑģÐ¿ÑĢÐ¸Ð½Ð¸Ð¼Ð°",
        "ÐµÑĤÑģÑı"
      ],
      [
        "ĠÑĤ",
        "ÑĢÑĥÐ´"
      ],
      [
        "ĠÑĥ",
        "Ð¼Ð°"
      ],
      [
        "Ð½Ð¸",
        "Ð²Ð°"
      ],
      [
        "ĠÐ½Ðµ",
        "Ð³Ð»Ð°"
      ],
      [
        "ĠÐ¿ÑĢÐ¸",
        "ÑĢÐ°Ð²"
      ],
      [
        "ĠÑĤÐ¾Ð¼",
        "Ñĥ"
      ],
      [
        "Ð½Ð¸Ð²Ð°",
        "ÐµÑĤÑģÑı"
      ],
      [
        "ĠÐ½ÐµÐ³Ð»Ð°",
        "ÑģÐ½Ð¾"
      ],
      [
        "ĠÐ¿ÑĢÐ¸ÑĢÐ°Ð²",
        "Ð½Ð¸Ð²Ð°ÐµÑĤÑģÑı"
      ],
      [
        "Ð°",
        "ÐµÑĤ"
      ],
      [
        "ĠÐ½",
        "ÐµÑĤ"
      ],
      [
        "ĠÐ¸",
        "Ð»Ð¸"
      ],
      [
        "ĠÑħ",
        "Ð¾ÑĤ"
      ],
      [
        "ĠÑĢÐµÑĪ",
        "Ð°ÐµÑĤ"
      ],
      [
        "ĠÐºÐ°Ð¶Ð´Ñĭ",
        "Ð¹"
      ],
      [
        "ĠÑħÐ¾ÑĤ",
        "Ñı"
      ],
      [
        "ÑĢÑĥ",
        "ÐµÑĤ"
      ],
      [
        "Ð·Ð¸",
        "ÑĢÑĥÐµÑĤ"
      ],
      [
        "ĠÑģÐ¸Ð¼Ð²Ð¾Ð»Ð¸",
        "Ð·Ð¸ÑĢÑĥÐµÑĤ"
      ],
      [
        "ĠÑĤÑĢÐ°ÐºÑĤÑĥ",
        "ÐµÑĤÑģÑı"
      ],
      [
        "ÑĢÑĥ",
        "ÐµÑĤÑģÑı"
      ],
      [
        "ĠÐ°",
        "ÑģÑģÐ¾"
      ],
      [
        "ĠÐ¸Ð·Ð´Ð°",
        "Ð²Ð½Ð°"
      ],
      [
        "ÑĨÐ¸Ð¸",
        "ÑĢÑĥÐµÑĤÑģÑı"
      ],
      [
        "ĠÐ°ÑģÑģÐ¾",
        "ÑĨÐ¸Ð¸ÑĢÑĥÐµÑĤÑģÑı"
      ],
      [
        "Ð¶",
        "Ð¸ÑĤ"
      ],
      [
        "ĠÐ·Ð½Ð°",
        "ÐºÐ¾Ð¼"
      ],
      [
        "ĠÑģÐ»Ñĥ",
        "Ð¶Ð¸ÑĤ"
      ],
      [
        "Ð½Ð¸",
        "Ñħ"
      ],
      [
        "ÑĢÐ¸",
        "Ð¾Ð½Ð°"
      ],
      [
        "ÑĥÑīÐµ",
        "Ðµ"
      ],
      [
        "ĠÐ¾",
        "Ð»Ð¸ÑĨ"
      ],
      [
        "ÐµÑĤ",
        "Ð²Ð¾ÑĢ"
      ],
      [
        "ĠÐ¾Ð»Ð¸ÑĨ",
        "ÐµÑĤÐ²Ð¾ÑĢ"
      ],
      [
        "ĠÐ¾Ð»Ð¸ÑĨÐµÑĤÐ²Ð¾ÑĢ",
        "ÑıÐµÑĤ"
      ],
      [
        "Ð²Ñĥ",
        "ÐµÑĤ"
      ],
      [
        "ĠÑģÐ»ÑĥÑĩÐ°",
        "Ðµ"
      ],
      [
        "ĠÐ¸Ð¼",
        "ÐµÐ½Ð½Ð¾"
      ],
      [
        "ĠÐ²ÑģÑı",
        "ÐºÐ¾Ð¼"
      ],
      [
        "ĠÑĥÐ´Ð°",
        "ÑĩÐ¸"
      ],
      [
        "ĠÐ¿ÑĢ",
        "Ð¾Ð²ÐµÑĢÐ¸ÑĤÑĮ"
      ],
      [
        "ĠÐ¾Ð¿Ñĭ",
        "ÑĤÐµ"
      ],
      [
        "ĠÑģÐ¾Ð±ÑģÑĤÐ²ÐµÐ½",
        "Ð½Ð¾Ð¼"
      ],
      [
        "ĠÐ¸Ð·",
        "ÑĥÐ¼ÑĢÑĥÐ´"
      ],
      [
        "ĠÑĤ",
        "Ð¾Ð»ÑĮ"
      ],
      [
        "Ð¸ÑĤ",
        "ÑģÑı"
      ],
      [
        "ĠÑĤÐ°",
        "ÐºÐ¸Ñħ"
      ],
      [
        "ĠÑģÑĤÐ°",
        "Ð½Ð¾Ð²"
      ],
      [
        "ĠÐ³Ð¾Ð´",
        "Ð¾Ð¼"
      ],
      [
        "ĠÐ¸ÑģÑĤÐ¾ÑĢÐ¸",
        "Ð¹"
      ],
      [
        "ĠÐºÐ°Ð¶Ð´Ñĭ",
        "Ð¼"
      ],
      [
        "ĠÑĤÐ¾Ð»ÑĮ",
        "ÐºÐ¾"
      ],
      [
        "ĠÑģÑĤÐ°Ð½Ð¾Ð²",
        "Ð¸ÑĤÑģÑı"
      ],
      [
        "ĠÐºÐ¾",
        "ÑĢÐ°Ð±"
      ],
      [
        "Ð¹",
        "Ð½ÐµÐ¹"
      ],
      [
        "ĠÐºÑĢÐ°",
        "Ð¹Ð½ÐµÐ¹"
      ],
      [
        "ĠÐ¿ÑĢÐ¾Ð±",
        "Ð¾Ð²Ð°Ð»"
      ],
      [
        "ĠÐ¶ÑĢÐµ",
        "ÑĨÐ¾Ð²"
      ],
      [
        "ĠÐļ",
        "ÑĢÐ°Ñģ"
      ],
      [
        "ÑĨ",
        "ÐµÐ¼"
      ],
      [
        "Ð°",
        "Ð»Ñĥ"
      ],
      [
        "ĠÐ¿",
        "Ð¾Ð¶"
      ],
      [
        "ĠÐµ",
        "ÑģÑĤÑĮ"
      ],
      [
        "ĠÐ¿ÑĢÐ°Ð²",
        "Ð´Ð°"
      ],
      [
        "ĠÑģÐ²Ð¾",
        "Ñı"
      ],
      [
        "Ð°Ð»Ñĥ",
        "Ð¹"
      ],
      [
        "ĠÐ¿Ð¾Ð¶",
        "Ð°Ð»ÑĥÐ¹"
      ],
      [
        "ÐºÐ°",
        "Ð½Ð°"
      ],
      [
        "ĠÑĥÑĤÐ²ÐµÑĢ",
        "Ð¶Ð´Ð°ÑİÑĤ"
      ],
      [
        "Ð¸Ð´",
        "Ð¸"
      ],
      [
        "ĠÐ´",
        "ÐµÑĢÐµ"
      ],
      [
        "ĠÑĩ",
        "ÐµÑĤ"
      ],
      [
        "ĠÐŀ",
        "ÑĢÐ¸Ð¾Ð½Ð°"
      ],
      [
        "Ð´",
        "ÑĮ"
      ],
      [
        "ĠÐ",
        "Ļ"
      ],
      [
        "ÐºÐ¸",
        "Ð¼Ð¸"
      ],
      [
        "Ð³Ð°",
        "Ð¼Ð¸"
      ],
      [
        "ĠÐ¸Ñģ",
        "ÑħÐ¾Ð´"
      ],
      [
        "Ð¸",
        "Ð½"
      ],
      [
        "ÑĮ",
        "Ðµ"
      ],
      [
        "ĠÑģ",
        "Ð½Ðµ"
      ],
      [
        "Ġ",
        "ÑĢÐµÐ´"
      ],
      [
        "ĠÐ±ÐµÐ»",
        "Ð¾Ð¹"
      ],
      [
        "ĠÐ»",
        "ÐµÑĤÐ°"
      ],
      [
        "ĠÐ±Ð¾Ð»ÑĮ",
        "ÑĪ"
      ],
      [
        "ĠÐ±",
        "ÐµÑģ"
      ],
      [
        "ĠÐ·Ð°",
        "ÑĤÑı"
      ],
      [
        "ĠÐ·Ð°ÑĤÑı",
        "Ð½Ñĥ"
      ],
      [
        "ĠÐ²Ð¾Ð¿ÑĢÐ¾Ñģ",
        "Ð¾Ð²"
      ],
      [
        "ĠÐĴ",
        "ÐµÐ½"
      ],
      [
        "ÑģÑĤ",
        "ÐµÐ¹"
      ],
      [
        "Ð½Ð¾",
        "ÑģÑĤÐµÐ¹"
      ],
      [
        "ÑĢÐ°",
        "ÑīÐµÐ½Ð¸Ñı"
      ],
      [
        "ĠÐ²Ð¾Ð·Ð²",
        "ÑĢÐ°ÑīÐµÐ½Ð¸Ñı"
      ],
      [
        "ĠÐº",
        "ÑĢÐµ"
      ],
      [
        "ĠÑĦÐ¸Ð½Ð°Ð½Ñģ",
        "Ð¾Ð²Ñĭ"
      ],
      [
        "Ð²",
        "Ð¾Ð³Ð¾"
      ],
      [
        "ĠÐ³Ð»ÑĥÐ±Ð¾Ðº",
        "Ð¸Ð¹"
      ],
      [
        "ÐºÐ¸",
        "Ð¼"
      ],
      [
        "Ñı",
        "ÑīÐ°Ñı"
      ],
      [
        "ĠÐ´Ð¾Ð»Ð³",
        "Ð¾Ð¹"
      ],
      [
        "Ð²Ð°",
        "Ð½Ð¸Ð¹"
      ],
      [
        "ĠÐ¿ÐµÑĢÐµÐ¶Ð¸",
        "Ð²Ð°Ð½Ð¸Ð¹"
      ],
      [
        "Ð´Ð°",
        "Ð»Ð¸"
      ],
      [
        "ĠÐ½Ðµ",
        "Ð¿"
      ],
      [
        "ĠÑģÑĥÑīÐµÑģÑĤ",
        "Ð²"
      ],
      [
        "ĠÑģ",
        "ÐµÑĢÐµÐ±"
      ],
      [
        "ĠÑģÐµÑĢÐµÐ±",
        "ÑĢÐ¸"
      ],
      [
        "Ð¸",
        "ÑĢÐ¸"
      ],
      [
        "ĠÐ¡ÑĤ",
        "ÑĢÐ°"
      ],
      [
        "ÐµÑĢ",
        "ÐºÑĥ"
      ],
      [
        "ĠÐľ",
        "ÐµÑĢÐºÑĥ"
      ],
      [
        "ĠÐ»ÑİÐ´",
        "ÐµÐ¹"
      ],
      [
        "ĠÐ¿ÐµÑĢÐµÐ¼Ðµ",
        "Ð½Ð°"
      ],
      [
        "ÑĢÐ¸",
        "Ð¸"
      ],
      [
        "ÐµÐ³",
        "Ð´Ð°"
      ],
      [
        "ĠÐ¿",
        "Ð°Ð»ÑĮ"
      ],
      [
        "Ð¾Ð»",
        "Ð³Ð¾"
      ],
      [
        "ÐµÑģÑĤ",
        "Ð½Ð¾Ð¹"
      ],
      [
        "ĠÐ¶Ð¸",
        "Ð²ÑĪÐ¸Ñħ"
      ],
      [
        "ĠÐ¸Ð·Ð²",
        "ÐµÑģÑĤÐ½Ð¾Ð¹"
      ],
      [
        "ĠÐ·Ð°Ð´",
        "Ð¾Ð»Ð³Ð¾"
      ],
      [
        "ĠÐŁ",
        "Ð°"
      ],
      [
        "ĠÑĩ",
        "ÑĳÑĤ"
      ],
      [
        "ĠÐ¾ÑģÑĤÐ¾ÑĢÐ¾Ð¶",
        "Ð½ÐµÐµ"
      ],
      [
        "Ð»Ð¸",
        "Ð²Ð¾Ð¼"
      ],
      [
        "ĠÐ¿Ð¾",
        "ÑģÑĤÑĢÐ¾Ð¹"
      ],
      [
        "ĠÐ½Ðµ",
        "Ð´Ð¾"
      ],
      [
        "ĠÐ´Ð²Ð¸",
        "Ð¶ÐµÐ½Ð¸Ð¸"
      ],
      [
        "ÑģÑĤÑĥÐ¿",
        "Ð½ÑĭÐ¼Ð¸"
      ],
      [
        "ĠÐ¿Ð¾ÑģÑĤÑĢÐ¾Ð¹",
        "ÐºÐ¸"
      ],
      [
        "ĠÐ½ÐµÐ´Ð¾",
        "ÑģÑĤÑĥÐ¿Ð½ÑĭÐ¼Ð¸"
      ],
      [
        "ĠÐ¡Ð¾Ð»Ð½",
        "ÑĨÐ°"
      ],
      [
        "ĠÐ³Ð°ÑĢÐ¼Ð¾",
        "Ð½Ð¸"
      ],
      [
        "ĠÑģÐ¾",
        "ÑģÑĤÐ¾Ñı"
      ],
      [
        "ĠÑģÐµ",
        "ÑĢÐµÐ´Ð¸"
      ],
      [
        "ĠÑģÐµÑĢÐµÐ´Ð¸",
        "Ð½Ðµ"
      ],
      [
        "ÑģÑĤ",
        "ÑĢÐ¾"
      ],
      [
        "ĠÐ½ÐµÐ¾Ð±ÑħÐ¾Ð´",
        "Ð¸Ð¼Ð¾ÑģÑĤÑĮ"
      ],
      [
        "ĠÐł",
        "Ð°"
      ],
      [
        "Ñı",
        "Ñī"
      ],
      [
        "ĠÐ²",
        "Ð¾Ð»"
      ],
      [
        "ÑĳÑĤ",
        "ÑģÑı"
      ],
      [
        "Ð³",
        "Ðµ"
      ],
      [
        "ĠÑĩÐ°",
        "ÑģÐ°"
      ],
      [
        "ÑĪ",
        "Ð¸Ð¼"
      ],
      [
        "Ð°",
        "Ñħ"
      ],
      [
        "Ð¿",
        "Ð¾ÑĢ"
      ],
      [
        "ĠÐ·Ð½Ð°",
        "ÑħÐ°ÑĢ"
      ],
      [
        "Ð¾",
        "Ñı"
      ],
      [
        "ÐµÐ´",
        "ÑĥÐ½"
      ],
      [
        "ĠÐ¼",
        "Ð°"
      ],
      [
        "Ð³",
        "Ð¾Ð»"
      ],
      [
        "ĠÐ±",
        "Ñĥ"
      ],
      [
        "Ð½",
        "ÑĮÑı"
      ],
      [
        "Ð½Ð¾Ð²",
        "Ð¸Ð´"
      ],
      [
        "ĠÐ¿ÑĢÐµÐ´Ð°Ð½Ð¸Ñı",
        "Ð¼"
      ],
      [
        "ĠÐĴ",
        "ÐµÐ»Ð¸"
      ],
      [
        "Ð°",
        "Ð³"
      ],
      [
        "Ð¾Ð·",
        "ÐµÑĢ"
      ],
      [
        "Ð¾Ð»",
        "Ñĥ"
      ],
      [
        "ĠÐ¿Ñĥ",
        "ÑĤÐ¸"
      ],
      [
        "Ð¼",
        "ÐµÑĢÐµÐ½"
      ],
      [
        "Ð»",
        "ÐµÐ½Ð¸ÐµÐ¼"
      ],
      [
        "ĠÐ²Ð¾Ñģ",
        "ÑģÑĤÐ°"
      ],
      [
        "ĠÐ",
        "¨"
      ],
      [
        "ĠÐĴ",
        "ÐµÑģÑĤ"
      ],
      [
        "ĠÐ²Ð½ÑĥÑĤÑĢÐµÐ½",
        "Ð½ÐµÐ¹"
      ],
      [
        "ĠÑĥ",
        "Ð²ÐµÑĢ"
      ],
      [
        "ĠÑģ",
        "Ð²Ð¸Ð´"
      ],
      [
        "Ð»ÑĮ",
        "ÑģÑĤ"
      ],
      [
        "ÐµÑĤÐµ",
        "Ð»ÑĮÑģÑĤ"
      ],
      [
        "ĠÑģÐ²Ð¸Ð´",
        "ÐµÑĤÐµÐ»ÑĮÑģÑĤ"
      ],
      [
        "ĠÐ½Ð°Ð±Ð»ÑİÐ´",
        "ÐµÐ½Ð¸ÐµÐ¼"
      ],
      [
        "ÐµÐ½",
        "Ð½ÑĭÐ¼"
      ],
      [
        "ĠÐ¿Ð¾Ð»",
        "Ð°Ð³Ð°"
      ],
      [
        "Ñĩ",
        "Ð½Ñı"
      ],
      [
        "ÑĤÐ¾",
        "ÑĩÐ½Ñı"
      ],
      [
        "ĠÑĥ",
        "ÑĤÐ¾ÑĩÐ½Ñı"
      ],
      [
        "ĠÐ²Ñģ",
        "Ð¿Ð¾Ð¼Ð¸Ð½Ð°"
      ],
      [
        "Ð¿",
        "Ñĭ"
      ],
      [
        "Ð¾Ð´",
        "Ñĥ"
      ],
      [
        "Ð¾Ð±",
        "Ð¾Ð´Ñĥ"
      ],
      [
        "ĠÑģÐ²",
        "Ð¾Ð±Ð¾Ð´Ñĥ"
      ],
      [
        "ÑĳÑĢ",
        "ÐºÐ°"
      ],
      [
        "ÑĤ",
        "Ð¾Ðº"
      ],
      [
        "ÐµÐ½",
        "Ð½Ð¾Ð³Ð¾"
      ],
      [
        "ĠÐļ",
        "Ð°"
      ],
      [
        "ĠÐ¿Ð¾",
        "ÑĤÐµÑĢÑı"
      ],
      [
        "ĠÐŁ",
        "Ñĥ"
      ],
      [
        "Ð±",
        "ÑĢÐ¾"
      ],
      [
        "Ð±ÑĢÐ¾",
        "ÑĪ"
      ],
      [
        "ĠÐĳ",
        "Ð»Ð¸Ð·"
      ],
      [
        "ĠÐĳÐ»Ð¸Ð·",
        "Ð½Ðµ"
      ],
      [
        "ĠÐļ",
        "Ð¾Ð·ÐµÑĢ"
      ],
      [
        "ĠÐļÐ¾Ð·ÐµÑĢ",
        "Ð¾Ð³"
      ],
      [
        "Ð½Ð¸",
        "ÐºÐ¸"
      ],
      [
        "ĠÐ¿",
        "ÐµÑĢ"
      ],
      [
        "Ñĥ",
        "Ñĩ"
      ],
      [
        "Ñį",
        "Ð½ÑĮ"
      ],
      [
        "ĠÐ¨",
        "ÑįÐ½ÑĮ"
      ],
      [
        "ĠÐ¨ÑįÐ½ÑĮ",
        "ÑģÐ¸"
      ],
      [
        "ĠÐºÑĢÐ°",
        "Ñģ"
      ],
      [
        "ĠÐ®",
        "Ð¿Ð¸"
      ],
      [
        "Ðµ",
        "Ð¿"
      ],
      [
        "ÐµÐ³",
        "Ð¸"
      ],
      [
        "ĠÐĴ",
        "ÐµÐ³Ð¸"
      ],
      [
        "Ð°Ð½",
        "Ñģ"
      ],
      [
        "ĠÐ²ÑĭÑģ",
        "Ð¾Ðº"
      ],
      [
        "ĠÑĤ",
        "Ñĳ"
      ],
      [
        "ĠÐł",
        "Ñĭ"
      ],
      [
        "ĠÐ±Ð°",
        "Ð±Ñĥ"
      ],
      [
        "ĠÐ¡ÐºÐ¾ÑĢÐ¿Ð¸",
        "Ð¾Ð½Ð°"
      ],
      [
        "ĠÑģÐ¾Ð²ÐµÑĤÑĥ",
        "ÐµÑĤ"
      ],
      [
        "Ð¾",
        "ÑĤÐ¸"
      ],
      [
        "ÐºÐ°",
        "Ð½Ðµ"
      ],
      [
        "ÑĥÐ°",
        "ÐºÐ°Ð½Ðµ"
      ],
      [
        "ĠÐ¢Ðµ",
        "Ð¾ÑĤÐ¸"
      ],
      [
        "ĠÐ¢ÐµÐ¾ÑĤÐ¸",
        "ÑĥÐ°ÐºÐ°Ð½Ðµ"
      ],
      [
        "ĠÐĴ",
        "Ð¾Ð´Ð¾Ð»"
      ],
      [
        "ĠÐ",
        "¯"
      ],
      [
        "ĠÐ»Ð°Ð´Ð¾",
        "Ð½Ð¸"
      ],
      [
        "ĠÑħ",
        "ÑĢÑĥ"
      ],
      [
        "Ð±",
        "ÑĢÐ°"
      ],
      [
        "ĠÐ¿Ð¾Ð´",
        "Ð²"
      ],
      [
        "Ð¾Ð½Ð°",
        "Ð³Ñĥ"
      ],
      [
        "ĠÐĻ",
        "Ð¾Ð½Ð°Ð³Ñĥ"
      ],
      [
        "ĠÐĻÐ¾Ð½Ð°Ð³Ñĥ",
        "Ð½Ð¸"
      ],
      [
        "Ñĥ",
        "ÐºÑĥ"
      ],
      [
        "Ð»ÑĮ",
        "ÐºÐ°Ð½Ð°"
      ],
      [
        "ĠÐļ",
        "ÑĥÐºÑĥ"
      ],
      [
        "ĠÐļÑĥÐºÑĥ",
        "Ð»ÑĮÐºÐ°Ð½Ð°"
      ],
      [
        "ĠÐ¼Ð°",
        "ÑĤÐµÑĢÐ¸"
      ],
      [
        "Ñĥ",
        "ÑĢÐµ"
      ],
      [
        "Ñİ",
        "Ð±"
      ],
      [
        "ĠÐĶ",
        "Ð°ÑĪ"
      ],
      [
        "ĠÐĶÐ°ÑĪ",
        "ÑĥÑĢÐµ"
      ],
      [
        "ĠÐ½",
        "Ð¾Ð²"
      ],
      [
        "ĠÐĵÐ¸",
        "Ð·Ñĭ"
      ],
      [
        "Ð²",
        "ÐµÐ·"
      ],
      [
        "ĠÐ³Ð¾Ð»",
        "ÑĥÐ±"
      ],
      [
        "Ð¾Ð¶Ð¸",
        "Ð»Ñĭ"
      ],
      [
        "Ðµ",
        "Ð¾Ð¿"
      ],
      [
        "ĠÐ¥",
        "ÐµÐ¾Ð¿"
      ],
      [
        "ĠÐ¥ÐµÐ¾Ð¿",
        "ÑģÐ°"
      ],
      [
        "ÑĢÐµ",
        "Ð½Ð°"
      ],
      [
        "ĠÐ¥",
        "ÐµÑĦ"
      ],
      [
        "ĠÐ¥ÐµÑĦ",
        "ÑĢÐµÐ½Ð°"
      ],
      [
        "ÐµÐ·",
        "Ð»Ð¾Ð²"
      ],
      [
        "ĠÐĸ",
        "ÐµÐ·Ð»Ð¾Ð²"
      ],
      [
        "ĠÐ·Ð²ÑĳÐ·Ð´",
        "Ð½Ð¾Ð³Ð¾"
      ],
      [
        "ĠÐ·Ð°",
        "Ð±ÑĢÐ¾ÑĪ"
      ],
      [
        "Ð¶",
        "Ð¾Ñģ"
      ],
      [
        "ĠÐĶ",
        "Ð¶Ð¾Ñģ"
      ],
      [
        "ĠÐĶÐ¶Ð¾Ñģ",
        "ÐµÑĢÐ°"
      ],
      [
        "ĠÐļ",
        "ÑĥÐ±"
      ],
      [
        "ĠÐļÑĥÐ±",
        "ÐºÐ¾Ð²"
      ],
      [
        "Ð¾Ð´",
        "Ðµ"
      ],
      [
        "ĠÐļ",
        "Ð°Ðº"
      ],
      [
        "ĠÐ·Ð°",
        "ÑĤÐµÑĢÑı"
      ],
      [
        "ĠÐĿÐ°",
        "ÑģÐºÐ°"
      ],
      [
        "ÑĨÐ°",
        "Ð¼Ð¸"
      ],
      [
        "ÑģÑĤÐ°",
        "Ð»ÑĮ"
      ],
      [
        "ĠÐ½Ð°Ð±Ð»ÑİÐ´Ð°",
        "Ð»Ð¸ÑģÑĮ"
      ],
      [
        "ÑĢÐµ",
        "Ð¼Ð¸"
      ],
      [
        "ĠÑģÑĤ",
        "ÑĢÐµÐ¼Ð¸"
      ],
      [
        "ĠÐĲ",
        "Ð»ÑĮ"
      ],
      [
        "Ð´",
        "Ð¸"
      ],
      [
        "ĠÐ½Ð°Ð±Ð»ÑİÐ´Ð°",
        "Ð»Ð°ÑģÑĮ"
      ],
      [
        "Ðµ",
        "ÑĩÐµ"
      ],
      [
        "Ð½Ð¸",
        "ÑĨÐ°"
      ],
      [
        "ĠÐľ",
        "ÐµÑĩÐµ"
      ],
      [
        "ĠÐľÐµÑĩÐµ",
        "Ð¹"
      ],
      [
        "Ð¾",
        "Ñĥ"
      ],
      [
        "ÑĩÐµ",
        "ÑģÐº"
      ],
      [
        "ÑĪ",
        "ÐºÐ°"
      ],
      [
        "ÐºÑĥ",
        "Ñİ"
      ],
      [
        "ÐµÐ½",
        "ÑĤÐ°Ðº"
      ],
      [
        "ĠÐŁ",
        "ÐµÐ½ÑĤÐ°Ðº"
      ],
      [
        "ĠÐŁÐµÐ½ÑĤÐ°Ðº",
        "Ð»ÐµÐ¹"
      ],
      [
        "ĠÐ¿",
        "ÑĤÐ¸"
      ],
      [
        "Ð½Ðµ",
        "Ð¼"
      ],
      [
        "ĠÐ¤",
        "Ðµ"
      ],
      [
        "ĠÐ£",
        "ÑģÑĤÐ¸"
      ],
      [
        "Ð¸",
        "Ð»Ð°"
      ],
      [
        "ĠÑģÐº",
        "Ð»Ð¾"
      ],
      [
        "Ñĥ",
        "ÑħÐ¾Ð²"
      ],
      [
        "ĠÐ´",
        "ÑĥÑħÐ¾Ð²"
      ],
      [
        "Ð²Ð°",
        "Ð·"
      ],
      [
        "ĠÐĲ",
        "ÑĢ"
      ],
      [
        "ĠÐ±Ð°Ð±Ñĥ",
        "ÑĪÐºÐ¸"
      ],
      [
        "Ñĥ",
        "ÑĤ"
      ],
      [
        "ÑģÑĤ",
        "Ð²"
      ],
      [
        "ÑĤÐ°",
        "ÑĢÐ¸Ð¸"
      ],
      [
        "ĠÐ½Ð°",
        "Ð²Ð¸Ð³Ð°"
      ],
      [
        "Ð°ÑĢ",
        "ÑĤÐ°ÑĢÐ¸Ð¸"
      ],
      [
        "ĠÐ¢",
        "Ð°ÑĢÑĤÐ°ÑĢÐ¸Ð¸"
      ],
      [
        "ÑģÐº",
        "Ð¾Ð³Ð¾"
      ],
      [
        "ÑģÐºÐ¸",
        "Ð¼"
      ],
      [
        "Ð½ÑĮ",
        "Ð¸"
      ],
      [
        "ÑĩÐ¸",
        "Ð²Ð¾"
      ],
      [
        "ĠÑĥ",
        "ÐµÐ´"
      ],
      [
        "Ñĥ",
        "Ñİ"
      ],
      [
        "ĠÐ²",
        "Ð¿"
      ],
      [
        "ĠÐ²Ð¿",
        "Ðµ"
      ],
      [
        "ĠÐ´",
        "Ð¾Ð¿"
      ],
      [
        "Ð¾Ð¿",
        "Ð½Ð¾Ð¹"
      ],
      [
        "Ð¾ÑĤ",
        "Ð¾Ð¿Ð½Ð¾Ð¹"
      ],
      [
        "ĠÐ´Ð¾Ð¿",
        "Ð¾ÑĤÐ¾Ð¿Ð½Ð¾Ð¹"
      ],
      [
        "ĠÐ·Ð²ÐµÐ·",
        "Ð´Ñĭ"
      ],
      [
        "ĠÐ¸Ñģ",
        "Ð¿Ñĭ"
      ],
      [
        "ĠÐ¸ÑģÐ¿Ñĭ",
        "ÑĤÐ°"
      ],
      [
        "ĠÐľ",
        "Ñĥ"
      ],
      [
        "ÐµÑĢ",
        "ÑĮÑı"
      ],
      [
        "ĠÐ¢Ðµ",
        "Ð»ÑĮÑĨÐ°"
      ],
      [
        "ĠÐ»",
        "ÐµÐ¼Ñĥ"
      ],
      [
        "ĠÐ»ÐµÐ¼Ñĥ",
        "ÑĢÐ¸Ð¹"
      ],
      [
        "Ð»Ð¸",
        "ÑĤÐ¾Ð²"
      ],
      [
        "ÑĢÐ¾",
        "Ð¸"
      ],
      [
        "ĠÐ¼",
        "ÐµÐ³Ð°"
      ],
      [
        "ĠÑģÑĤ",
        "ÑĢÐ¾Ð¸"
      ],
      [
        "ĠÐ¼ÐµÐ³Ð°",
        "Ð»Ð¸ÑĤÐ¾Ð²"
      ],
      [
        "Ð²ÐµÑĢ",
        "ÑĤÑĮ"
      ],
      [
        "ĠÑĩÐµÑĤ",
        "Ð²ÐµÑĢÑĤÑĮ"
      ],
      [
        "ĠÐ¡",
        "ÑĤÐ°"
      ],
      [
        "Ð¿",
        "ÐµÑĢ"
      ],
      [
        "Ð±Ð¾ÑĢÐµ",
        "Ð¸"
      ],
      [
        "ĠÐĵÐ¸",
        "Ð¿ÐµÑĢ"
      ],
      [
        "ĠÐĵÐ¸Ð¿ÐµÑĢ",
        "Ð±Ð¾ÑĢÐµÐ¸"
      ],
      [
        "Ñī",
        "ÐµÐ½Ð¸Ð¸"
      ],
      [
        "ĠÐ·Ð½Ð°ÑħÐ°ÑĢ",
        "ÐºÐ¸"
      ],
      [
        "ĠÐ¡ÑĤÑĢÐ°",
        "Ð½Ð½Ð¸ÐºÐ¸"
      ],
      [
        "ĠÐ°ÑĤ",
        "Ð»Ð°Ð½"
      ],
      [
        "ĠÐ²ÑģÑĤÑĢÐµ",
        "ÑĩÑĥ"
      ],
      [
        "ÑĨ",
        "Ðµ"
      ],
      [
        "ĠÐ·Ð°ÑĪÐ¸ÑĦÑĢÐ¾Ð²Ð°",
        "Ð½Ð½ÑĭÐµ"
      ],
      [
        "Ð»Ð¸",
        "Ð½Ñı"
      ],
      [
        "ĠÐ³",
        "Ð»Ð¸Ð½Ñı"
      ],
      [
        "ĠÐ³Ð»Ð¸Ð½Ñı",
        "Ð½Ð¾Ð¹"
      ],
      [
        "Ð´",
        "Ð½Ð¸Ðµ"
      ],
      [
        "ĠÐ²",
        "Ð½Ð¾Ð²"
      ],
      [
        "ĠÐ¿Ð¾ÑģÐ»Ðµ",
        "Ð´Ð½Ð¸Ðµ"
      ],
      [
        "ĠÑĥÑģÐ¸Ð»Ð¸",
        "Ð»ÑģÑı"
      ],
      [
        "ĠÐ²Ð½Ð¾Ð²",
        "ÑĮ"
      ],
      [
        "ĠÐ¿",
        "Ð»Ðµ"
      ],
      [
        "Ñĩ",
        "Ð¾"
      ],
      [
        "ĠÐ¿Ð»Ðµ",
        "ÑĩÐ¾"
      ],
      [
        "ĠÐ½Ð°",
        "Ð·ÑĭÐ²Ð°"
      ],
      [
        "ÑĤÑĮ",
        "ÐµÐ³Ð¾"
      ],
      [
        "ĠÑį",
        "ÑĦ"
      ],
      [
        "ÑĦ",
        "ÐµÐº"
      ],
      [
        "ĠÑĢ",
        "Ð¾Ð´Ð°"
      ],
      [
        "ĠÐºÐ¾Ð½",
        "ÑĤÐ°Ðº"
      ],
      [
        "ĠÑĤÑĢÐµ",
        "ÑĤÑĮÐµÐ³Ð¾"
      ],
      [
        "ÐµÐ¼Ñĭ",
        "Ð¼"
      ],
      [
        "ĠÐ½Ð°Ð·ÑĭÐ²Ð°",
        "ÐµÐ¼ÑĭÐ¼"
      ],
      [
        "ĠÑįÑĦ",
        "ÑĦÐµÐº"
      ],
      [
        "ĠÐºÐ¾Ð½ÑĤÐ°Ðº",
        "ÑĤÐ°"
      ],
      [
        "ĠÑįÑĦÑĦÐµÐº",
        "ÑĤÐ¾Ð¼"
      ],
      [
        "ÑĤ",
        "Ð½ÑĭÐ¼"
      ],
      [
        "Ð´",
        "ÐµÐ¹ÑģÑĤÐ²Ð¸"
      ],
      [
        "Ð½Ð¸",
        "ÑĤÐ½ÑĭÐ¼"
      ],
      [
        "ĠÑį",
        "Ð»Ðµ"
      ],
      [
        "ÑĢÐµÐ¼",
        "ÐµÐ½Ð½ÑĭÐ¼"
      ],
      [
        "ÑĢÐ¾Ð¼",
        "Ð°Ð³"
      ],
      [
        "ÐºÑĤ",
        "ÑĢÐ¾Ð¼Ð°Ð³"
      ],
      [
        "ĠÐºÑĢÐ°",
        "ÑĤÐºÐ¾Ð²"
      ],
      [
        "ĠÐ²Ð¾Ð·",
        "Ð´ÐµÐ¹ÑģÑĤÐ²Ð¸"
      ],
      [
        "ĠÑįÐ»Ðµ",
        "ÐºÑĤÑĢÐ¾Ð¼Ð°Ð³"
      ],
      [
        "ĠÐºÑĢÐ°ÑĤÐºÐ¾Ð²",
        "ÑĢÐµÐ¼ÐµÐ½Ð½ÑĭÐ¼"
      ],
      [
        "ĠÐ²Ð¾Ð·Ð´ÐµÐ¹ÑģÑĤÐ²Ð¸",
        "ÐµÐ¼"
      ],
      [
        "ĠÑįÐ»ÐµÐºÑĤÑĢÐ¾Ð¼Ð°Ð³",
        "Ð½Ð¸ÑĤÐ½ÑĭÐ¼"
      ],
      [
        "ĠÐ¿Ð°",
        "ÑĢÑĭ"
      ],
      [
        "ĠÐ¼Ð¸",
        "Ð½ÑĥÑĤ"
      ],
      [
        "Ġ",
        "ÑĢÐ¾"
      ],
      [
        "ĠÐĴÐµÐ½",
        "ÐµÑĢÑĭ"
      ],
      [
        "ĠÐ¼",
        "ÐµÑĤÐ°"
      ],
      [
        "ÑĦ",
        "Ð¾ÑĢÑĥ"
      ],
      [
        "ĠÐ¼ÐµÑĤÐ°",
        "ÑĦÐ¾ÑĢÑĥ"
      ],
      [
        "Ð½Ð¸",
        "Ð»Ð¾ÑģÑĮ"
      ],
      [
        "ĠÐ·Ð°",
        "Ð¿Ð¾Ð¼"
      ],
      [
        "ĠÐ´Ð¾Ð»Ð³",
        "Ð¸Ðµ"
      ],
      [
        "ĠÐ·Ð°Ð¿Ð¾Ð¼",
        "Ð½Ð¸Ð»Ð¾ÑģÑĮ"
      ],
      [
        "ĠÐ¡ÑĤ",
        "ÑĢÐµ"
      ],
      [
        "ĠÐĽÑĥ",
        "Ð½Ñĭ"
      ],
      [
        "Ð»",
        "Ð¾Ð³Ð¾"
      ],
      [
        "ĠÐ¾ÑĤ",
        "Ð³Ð¾Ð»"
      ],
      [
        "Ð¾Ñģ",
        "Ð¾Ðº"
      ],
      [
        "ĠÐ½ÐµÐ´Ð°Ð²",
        "Ð½ÐµÐ³Ð¾"
      ],
      [
        "ĠÐ¿ÑĢÐ¾ÑĪ",
        "Ð»Ð¾Ð³Ð¾"
      ],
      [
        "ĠÐ¾ÑĤÐ³Ð¾Ð»",
        "Ð¾ÑģÐ¾Ðº"
      ],
      [
        "ĠÐ²ÑģÑĤÑĢÐµ",
        "ÑĩÐ°"
      ],
      [
        "ĠÑģÐ»ÑĥÑĩÐ¸",
        "Ð»Ð°ÑģÑĮ"
      ],
      [
        "ĠÐ½ÐµÐ¾Ð¶Ð¸Ð´Ð°Ð½",
        "Ð½Ð°Ñı"
      ],
      [
        "ĠÐ¿Ð°",
        "ÑĢÑĥ"
      ],
      [
        "ĠÐ´ÐµÑģÑıÑĤÐ¸Ð»ÐµÑĤ",
        "Ð¸Ð¹"
      ],
      [
        "Ð¾Ð¹",
        "ÑģÑĤÐ²Ð¸"
      ],
      [
        "Ð¾Ðº",
        "Ð¾Ð¹ÑģÑĤÐ²Ð¸"
      ],
      [
        "ĠÑģÐ¿",
        "Ð¾ÐºÐ¾Ð¹ÑģÑĤÐ²Ð¸"
      ],
      [
        "ĠÐ¿Ð¾ÑıÐ²Ð¸",
        "Ð»Ð¾ÑģÑĮ"
      ],
      [
        "ĠÑģÐ¿Ð¾ÐºÐ¾Ð¹ÑģÑĤÐ²Ð¸",
        "Ñı"
      ],
      [
        "ÑĦ",
        "Ð¾ÑĢÐ¾Ð²"
      ],
      [
        "Ð°ÑĢ",
        "ÑĦÐ¾ÑĢÐ¾Ð²"
      ],
      [
        "ĠÑĦ",
        "Ð°ÑĢÑĦÐ¾ÑĢÐ¾Ð²"
      ],
      [
        "ĠÑĦÐ°ÑĢÑĦÐ¾ÑĢÐ¾Ð²",
        "Ð¾Ð¹"
      ],
      [
        "ĠÐ´",
        "Ð¸Ñģ"
      ],
      [
        "Ð»Ñı",
        "Ð¼Ð¸"
      ],
      [
        "ĠÑĦÐ¾ÑĢ",
        "Ð¼Ðµ"
      ],
      [
        "ĠÐºÐ¾ÑĢÐ°Ð±",
        "Ð»ÑıÐ¼Ð¸"
      ],
      [
        "ĠÐ´Ð¸Ñģ",
        "ÐºÐ°"
      ],
      [
        "ÑģÑĤÐ¸",
        "ÑĩÐ½Ð¾"
      ],
      [
        "Ð¶Ðµ",
        "Ð½Ð¾"
      ],
      [
        "ĠÑĩÐ°",
        "ÑģÑĤÐ¸ÑĩÐ½Ð¾"
      ],
      [
        "ĠÐ¾ÑĤÑĢÐ°",
        "Ð¶ÐµÐ½Ð¾"
      ],
      [
        "ĠÐ±Ð°",
        "ÑĢÐµÐ»ÑĮ"
      ],
      [
        "ÐµÑĦ",
        "Ð°Ñħ"
      ],
      [
        "ĠÐ¾ÑģÑĤÐ°",
        "Ð²ÑĪÐ¸ÑħÑģÑı"
      ],
      [
        "ĠÐ±Ð°ÑĢÐµÐ»ÑĮ",
        "ÐµÑĦÐ°Ñħ"
      ],
      [
        "ĠÐ¿ÑĢÐµÐ´",
        "ÑĪÐµÑģÑĤ"
      ],
      [
        "Ð²Ð¾Ð²Ð°",
        "Ð»Ð¾"
      ],
      [
        "ĠÐ¿ÑĢÐµÐ´ÑĪÐµÑģÑĤ",
        "Ð²Ð¾Ð²Ð°Ð»Ð¾"
      ],
      [
        "Ðº",
        "Ð»Ð°"
      ],
      [
        "Ð¶",
        "Ð½Ð¾ÑģÑĤÑĮ"
      ],
      [
        "Ð±Ðµ",
        "Ð¶Ð½Ð¾ÑģÑĤÑĮ"
      ],
      [
        "ĠÐ±Ð»Ð¸Ð¶Ð°Ð¹ÑĪ",
        "ÐµÐ³Ð¾"
      ],
      [
        "ĠÐ½ÐµÐ¸Ð·",
        "Ð±ÐµÐ¶Ð½Ð¾ÑģÑĤÑĮ"
      ],
      [
        "ĠÐ±ÑĥÐ´ÑĥÑī",
        "ÐµÐ³Ð¾"
      ],
      [
        "ĠÐ¿ÑĢÐ¾",
        "ÑĢÐ¸ÑĨÐ°"
      ],
      [
        "ĠÑģÑĤÑĢÐµÐ¼Ð¸",
        "ÑĤÐµÐ»ÑĮÐ½Ð¾"
      ],
      [
        "Ñĥ",
        "Ð»Ðµ"
      ],
      [
        "Ð¿",
        "Ð¾Ð´"
      ],
      [
        "ĠÐ·",
        "ÐµÐ¼"
      ],
      [
        "ĠÐ³",
        "ÑĥÐ»Ðµ"
      ],
      [
        "ÑĥÑī",
        "ÐµÐ¼"
      ],
      [
        "ĠÐ¸Ð´",
        "ÑĥÑīÐµÐ¼"
      ],
      [
        "ĠÐ±ÑĥÐ´",
        "ÑĤÐ¾"
      ],
      [
        "ĠÑģÑĤÑĢÐ°Ð½",
        "Ð½Ð¾Ð¼"
      ],
      [
        "ĠÐ·ÐµÐ¼",
        "Ð»Ð¸"
      ],
      [
        "Ð½Ð¸",
        "Ð¼Ð¸"
      ],
      [
        "ĠÑģÐ¾Ð±ÑĭÑĤÐ¸Ñı",
        "Ð¼Ð¸"
      ],
      [
        "ĠÐ½ÐµÐ´Ð°Ð²",
        "Ð½Ð¸Ð¼Ð¸"
      ],
      [
        "Ð½",
        "Ð½Ð¾Ð¼"
      ],
      [
        "Ð¾Ð²Ð°",
        "Ð½Ð½Ð¾Ð¼"
      ],
      [
        "ĠÑĤÐ°",
        "Ð»Ð°Ð½"
      ],
      [
        "ĠÐ²Ð°Ð¶",
        "Ð½Ð¾Ð¼"
      ],
      [
        "Ð°Ð»Ð¸Ð·",
        "Ð¾Ð²Ð°Ð½Ð½Ð¾Ð¼"
      ],
      [
        "ĠÐ½ÐµÑĢÐµ",
        "Ð°Ð»Ð¸Ð·Ð¾Ð²Ð°Ð½Ð½Ð¾Ð¼"
      ],
      [
        "ĠÑĤÐ°Ð»Ð°Ð½",
        "ÑĤÐµ"
      ],
      [
        "ÐµÑĢÐµÐ±",
        "ÑĢÑı"
      ],
      [
        "ÑĢ",
        "ÑıÑģ"
      ],
      [
        "ĠÐ¿",
        "ÑģÐ¸"
      ],
      [
        "Ñħ",
        "Ð¾Ð»Ð¾Ð³Ð¸"
      ],
      [
        "ĠÑĥ",
        "Ð²Ð¸Ð´"
      ],
      [
        "ÑĩÐµÑģÐºÐ¸",
        "Ð¼"
      ],
      [
        "ĠÐ¿Ð¾ÑĤ",
        "ÑĢÑıÑģ"
      ],
      [
        "ĠÐ¿ÑģÐ¸",
        "ÑħÐ¾Ð»Ð¾Ð³Ð¸"
      ],
      [
        "ĠÑĥÐ²Ð¸Ð´",
        "ÐµÐ½Ð½Ð¾Ð³Ð¾"
      ],
      [
        "ĠÐ¿Ð¾ÑĤÑĢÑıÑģ",
        "ÐµÐ½Ð¸ÐµÐ¼"
      ],
      [
        "ĠÐ¿ÑģÐ¸ÑħÐ¾Ð»Ð¾Ð³Ð¸",
        "ÑĩÐµÑģÐºÐ¸Ð¼"
      ],
      [
        "Ð¾",
        "Ð½Ð¸"
      ],
      [
        "ĠÐ½Ðµ",
        "Ð±Ð°"
      ],
      [
        "Ð¾ÑĢ",
        "ÑĨÐ¸ÑıÑħ"
      ],
      [
        "Ð¾Ð¿",
        "Ð¾ÑĢÑĨÐ¸ÑıÑħ"
      ],
      [
        "ĠÐ¿ÑĢ",
[...]
